#version: 0.2
아 요</w>
네 요</w>
니 다</w>
니 다
요 .</w>
는 데</w>
. .
배 송
어 요</w>
너 무</w>
좋 아요</w>
하 고</w>
이 뻐
아 요
만 족
니다 .</w>
가 격
생 각
사 이
괜 찮
보 다</w>
. .</w>
네 요
지 만</w>
합 니다</w>
구 매
예 뻐
이 쁘
해 서</w>
입 을
같 아요</w>
해 요</w>
하 게</w>
^ ^</w>
사이 즈
어 요
그 냥</w>
생각 보다</w>
이뻐 요</w>
습 니다</w>
~ ~</w>
그 래
아 서</w>
어 서</w>
많 이</w>
입 어
으 로</w>
좋 아요
너 무
했 는데</w>
네 요.</w>
입 으
받 았
사 진
예 쁘
재 질
디 자
가격 대
.. .</w>
! !</w>
길 이
색 상
보 이
~ ~
습 니다.</w>
예뻐 요</w>
아 니
구 요</w>
만족 합니다</w>
조 금</w>
빠 르
아 요.</w>
저 렴
디자 인
가격대 비</w>
이 라</w>
느 낌
맘 에
요 ~</w>
배송 도</w>
주 문
맘 에</w>
바 지
부 분
배 송</w>
는 데
합 니다.</w>
감 사
마 음
배송 이</w>
입 기
사이 즈</w>
입 고</w>
소 재
같 아요
따 뜻
습 니다
들 어요</w>
그 냥
입 기</w>
합 니다
정 말</w>
어 요.</w>
에 요</w>
입 니다</w>
인 데</w>
무 난
이 랑</w>
하 네요</w>
좋 아
세 요</w>
그래 도</w>
빠르 고</w>
잘 받았
좋 은
에 서</w>
추 천
별 로
마음 에</w>
옷 은</w>
완 전</w>
지 않
좋 고</w>
배송 은</w>
다 른
여 름
한 데</w>
괜찮 아요</w>
적 당
.. .
근 데</w>
약 간</w>
이뻐 요
상 품
그 런
좋 네요</w>
리 고</w>
진 짜</w>
냄 새
있 어서</w>
해 요
감 이</w>
편 하고</w>
으 면</w>
편 하게</w>
편 하
화 면
샀 는데</w>
아 주</w>
거 같
입 었
잘 입을
엄 청</w>
어 울
보 여
제 가</w>
들 어
스 럽
하 지만</w>
구매 했
허 리
이쁘 고</w>
보 다
하 니</w>
많 이
입으 면</w>
라 서</w>
기 장
정 도
부분 이</w>
다 고</w>
구 입
입 고
색 깔
옷 이</w>
네요 ~</w>
고 급
가 볍
가격 에</w>
입 니다.</w>
스 러
구 요
베 이
예뻐 요
하 고
살 짝</w>
거 같아요</w>
지 는</w>
핏 이</w>
보 통
은 데</w>
사이즈 가</w>
스 타
안 에</w>
이 쁜
그 렇
반 품
려 고</w>
그래 요</w>
것 같
워 요</w>
이쁘 네요</w>
깔 끔
시 원
그 대
감 도</w>
원 단
색 이</w>
블 랙
이 나</w>
에 도</w>
좋 았
이 에요</w>
부 드
지 만
제 품
입 을</w>
보 니</w>
지 도</w>
길이 가</w>
처 럼</w>
색 도</w>
이 트
어 깨
다 가</w>
해 보이
아 이
바 지</w>
레 이
들 어요
만 족</w>
좋 을
기 대
감사 합니다</w>
겨 울
아 주
넉 넉
기 다
이 네요</w>
늘 어
까 지</w>
가 방
핏 도</w>
예쁘 고</w>
아 쉽
않 고</w>
세 탁
하 시
다 른</w>
다 니
! !!</w>
생각 했
보 고</w>
~ ^^</w>
이 쁩
1 6
에 는</w>
스 판
게 요</w>
하 나
색상 도</w>
나 쁘
예 요</w>
이 라
편 해요</w>
신 발
맘에 들어요</w>
입 니다
별 로</w>
분 들
니 트
좋 아요.</w>
고 민
더 라
소 매
워 서</w>
두 께
것 같아요</w>
좋 은</w>
정 도</w>
재질 도</w>
조 금
같 아요.</w>
여 기
그 리고</w>
두 꺼
니 당</w>
구매 했는데</w>
입어 야
사이즈 도</w>
해 요.</w>
려 요</w>
좋 습니다</w>
구 매</w>
이 에
귀 찮
려 서</w>
스타 일
있 는</w>
해 주
~ ~~</w>
재질 이</w>
만족 합니다
네요 ..</w>
날 씬
만족 합니다.</w>
^ ^
니 까</w>
가 성
긴 한데</w>
아 쉬
입어 도</w>
겠 어요</w>
하 나</w>
라 인
있 어요</w>
빠 른
있 을
기 도</w>
세 요
디자인 은</w>
었 는데</w>
같 은</w>
만 큼</w>
오 래
다 만</w>
.. ..</w>
이 고</w>
조 아요</w>
치 마
핑 크
하 는</w>
핏 은</w>
완 전
냄새 가</w>
같 이</w>
길이 도</w>
괜찮 은
떨 어
이 상
예 쁜
단 추
하 세요</w>
더 니</w>
하 면</w>
가격 도</w>
가 을
색상 이</w>
교 환
모 델
걸 렸
는 게</w>
잘받았 습니다</w>
저 는</w>
셔 츠
져 서</w>
아이 보
어요 ~</w>
부 들
보 내
기 본
베이 지
가격 이</w>
리 가</w>
아 닌
해 야
오 버
추 천</w>
쫀 쫀
가 디
했 어요</w>
! !
컬 러
빨 라
으 로
크 게</w>
가볍 고</w>
께 요</w>
았 는데</w>
부드 럽
엄 청
도 톰
일 단</w>
색 상</w>
와 서</w>
디자인 도</w>
걱 정
그대 로
검 정
판 매
을 때</w>
친 절
퀄 리
여름 에</w>
보여 요</w>
디자 인</w>
네 여</w>
보 통</w>
구 요.</w>
생각 보다
괜찮 아요
예 쁩
1 0
그 럭
커 서</w>
두 껍
그럭 저
코 디
만 큼
불 편
보 단</w>
달 라
없 이</w>
고 요</w>
나 서</w>
옷 도</w>
있 고</w>
사진 이랑</w>
보 풀
느 렸
아 직</w>
여 리
모 르
자 체
듭 니다</w>
색 은</w>
타 이트
주문 했는데</w>
빨 랐
있 는
다 르
입 는데</w>
파 세요</w>
사 람
받 아
좋아요 ~</w>
적 으로</w>
고 ,</w>
않 아요</w>
소재 가</w>
들 고</w>
신 축
사이즈 는</w>
잘받았 어요</w>
네요 .
입 겠
셔 서</w>
구 김
좋 아서</w>
인 데
얇 아서</w>
자 주</w>
데 일
질 이</w>
안 나
따뜻 하고</w>
그냥 그래요</w>
기 모
처 음
요 ..</w>
이쁜 데</w>
같 은
조 아요
느낌 이</w>
1 7
하 지</w>
좋 습니다.</w>
하 기</w>
예쁘 네요</w>
감 은</w>
괜찮 네요</w>
5 5
조 아
기장 이</w>
했 는데
다 음
지 금
입으 려
대 로</w>
싼 티
좋 습니다
날 씨
네 용</w>
참 고
구매 하
만족 해요</w>
딱 맞
귀찮 아서</w>
루 즈
지 금</w>
샀 어요</w>
가성 비</w>
애 매
이 너
키 가</w>
가 격</w>
안 되
입으 려고</w>
선 물
커 요</w>
부 분</w>
청 바지
신 을
면 서</w>
기 가</w>
귀 여
입어 보
질 도</w>
색상 은</w>
아니 고</w>
정 사이즈
저렴 하게</w>
좋은 데</w>
정 말
가격대 비
바 로</w>
하 는데</w>
잘 어울
마음 에
해 도</w>
네 이
그런 지</w>
분들 은</w>
비 해</w>
재질 은</w>
좋 네요
포 인
주 머
때 문
사진 과</w>
; ;</w>
같아요 ~</w>
생각했 던
아 무
배송 도
상 품</w>
만 에</w>
자 마
오 래</w>
없 어서</w>
실 망
진 짜
짱 짱
입을 만
데일 리
어 두
고 는</w>
잘 맞
다 는</w>
요 즘</w>
저렴 한</w>
요 !</w>
레 깅
늘어 나
가 죽
지 고</w>
배송 이
이쁘 게</w>
아니 라</w>
수 선
코 트
신축 성
이뻐 서</w>
신 고</w>
예쁘 게</w>
엉 덩
리 는</w>
그대 로</w>
라 우
스 커
다 닐
보다 는</w>
2 3
이쁩 니다</w>
것 도</w>
소재 도</w>
실 밥
블 랙</w>
무난 하게</w>
핏 이
허리 가</w>
퀄리 티
빨라 요</w>
들어 가
해 요~</w>
매 우</w>
작 은
듯 해요</w>
여 성
입으 니</w>
않 아서</w>
그럭저 럭</w>
여 서</w>
입을 수
전 체
짧 은
색 이
하 는
입을 수</w>
같 네요</w>
부드럽 고</w>
해 서
그래 서</w>
느 낌</w>
해 보
착 용
이 뿌
블 라우
한 번
어 디
있 었
이 건</w>
습니다 .
나 오
입어 야</w>
적당 하고</w>
기 에</w>
않 았
부드 러
짧 아요</w>
느 려요</w>
판매 자
자마 자</w>
에 서
고 싶
예뻐 서</w>
얇 고</w>
봄 에</w>
박 음
굿 굿</w>
옷 이
있 어</w>
편 안
지 퍼
했 지만</w>
신 어
생각했 던</w>
라 고</w>
나 요</w>
기 분
~ !</w>
편 이
보이 고</w>
화 이트
제 품</w>
그냥 저
가격 만큼
한 번</w>
물 건
괜찮 고</w>
추천 합니다</w>
기 는</w>
~~ ^^</w>
하 네요
때문 에</w>
지않 고</w>
알 았는데</w>
이 쁨</w>
느 리
나 온
그런 데</w>
있 지만</w>
이 쁠
박 시
나 름</w>
색깔 도</w>
그 러
비 슷
최 고
고급 스러
지 가</w>
가디 건
너무 너무</w>
감사 합니다
모 양
예쁜 데</w>
아이보 리
느낌 이
6 6
.. ..
는 거
잘입을 게요</w>
있 네요</w>
입 어요</w>
셔 츠</w>
나 왔
고급 스럽
스 트
모르 겠
번 창
크 네요</w>
니 당
는 거</w>
하 네요.</w>
크 고</w>
좋아요 !</w>
좋아 용</w>
있 어
보내 주
다 시</w>
신 발</w>
나쁘 지</w>
귀 엽
포인 트
가 방</w>
2 4
시 고</w>
들 이</w>
이 런
니 트</w>
하 게
좋 겠
다 고
친 구
보 들
늦 었
적 극
으 니</w>
가 벼
두 번
그 레이
거 나</w>
주머 니
신 경
긴 하지만</w>
겨울 에</w>
여기 저
시 켰
부 담
레이 어
똑 같
예뻐 요.</w>
요 .
사 서</w>
만족 스럽
길 어서</w>
이 가</w>
오버 핏
여 행
드 네요</w>
렇 게</w>
좋 으
사진 보다</w>
이쁘 네요
저렴 하고</w>
깔끔 하고</w>
발 볼
구매했 어요</w>
포 장
보 면</w>
별 루
얇 아요</w>
이 트</w>
없 고</w>
좋 아</w>
필 요
좋아요 ~~</w>
약 간
한 치
진 않
되 어
베이 지</w>
강 추
것 보다</w>
입기 에</w>
거 같아요
이뻐 용</w>
다 리
한 데
어요 !</w>
모 두</w>
들 고
통 이</w>
이뻐 요~</w>
걱정 했는데</w>
흰 색
주문 했
그렇 게</w>
보이 는</w>
카 키
: )</w>
허 벅
~~ ~
털 이</w>
전 에</w>
이뻐 요.</w>
불 편하
맘에 들어요
디자인 이</w>
가볍 게</w>
편 이라</w>
있 는데</w>
입었 는데</w>
아쉽 네요</w>
나 가
, ,
여 유
싸 이
다 녀
예뻐 요~</w>
상품 은</w>
사 고</w>
여기저 기</w>
이 예요</w>
들 어서</w>
괜찮 은데</w>
합 니당</w>
만족 스러
다 면</w>
구매 할
들 었
역 시</w>
그 레
하 세
일 어
저렴 해서</w>
잘 산
듭 니다.</w>
비 치
보여 서</w>
거 의</w>
좋 네요.</w>
저 한
한 거</w>
하 늘
원단 이</w>
색깔 이</w>
라인 이</w>
재 질</w>
요 ~~</w>
사 진</w>
실 제
짧 아서</w>
걸 치
가을 에</w>
아 여</w>
팔 이</w>
색 감도</w>
살 짝
잘 못
하 루
원 피
지 도
얇 은
쪽 이</w>
옷 은
화 사
마 감
비 싸
네요 ...</w>
빠른 배송</w>
하 기
파 세
이 거</w>
레깅 스
두 툼
옷 을</w>
실 물
스커 트
햇 는데</w>
이 렇게</w>
얇 은</w>
브 라
바 느
더라 구요</w>
고민 하
톡 톡
주 름
허 리</w>
발 이</w>
품 이</w>
듭 니다
가디 건</w>
어깨 가</w>
잘 입고
올 라
가성 비
잘입을 께요</w>
입기 엔</w>
음 .</w>
무 겁
네요 ..
네 여
좀 더</w>
적당 히</w>
봤 는데</w>
자체 는</w>
상 태
잘입을 게
아 서
해보이 고</w>
것 같아요
요 ^^</w>
배송 빠르고</w>
길이 는</w>
원 하
사 고싶
받 쳐
감사 합니다.</w>
같 습니다.</w>
좋 음</w>
부 터</w>
좋아요 좋아요</w>
받았 습니다</w>
뭔 가</w>
아니 지만</w>
하 려
어요 .
듯 요</w>
같 아서</w>
좋 을</w>
슬 림
가 슴
굉 장
크 게
아 용</w>
이 런</w>
파 세요
기다 렸
화면 이랑</w>
좋았 을
무 거
평 소</w>
여 러
보통 입니다</w>
이너 로</w>
받 앗
자 주
빠 지
들 어요.</w>
다니 기</w>
건 데</w>
택 배
저렴 한
빨 라서</w>
위 에</w>
수 납
작 게</w>
자 켓
상품 평
네요 ^^</w>
그냥저 냥</w>
검 은
보풀 이</w>
기장 도</w>
용 으로</w>
느낌 은</w>
전체 적으로</w>
요 ...</w>
빨 리</w>
구매 평
작 아서</w>
이 라서</w>
어요 ..</w>
그레 이</w>
느 림</w>
그 저
괜찮 을
오래 걸
빨 리
1 8
어 용</w>
마 니
하 구</w>
바지 는</w>
가 서</w>
해 보여요</w>
받아 보니</w>
바지 가</w>
계 속</w>
부들 부들
목 이</w>
여 름</w>
네요 !</w>
건 지</w>
원단 도</w>
연 락
빠른 배송
괜찮 아요.</w>
싸 구
질 은</w>
같 고</w>
색 감
예쁩 니다</w>
나쁘 지않
하 세요
튼 튼
후 기
소재 는</w>
사 용
짧 고</w>
원 래</w>
고 ..</w>
집 에서</w>
데일리 로</w>
굉장 히</w>
일 주
아 직
네이 비
있 을</w>
입 는
정 사이즈</w>
맞 아요</w>
괜찮 습니다</w>
이 번
구김 이</w>
편 해요
처 음</w>
불 량
구 멍
확 인
입 는</w>
~~ ~~</w>
인 지</w>
편 인데</w>
재 구매
엄 마
두 개
만 원
처 리
부 츠
단추 가</w>
훨 씬</w>
한치 수</w>
빠 른</w>
네요 ~
남 자
길 이</w>
예 쁜</w>
아이보 리</w>
끈 이</w>
특 이
화면 보다</w>
요 ~
싸 게</w>
소매 가</w>
받았 어요</w>
매 치
중 간
원피 스
레이어 드
패 딩
가격 만큼</w>
으 나</w>
편 해서</w>
작 아요</w>
되 고</w>
한 사이즈</w>
어울 리
뚱 뚱
날씨 에</w>
그 랬
입 은
길 고</w>
구매 하고</w>
가 능
정도 로</w>
심 플
문 의
기 본</w>
입기 에는</w>
후 기</w>
티 셔츠
재질 이
요 즘
어 도</w>
이에 요.</w>
무 릎
화 이트</w>
내 려
나 시
고 무
제품 은</w>
별로 에요</w>
갈 때</w>
0 0
오 늘</w>
습니다 ~</w>
되 서</w>
빼 고는</w>
거 리
할 때</w>
입어 보니</w>
요 ..
슬 랙
네요 ~~</w>
한 게</w>
까 지
인데 도</w>
똑 같아요</w>
많이 파세요</w>
옷 에</w>
나 고</w>
기 도
괜찮 은</w>
스판 끼
겨 울</w>
구입 했
없 는</w>
비 싼
이 가격에</w>
시원 하고</w>
색 감이</w>
더 워
아 까
떨어 지
거 라</w>
는데 ,</w>
길이 감도</w>
구입 했는데</w>
여리 여리
맞 고</w>
마 른
좋 구요</w>
왔 어요</w>
구 요~</w>
! !!!</w>
블라우 스
, ,</w>
져 요</w>
운 동
대 박
할 듯
바 닥
맛 에</w>
대 비</w>
후 회
이쁩 니다
다 들</w>
좋아 여</w>
같 은데</w>
중 에</w>
언 니
소 재</w>
제 일</w>
작 은</w>
이 예
무 엇
라 이
재 구매</w>
하 겠
입을 게
신 으
할 듯</w>
반 품</w>
마 니</w>
편하 게
쇼 핑
화면 과</w>
생각 보단</w>
색 으로</w>
밴 딩
하 구요</w>
빠르 고
시 면</w>
매 우
하 지만
이 랑
어 정
요 ?</w>
이라 고</w>
네 용
10 0
1 5
따 듯
려 구요</w>
않 네요</w>
같 습니다</w>
비 침
있 습니다</w>
예뻐요 !</w>
못 입을
는 지</w>
전 혀</w>
이 거
만족 해요
신발 은</w>
스타 일</w>
느 리고</w>
원하 던</w>
에 요.</w>
괜찮아요 ~</w>
좋아요 ^^</w>
따뜻 해요</w>
도 착
활 용
입었 을때</w>
달라 요</w>
느 려
하고 싶
습 니당</w>
부분 은</w>
빼 곤</w>
구 겨
냄 새</w>
싸이 즈
보 기
간 절
신 는데</w>
되 어</w>
잘입을 께
입을 게요</w>
시켰 는데</w>
나 봐
안 하고</w>
길 래</w>
가 지</w>
잡 아주
입기 는</w>
색 깔</w>
2 7
다 녔
나 네요</w>
하 긴</w>
잘 입고</w>
입니다 .
여기 서</w>
뻣 뻣
가 까
크 기도</w>
알 았
비 추
괜 찬
입 음</w>
발 목
마 다</w>
치 마</w>
프 리
인 터
수 고
많 아서</w>
신 고
수 도</w>
밑 단
좋은 거</w>
부 해보이
무난 해요</w>
제 가
워 요.</w>
무 게
감 이
있 어요
나 와
있 어요.</w>
맘에 들어
않 지만</w>
받았 습니다.</w>
헐 렁
해 여</w>
분 은</w>
받 고</w>
다른 곳
는데 도</w>
편하 고
너무 이뻐요</w>
분 이</w>
맘에 듭니다</w>
드 렸
골 반
운 데</w>
핏 도
퀄리 티</w>
을 때
않 아요
블라우 스</w>
하시 고</w>
하 지않
종 아
소 매</w>
코 트</w>
우 선</w>
맘에 드
기다 리
좋 고
조 심
더라 구요
조 끼
발볼 이</w>
무엇 보다</w>
되 게</w>
다 행
느렸 지만</w>
넣 어
2 5
16 0
긴 해요</w>
환 불
청 바지</w>
드 립
해 용</w>
배송 은
들 어</w>
꺼 같아요</w>
길 어
있 었는데</w>
이 면</w>
이 것
부분 에</w>
굿 굿
쪽 에</w>
없 어요</w>
? ?</w>
잘 입겠
않 은</w>
솔 직
길 어요</w>
탄 탄
지 연
분 들</w>
해주 셔서</w>
처 리가</w>
되 었
까 봐</w>
합니다 .
있 습니다.</w>
없 어
삿 는데</w>
자체 가</w>
이뻐요 !</w>
엉덩 이</w>
쏘 쏘</w>
는 건</w>
나 는</w>
통 통
아쉬 워요</w>
배송도 빠르고</w>
이 지만</w>
어정 쩡
그냥 그래
구 여</w>
주 고</w>
아니 네요</w>
배송 빨라요</w>
몸 에</w>
귀여 워요</w>
해 야</w>
하 니
이 용
금 방</w>
이뻐요 ~~</w>
오래 걸렸
어 깨</w>
레이 스
딱 이
길 었
평 소
예뻐 용</w>
단 추</w>
하 면서</w>
주 문</w>
어 떻
빼 고</w>
넘 나</w>
확 실
한 철</w>
찢 어
짧 은</w>
일 에</w>
이쁩 니다.</w>
이 쁜</w>
에 게</w>
겠 네요</w>
없 네요</w>
두껍 고</w>
한 달
작 게
당 황
괜찮 았
예 쁠
엉덩 이
부분 도</w>
대 만족
어 둡
벙 벙
두꺼 워서</w>
다른 색도</w>
별로 네요</w>
한 거
에 나</w>
물 건</w>
그럭저 럭
4 4
흐 물
편 하네요</w>
소 라
문 제
잘 받앗
사이 트
브라 운
이 정도
오 고</w>
였 는데</w>
시 간
색 이라</w>
테 는</w>
요 !!</w>
두꺼 운
이 요</w>
않 아</w>
두꺼 운</w>
늦 게</w>
가방 이</w>
텐 데</w>
컬 러</w>
자 꾸</w>
나 와서</w>
추 워
쫀쫀 하고</w>
적당 한</w>
여 자
싼 맛에</w>
더 울
늦었 지만</w>
좋아요 좋아요
적 인</w>
생각보다 는</w>
맨 투
마음에 들어요</w>
루즈 핏
같아요 !</w>
답 답
이뻐 여</w>
아 프
겠 지만</w>
2 주
힘 들
있 으
어요 ~
선 택
구 두
가 지
2 6
천 이</w>
발 도</w>
밖 에</w>
느 린
괜찮은 거</w>
이 쁨
고급스럽 고</w>
트 임
상품 도</w>
사 세요</w>
까 끌
음 ..</w>
역 시
샀 는데
까 슬
취 소
지 면</w>
적극 추천
습니다 !</w>
뜯 어
양 말
다 는
좋 구</w>
아 님</w>
밝 은</w>
목 부분이</w>
개 인
입었 어요</w>
이 뽀
어 여</w>
않았 지만</w>
사진 처럼</w>
도톰 하고</w>
받았 는데</w>
단 점
하 이
품 절
원 단</w>
벨 트
두 개</w>
다 리가</w>
참고 하세요</w>
두번 째</w>
그렇 고</w>
한 철
좋아요 !!</w>
인 거</w>
다음 에</w>
같 이
처음 에</w>
제 대로</w>
세 련
좋았 어요</w>
스럽 고</w>
늦 게
이쁘 고
어요 ~~</w>
귀엽 고</w>
빠 짐
먼 지가</w>
구매 한
다 시
네이 비</w>
공 간
특 히</w>
좋아요 ~
있 음</w>
인 듯</w>
엉 망
화 면</w>
슬랙 스
보 라
핑 크</w>
안 에
절 대</w>
린 넨
레깅 스</w>
흰 색</w>
예쁩 니다.</w>
맞 네요</w>
동 일
강 추</w>
해 보여
치 가</w>
입기 도</w>
다 보니</w>
들어요 ~</w>
도 좋고</w>
느 껴
냄새 는</w>
하 기도</w>
체 형
잘 신을
있 으면</w>
예뻐요 ~~</w>
예 요.</w>
묻 어
그 닥</w>
인 줄</w>
이 드
어두 운</w>
시 키
빼 면</w>
가 을</w>
실밥 이</w>
색깔 은</w>
빠 릅
고 요.</w>
24 0
했 네요</w>
티 가</w>
예쁩 니다
어요 ^^</w>
쏘 쏘
내 요</w>
꼼 꼼
그 런</w>
풍 성
없 는
아주 좋아요</w>
보 는
같 아</w>
짜 증
조금 만</w>
늘어 날
적 극</w>
입으려 구요</w>
신발 이</w>
몇 번</w>
구매 해서</w>
키 가
신축성 이</w>
마 무
라 인</w>
확실 히</w>
으로 도</w>
신 으면</w>
좋아 용
일주 일
않 아요.</w>
아닌 데</w>
바지 에</w>
문 자
마 감이</w>
잘 샀
이쁘 네요.</w>
밴 드
넓 어서</w>
날씬 해보이
23 5
이쁘 다고</w>
이뻐 용
으로 는</w>
대 로
기장 은</w>
착 화
살 이</w>
번창 하세요</w>
놀 랐
기다 린
카 라
생각했던 거
너무 좋아요</w>
올 려
싸구 려
실제 로</w>
선물 로</w>
밑 위
편 한
인터 넷
되 는</w>
넉넉 하고</w>
괜찮 습니다.</w>
듯 .</w>
하 진</w>
않 을
낙 낙
같 네요.</w>
입 긴</w>
니 깐</w>
가격 은</w>
컬러 도</w>
아쉽 지만</w>
싸 고</w>
스커 트</w>
독 특
했 더니</w>
항 상</w>
지만 ,</w>
입을 께요</w>
여성 스러
빠르 게</w>
블 루
무 난</w>
동 생
검 정</w>
했 어요.</w>
고 .</w>
2 0
평 범
아니 라서</w>
무난 하고</w>
두께 도</w>
넘 게</w>
고 ..
가격 에
하 신
최 고</w>
암 튼</w>
부 탁
걸 로</w>
줘 서</w>
어 쩔
아쉬 운
신 었
신 랑
따뜻 하게</w>
것같 네요</w>
지퍼 가</w>
조아요 조아요
잘 입
던 데</w>
늦 어
답 변
긴 한데
하 셔
전 화
이 네요.</w>
받 자마자</w>
걸 린
하시 면</w>
이 제</w>
근 데
구 입</w>
티 셔츠</w>
으 면
지 는
정도 는</w>
불 편해요</w>
허리 는</w>
입을수 있을
싶 어요</w>
반품 하기</w>
라 도</w>
거같 네요</w>
짧 아요
이 었
맞 는</w>
같아요 .
지 마
부 들</w>
좋아요 .
예 쁨</w>
선 이</w>
브 이
면 이</w>
거같 아요.</w>
주름 이</w>
입으 니까</w>
보이 는
것같 아요.</w>
~~ ~~
차 이
오 히
아 래
소재 라</w>
친절 하게</w>
짧 네요</w>
조 끼</w>
시원 하게</w>
빳 빳
빠르 네요</w>
냄새 도</w>
그 닥
오 프
색 도
보 일
무난 합니다</w>
는데 ..</w>
걸 쳐
최 악
좋 네요~</w>
만족합니다 ~</w>
만족 합니당</w>
내 내</w>
가 는</w>
; ;
하 면
조아 조아
어 느
서 도</w>
받 아서</w>
내 가</w>
날씬 해</w>
날씨 가</w>
유 행
원단 은</w>
솔직 히</w>
듯 ..</w>
고무 줄
주문 하고</w>
어떻 게</w>
생 기
딱 딱
뒤 에</w>
같 아
추천 합니다
잘받았 습니다.</w>
일 자
얼 굴
신경 쓰
입을 만</w>
입 은</w>
아 닙
네요 ...
하 셔서</w>
품 질
왔 네요</w>
아니 에요</w>
둘 다</w>
기분 이</w>
귀찮 아</w>
입을만 해요</w>
입어 보고</w>
여름 에도</w>
보 는</w>
청바지 에</w>
차 이가</w>
주문 해서</w>
보통 이에요</w>
따뜻 하
넉넉 하게</w>
기 장</w>
고민하 다가</w>
할 것</w>
추 울
이 유
이 상</w>
바 로
너무 너무
해요 !</w>
하나 만</w>
싶 네요</w>
신경 써
사 야
사진 과
밝 은
바 람
겠 어요.</w>
좋을 듯</w>
저한 테는</w>
몇 번
주머니 가</w>
오히 려</w>
어울 릴
데 ..</w>
니 까
예쁘 네요.</w>
리 면</w>
나 갔
금 액
귀여 워
건 지
가벼 워서</w>
시원 한</w>
따 로</w>
했 습니다.</w>
지도 않고</w>
없 어</w>
보이 네요</w>
보들 보들
무난 한</w>
달라 붙
놓 고</w>
합 니당
득 템
드 는데</w>
남 편
정사이즈 로</w>
입어야 겠어요</w>
외 출
아 닌</w>
무 늬
티 에</w>
추천 해요</w>
이 게</w>
원 하는</w>
막 상</w>
리 네요</w>
들 은</w>
니다 .
입기 좋아요</w>
에 요
안나 고</w>
구매 평</w>
품 도</w>
에 게
못 입
느렸 어요</w>
그 거
할 거</w>
하루 만에</w>
재질 이라</w>
사진 그대로
가 려
적극 추천</w>
잡 아
스 키
다르 네요</w>
구요 .
하세 요.</w>
추천 합니다.</w>
없 었
시 스
색상 이
박음 질이</w>
굽 이</w>
좋 겠어요</w>
자 켓</w>
이에 요
안 감이</w>
느 려서</w>
그냥저 냥
10 5
연 청
괜찮 네요.</w>
오 리
마 르
고 ...</w>
정 장
수고 하세요</w>
부들 부들</w>
듯 합니다</w>
도톰 해서</w>
냄새 가
구매했 는데
입을 께
어요 ...</w>
생 각</w>
사이즈 가
길이 감이</w>
기 대</w>
실물 이</w>
느낌 도</w>
오버 핏</w>
그 것
가격 이
프 릴
친 구</w>
좋을 것</w>
있 게</w>
비 쳐
저 도</w>
작 년
잇 어서</w>
이쁘 네요~</w>
알 고</w>
않 은
미 리</w>
다 보면</w>
넓 어
그 린
그 리
하 얀
찾 다가</w>
제품 도</w>
잘 샀어요</w>
위 로</w>
쌀 쌀
손 이</w>
만 한</w>
라인 도</w>
넉넉 해서</w>
남 방
이뻐요 !!</w>
와 인
스 탈
때 는</w>
그 게</w>
괜찮 아
하이 웨
입어 질
아쉬 움
실 용
되 네요</w>
대 체
한 테</w>
하 네요~</w>
컬러 가</w>
줬 는데</w>
주머 니</w>
인 가
아 파
심 하게</w>
받 은
리 본
d j
했 던</w>
하 여</w>
캐 주
줄 알았는데</w>
좋은 것</w>
별 루</w>
괜 춘
2 8
함 .</w>
할 까
빨랐 어요</w>
기모 가</w>
그저 그래요</w>
교 환</w>
회 색
털 도</w>
이뻐요 ^^</w>
싸 서</w>
수선 해서</w>
속 에</w>
구매했 어요.</w>
~ !!</w>
~ !
해요 ..</w>
좋으 네요</w>
드 는</w>
다 운
기대 를</w>
편 이고</w>
입어보 진</w>
입 니당</w>
여 기</w>
편 은</w>
튀 어
충 분
색 감은</w>
맞 아서</w>
7 7
펑 퍼
이 제
옷 에서</w>
버 렸
발 송
나봐 요</w>
검정 색</w>
c m
지않 아</w>
주문 한
있을 것</w>
박 스
무 슨</w>
딱 이네요</w>
디 테
거 리는</w>
!! !
처 럼
집 에서
적당 해서</w>
작 고</w>
예쁘 네요
신 분들은</w>
사이즈 로</w>
구멍 이</w>
17 0
좋을 거</w>
을 듯</w>
예뻐요 ^^</w>
앞 에</w>
반 짝
나 지만</w>
겠 죠
것 처럼</w>
16 5
해주 시고</w>
주문 했어요</w>
이정도 면</w>
스트 라이
스 웨
맞 아요
그 리</w>
치마 가</w>
처 리</w>
주문 했는데
오 오
수 가</w>
날씬 해보이고</w>
길이 가
예 상
에 코
색 감</w>
벌 어
걸 려서</w>
지금 은</w>
여기 가</w>
안 입어
두께 감이</w>
다른 데
느낌 이라</w>
할 까</w>
였 어요</w>
싼 티</w>
블랙 으로</w>
많이 파세요
려 고
는 것</w>
포인 트</w>
줄 어
작 네요</w>
입 어서</w>
이쁘 긴한데</w>
이 드</w>
싸 게
분들 이</w>
듯 한</w>
깔끔 하니</w>
깔끔 하게</w>
지 네요</w>
올 이</w>
앞 으로</w>
세 요.</w>
별로 예요</w>
반 팔
먼 저</w>
활 동
하 다
조 아</w>
장 난
입어야 할
인 것</w>
보 온
다 닐</w>
구요 ,</w>
구매 확
거 든
갠 찮
폴 라
찾 던</w>
여 ~</w>
어요 ..
신 기</w>
감사 해요</w>
화 려
합니다 ~</w>
하 셨
지만 ..</w>
블랙 도</w>
보 람
다 림
고민하 다</w>
가 지고</w>
찰 랑
지않 아서</w>
좋아 해서</w>
신축성 도</w>
맨투 맨
대 박</w>
괜 차
걸치 기</w>
허벅 지
한 여름
예 정
세 탁</w>
생각 했는데</w>
발 등
만 들어
하 지도</w>
있을 거</w>
아이 템
스 팽
상 당
박음 질</w>
만족 입니다</w>
그래 도
입니다 ~</w>
얇 지만</w>
앙 고
생각 한</w>
박음 질
떨어 지는</w>
딱맞 고</w>
단 독
넉넉 한</w>
세 일
모양 이</w>
립 니다</w>
치 고</w>
잘맞 고</w>
있 네요.</w>
실 밥</w>
브라 운</w>
봐 야
맞 게</w>
두께 감도</w>
나쁘지않 아요</w>
걸 리
같 음</w>
가방 은</w>
핏 은
크 기가</w>
초 록
요 ~~
사이즈 인데</w>
사 장
비 교
번창 하세요
레이어 드</w>
햇 어요</w>
한 것</w>
푹 신
졌 어요</w>
인 듯
싼티 나
모 자
다녀 요</w>
넓 은</w>
입어야 겠
보 니까</w>
무 지</w>
데 요</w>
고민 했는데</w>
겟 어요</w>
편 해요.</w>
크 지만</w>
짧 아
입으 시
입으 면
부담 스럽
만족스러 워요</w>
23 0
흘 러
하 다가</w>
펑퍼 짐
친구 가</w>
있 겠
맘에 들고</w>
다음 날</w>
넘 넘</w>
넓 은
나 름
기 엔</w>
허 접
하 다</w>
지 나
수납 공간
쇼핑 몰
사진 하고</w>
사진 에서</w>
빠 름</w>
급 하게</w>
그 럼</w>
같 지만</w>
하 니까</w>
진 않아요</w>
예뻐요 !!</w>
상품 이</w>
사이즈 를</w>
매 일</w>
다 리</w>
넣 고</w>
광 택
계 절
크 기
싶 었는데</w>
만족 만족
듯 하네요</w>
드 라
괜찮 아서</w>
치 만</w>
잘 쓸
입 엇
어 색
싸구 려</w>
사 실</w>
비 닐
브 랜
맘에 드네요</w>
거같 고</w>
했 습니다</w>
해주 셨
입을 려고</w>
어두 운
생각했던 것보다</w>
바느 질
라 는</w>
디테 일
더라 구요.</w>
포장 도</w>
주 셔서</w>
제품 이</w>
용 ~</w>
심 해요</w>
스키 니
보 고
돌 아
단 정
너무 예뻐요</w>
굳 굳</w>
검 수
패 딩</w>
저 냥</w>
신축 성</w>
빨 면</w>
비 추</w>
랑 은</w>
고급스러 워
간 단
허벅 지</w>
한 겨울
캐주 얼
짱 짱</w>
이 틀
워 낙</w>
안 감
아니 면</w>
습 니당
사진 으로</w>
블랙 이</w>
만족합니다 !</w>
들어요 !</w>
들 도</w>
다 .</w>
길이 감
기본 티
간절 기에</w>
했 으면</w>
평 이</w>
편 합니다</w>
오 는</w>
어울 리고</w>
많이 파세
기 분</w>
24 5
얇 아요
스판 이</w>
생각 햇
블랙 은</w>
부드러 운</w>
보 풀</w>
디자인 이나</w>
두께 가</w>
그 나
구매 하고싶
고급 지
훌 륭
조 절
입 습니다</w>
이 미
어울 려요</w>
실 이</w>
색깔 별로</w>
사진 이</w>
보이 지</w>
다 닙
놀 랬
구입 했어요</w>
것 과</w>
하 려고</w>
있어 서
이에 요~</w>
역시 나</w>
어디 든</w>
몸 매
먼 지
말 고</w>
동 안</w>
다 소</w>
것 이</w>
하 다고</w>
추 가
애 요</w>
신발 도</w>
색 을</w>
사진 이랑
d k
이 좀
스 몰
산 건데</w>
붙 어
밑단 이</w>
레 드
네요 ~~
편안 하게</w>
판매자 님
찾 고
진 주
자 연
이 정도</w>
왔 는데</w>
습니다 ..</w>
살 까</w>
빠 져서</w>
비침 이</w>
보통 입니다.</w>
다르 게</w>
는데 ..
노 란
16 8
쪽 은</w>
작 아
이뻐요 ~
없 을
시 켜
대 신</w>
기 간
가 장</w>
할 수
하 루</w>
판매 자</w>
퀄리티 가</w>
짱짱 하고</w>
저렴한 가격에</w>
일주 일</w>
일 반</w>
요 ...
어 중간
샀 어요.</w>
빨 래
빠릅 니다</w>
그냥 그냥</w>
가죽 이</w>
; ;;</w>
이 구요</w>
어 려
스럽 게</w>
말 고는</w>
로 는</w>
따뜻 해서</w>
되 면</w>
긴 하네요</w>
구요 ..</w>
고급 져
하나 더</w>
큰 데</w>
쿠 션
입 게</w>
입 게
어울 리는</w>
싼 가격에</w>
생각 한
회 사
잘어울 리
에 겐</w>
아쉬 웠
빨랐 고</w>
보 는거
마 른</w>
구김 도</w>
괜찮 음</w>
가 요</w>
가 고</w>
했 어요
해요 .
한 듯</w>
이 건
어 쩌
앞 코
신어 도</w>
습니다 ^^</w>
도 가</w>
늘어 나서</w>
그렇 다고</w>
갠 찬
? ?
5 0
큽 니다</w>
신 을</w>
서 비
상 체
사 면</w>
보여 요.</w>
밑 에</w>
될 듯</w>
다니 고</w>
늦 은
넘 나
해 보여서</w>
필요 해서</w>
진 청
스판끼 가</w>
라 지
두 루</w>
나 시</w>
입 는게</w>
일어 나
실 망</w>
두 루
될 듯
도 는</w>
달 라서</w>
구매 한</w>
피 부
평소 에</w>
차 콜
좋겠 네요</w>
저 녁
입을 것</w>
없 지만</w>
사람 이</w>
두께 감
캐 쥬
잘 안
요 ,</w>
에서 는</w>
스 트</w>
무 료
맞 는데</w>
다른곳 보다</w>
3 일
해주 시
코트 안에</w>
커 버
여 리</w>
심 해서</w>
신 기
분 홍
믿 고</w>
맘에 들
라 고
겨 드
했 던
합 니
프 린
털 빠짐
키 로</w>
칙 칙
이쁜 데
으 론</w>
예쁘 네요~</w>
얼 마
아무 리</w>
사람 은</w>
보 단
때 도</w>
두번 째
나쁘 진</w>
그렇 네요</w>
구매했 습니다.</w>
고급 지고</w>
같 구요</w>
할 인
일 단
싸이 즈</w>
상당 히</w>
부드러 워서</w>
보 임</w>
깔 별로</w>
00 0
지 갑
조아 용</w>
정 리
여성 스럽고</w>
여리 여리</w>
색 에</w>
보 들</w>
망 설
딱 좋아요</w>
기다 려서</w>
굽 도</w>
괜찮 네요~</w>
포인트 로</w>
편 한</w>
촌 스러
좋을 듯
좋은 거같아요</w>
좋아요 ..</w>
예쁘 고
여름 까지</w>
생각 하고</w>
색 이랑</w>
살 까
비 해서</w>
걸 어
후 드
한치 수
팔 뚝
좋습니다 .
져 서
이 뻐</w>
비슷 한</w>
나 온</w>
기 네요</w>
그 치만</w>
체 크
유 용
예쁘 다고</w>
미 끄
맞 는
많 은</w>
로 퍼
래 도</w>
겨드 랑
타 이트</w>
주 셨
좋은 데
이뿌 고</w>
옷 도
섹 시
사진 상
번 째</w>
밑위 가</w>
로 퍼</w>
드 려
두꺼 워요</w>
늦 어서</w>
내 년
조아 여</w>
잘맞 아요</w>
입 구
오버핏 이라</w>
어 용
바닥 이</w>
기다 린</w>
고 정
겁 나
개인 적으로</w>
16 3
하 자
잡 혀
잘 못</w>
입을 때</w>
워 싱
여 .</w>
엄마 가</w>
산 거</w>
드렸 는데</w>
니트 가</w>
길었 으면</w>
그러 네요</w>
하나 도</w>
팬 츠
텐 데
커 플
오 오</w>
없 음</w>
야 할
안 된
상 세
비 지
부츠 컷
부담 없이</w>
까 지는</w>
걸렸 어요</w>
하세 요~</w>
품 질</w>
파 우
진 한</w>
주 세요</w>
좋아요 ~~~</w>
은 데
으 신
오 늘
않 습니다.</w>
아 깝
바지 랑</w>
물 어
만족합니다 .
다 가
느낌 이에요</w>
가방 으로</w>
하늘 하늘
하 늘</w>
패 턴
좋습니다 ~</w>
잘 입었
입으려 고
임 .</w>
이쁘 게
이번 에</w>
생각 이</w>
무 지
맞 을
때 마다</w>
되 어서</w>
더 군
다음 에도</w>
느리 네요</w>
괜찮은 것</w>
고 민</w>
찾 고</w>
좋아요 ~~
좋아 하는</w>
정 전
전 혀
이 며</w>
아까 워서</w>
아 우
빵 빵
별로 임</w>
버 리
따뜻 해
그나 마</w>
과 는</w>
거 랑</w>
하시 는</w>
추 운
주 시
입니다 !</w>
이뿌 네요</w>
이 뻤
음 ...</w>
브이 넥
부분 이
다른 색상도</w>
긴 했지만</w>
그런 가</w>
흘러 내
추 워서</w>
잘입겠 습니다</w>
분 도</w>
모 델</w>
만족스럽 습니다</w>
들어가 서</w>
기본 으로</w>
거같 아
감 안
가 죽</w>
하 며</w>
폭 신
판매자 님</w>
아쉽 네요.</w>
빠 짐</w>
바느 질이</w>
모르겠 지만</w>
딱 이에요</w>
날씬 해보여요</w>
그 건</w>
검은 색</w>
걸렸 지만</w>
가 깝
o o
하 체
촉 감도</w>
이라 도</w>
예 쁨
안나 오
안 했는데</w>
붙 는</w>
배송 에</w>
반품 하려
드 려요</w>
거 같아요~</w>
3 0
,, ,</w>
편 해요~</w>
천 원
좋 앗
있 어요~</w>
여행 가서</w>
색상 으로</w>
만족합니다 ^^</w>
가방 도</w>
^^ *</w>
/ 7
편하 구</w>
치마 랑</w>
직 접</w>
조금 더</w>
을 땐</w>
싶 어서</w>
스타일 이라</w>
상 담
삿 어요</w>
말 랑
만족스러 워
더 운
구요 !</w>
고민 중
거같 아서</w>
같은 게</w>
1 +
점 은</w>
일 반
예뻐 용
얇 네요</w>
았 어요</w>
않 은데</w>
사이즈 라</w>
블 링
봐 서</w>
보들 보들</w>
못 하고</w>
두꺼 워
나 니</w>
길이 도
그래 요.</w>
코디 하기</w>
치마 에</w>
입을 거</w>
입고 다니
입 다가</w>
와 요</w>
어울 려
빨 랏
모델 이</w>
떨어 져서</w>
들고 다니기</w>
구매확 정
구 용</w>
9 5
3 주
함 께</w>
출 근
찾 아
착 하고</w>
저한 테</w>
배송이 너무
받쳐 입기</w>
똑같 고</w>
도톰 하니</w>
길이 감</w>
구매했 습니다</w>
겨 서</w>
같아요 ..</w>
하 지않고</w>
품 은</w>
주 시고</w>
입을 듯</w>
이 해
은 근</w>
유 니
올 리
상품평 이</w>
봐 야</w>
베이지 색</w>
무난 하니</w>
레이어드 해서</w>
달 려
괜 춘</w>
같아요 ~
해야 할
트임 이</w>
캐쥬 얼
짧 아요.</w>
지 인
좋아요 ~^^</w>
입기 에도</w>
이용 할
예뻐요 ~
스타일 은</w>
해요 ~~</w>
하 실
하 네요..</w>
쫀쫀 하니</w>
작 을
불편 함
배송 지연
드 러
되 요</w>
는데 요</w>
기 모</w>
괜찮은 거같아요</w>
결 혼
건 가
감 동
키 로
크 네요.</w>
에 요~</w>
어 서
안 쪽</w>
슬랙 스</w>
슬 리
별로 입니다</w>
민 트
따뜻 하네요</w>
데일 리</w>
더 니
구요 ~
1 1
치마 는</w>
조아요 조아요</w>
저렴 해보이
저 것</w>
의 사
세탁 해서</w>
세 트
사진 에</w>
사 무
발 이
발 볼</w>
바느 질</w>
드립 니다</w>
노 랑
긴 하는데</w>
핸 드
한 듯
천 도</w>
잠 그
레이 스</w>
다리 도</w>
다 양
다 만
하 긴한데</w>
퀄리티 는</w>
않 았는데</w>
신 청
상 의
받 은</w>
바지 도</w>
몰 랐
네요 !!</w>
깨 끗
했 었는데</w>
트 렌
털 이
지 퍼</w>
잘받았 습니다
오 른
어 떤</w>
얇 아
아쉬 워
시스 루
만 원</w>
만 에
되 는
널 널
까 칠
겠 습니다</w>
갑 자
한 건</w>
하고 ,</w>
진 한
요 ~^^</w>
어쩔 수
빛 이</w>
베 란
똑 딱
두루 두루</w>
데 나</w>
날 이</w>
4 8
화면 에서</w>
허벅 지가</w>
팔 이
잇 어요</w>
이쁘 구</w>
이 는</w>
의 사</w>
옷 으로</w>
어느 정도</w>
아닌 듯</w>
생각 하면</w>
뷔 스
발 견
받아 보
만족 해요~</w>
늘어나 고</w>
느낌 ?</w>
납 니다</w>
것 같아요~</w>
s o
16 7
하이웨 스트
편 합니다.</w>
여름 에
언 니</w>
상품 평</w>
사람 들이</w>
보내주 셨
벌 써</w>
늦 어요</w>
나 머
꺼 같
까 진</w>
기 저
거 려서</w>
튼튼 하고</w>
주 변
좋습니다 !</w>
좀 더
정도 의</w>
입을 려
엉 성
어 떤
빠 졌
번 거
무 조
모양 은</w>
로 도</w>
덕 분
너무 나</w>
남편 이</w>
구 두</w>
거 리고</w>
한번 도</w>
하고 요</w>
핏 이나</w>
포인트 가</w>
팔 도</w>
컬러 는</w>
차 라
짧 지만</w>
작년 에</w>
인 줄
예 뻤
앗 는데</w>
않 는</w>
사 려
봄 에
배송 빠르
밑 창
맞 아요.</w>
맘에 들어서</w>
다 름</w>
늦 는
느 라</w>
네요 ~^^</w>
그 저</w>
겁 나</w>
하시 는
촉 감이</w>
쪽 으로</w>
일 만에</w>
은 은
요 ~~~</w>
어요 !!</w>
않 네요.</w>
색상 도
부 족
배송 비
맘에들어요 ~</w>
대 충</w>
단독 으로</w>
고 ...
결 국</w>
같 기도</w>
허 술
했는데 ,</w>
퀄리티 도</w>
충분 히</w>
체 격
지않 아요</w>
좋아요 좋아</w>
좋네요 ^^</w>
입어 도
입 어</w>
이쁘 긴</w>
이 번</w>
움 직
상태 가</w>
사이즈 도
분 위
번 에</w>
밑 단</w>
마감 처리가</w>
두툼 하고</w>
넓 고</w>
냐 고</w>
기대 했는데</w>
구매 햇는데</w>
거같 은데</w>
간절 기
가격 도
첨 에</w>
잡 히
스팽 글
만큼 은</w>
따 숩
들어요 ^^</w>
드 네요.</w>
나 중에</w>
기 는
그래 두</w>
가격 으로</w>
화 장
편 인데도</w>
종아 리</w>
점 프
이뻐요 .
아니 라
소매 도</w>
빈 티
라 쿤
는 대</w>
느낌 의</w>
날 씨</w>
그대로 에요</w>
4 5
15 8
허리 도</w>
하늘 하늘</w>
품 질도</w>
친절 하시고</w>
착 한
지 ..</w>
원피스 에</w>
실 내
설 명
빨 았
봐 도</w>
보이 는데</w>
맘에 듭니다
디자인 은
디 쟌
들고 다니
두 가지</w>
데 도</w>
더 워서</w>
다고 해서</w>
괜찮 을</w>
고급스러 워</w>
같아요 ~~</w>
후 에</w>
짜 임
잘어울 릴
잘어울 려요</w>
이쁘 구요</w>
이것 저것</w>
에 비해</w>
볼 이</w>
머 리
만족 해요.</w>
라 운
또 한</w>
딱 이고</w>
넉넉 하니</w>
고 객
해 외
좋을 것같아요</w>
좋을 거같아요</w>
좋아 하는데</w>
점 이</w>
이것 만</w>
실 제</w>
신랑 이</w>
스 런</w>
사 은
부드러 워요</w>
보통 이예요</w>
모 두
만족 하고</w>
들어가 고</w>
두 번</w>
남 친
그 거</w>
구매 해
고 ,
2 주</w>
해보 일
해 용
하 구
티 는</w>
재질 이나</w>
있 으니</w>
이 긴</w>
여행 갈때</w>
싶 었
시간 이</w>
보이 진</w>
보 플
별로 에
못 입겠
레이스 가</w>
대 만족</w>
는데 ...</w>
놀 러
깔끔 한</w>
같은 거</w>
후 기가</w>
하 긴
풀 리면</w>
톤 다운
큰 거</w>
최 악</w>
좋아 여
전체 적인</w>
장 에서</w>
인 생
이뽀 요</w>
오버 핏이
에코 백
아 님
성 이</w>
사진 은</w>
사진 보다는</w>
부담 스러
보 시
배송도 빠르고
물건 은</w>
무난 해서</w>
많 은
따듯 하고</w>
드 라이
느 림
고급스러 워요</w>
~~ ~^^</w>
특이 하고</w>
적당 해요</w>
잘받앗 어요</w>
일어 날
오 자마자</w>
오 렌
안되 서</w>
사 길</w>
사 고
구매했 어요
한번 입고</w>
쭈 글
주 말
있었 으면</w>
없 는데</w>
아무 래도</w>
스럽 네요</w>
뻑 뻑
본 드
보내주 셔서</w>
받았 네요</w>
똑 같은</w>
듯 ...</w>
더 욱</w>
기도 하고</w>
해야 겠
통 도</w>
크 로
카 키</w>
이미 지
와 이
에게 는</w>
어 렵
아무 데나</w>
아 예</w>
상 태</w>
빠 져
부들부들 하고</w>
봐 요</w>
보 냈
배송 빠르고
모르 겠어요</w>
많 고</w>
덕분 에</w>
넣 어서</w>
구입 하고</w>
갑자 기</w>
하나 는</w>
편안 하고</w>
종아 리
이예 요.</w>
여름 엔</w>
않 음</w>
싼티 가</w>
스타 킹
선 물</w>
배송 빨라
배 가</w>
맞 춰
때 나</w>
따뜻 한</w>
다 해서</w>
그러 나</w>
같 아용</w>
♡ ♡</w>
2 개
흔 하지</w>
하 는게</w>
파세 요~</w>
큽 니다.</w>
칼 라
재질 도
운동 화
왔 어요.</w>
여 ..</w>
어울 려서</w>
아요 ~</w>
싼 게</w>
심 하고</w>
쉽 게</w>
무조 건</w>
만족합니다 만족합니다
두 고</w>
도 안
네요 ^^
너 덜
힘 이</w>
핏 이라</w>
쨍 한</w>
입 습니다.</w>
인 디
이 나
완 젼</w>
수 도
서비 스
생각햇 던
사 지마
베이지 가</w>
드 리
느 렷
걸 림</w>
3 2
확 인</w>
합니다 !</w>
핑크 가</w>
특 성
치 수</w>
청바지 랑</w>
주문 한</w>
잘입고 있어요</w>
입겠 습니다</w>
음 ..
예 요
사장 님
빨랐 구요</w>
베란 다
마 감</w>
들 기</w>
괜찮아요 !</w>
계 속
커 요.</w>
작게 나온
자 크
인 가</w>
이상 해요</w>
이 너무
응 대
외 로</w>
엄 마</w>
어 벙벙
앞 으로도</w>
아주 아주</w>
신 경</w>
시 켯
스타일 이</w>
상태 도</w>
사 람</w>
빠 져요</w>
보풀 도</w>
뭔 가
무거 운
멋 스러
맘에들어 용</w>
립 니다.</w>
룩 으로</w>
눈 에</w>
네요 ;;</w>
깔끔 해요</w>
것 만</w>
감사합니다 ~</w>
, .
혹 시
에서 도</w>
엇 는데</w>
아니 었
시 보
수 준
서 ..</w>
샀 다가</w>
산 거
사무 실
부 직
못 입고</w>
면 도</w>
맨투 맨</w>
라 지</w>
따뜻 합니다</w>
답 니다</w>
나 게</w>
기대 이상
거같 아여</w>
거 의
~~ !</w>
~~ !!</w>
첨 엔</w>
처음 엔</w>
짧 음</w>
좋 게</w>
장 식
자 국
입어 요.</w>
입어 봤는데</w>
오버핏 으로</w>
않 게</w>
소매 부분이</w>
셔 야
상 관
보통 이
배송 너무
받 고
두껍 지</w>
기다렸 는데</w>
같아요 ^^</w>
가슴 이</w>
2 9
하 네여</w>
핏 이랑</w>
편 히</w>
차라 리</w>
좋 네용</w>
잇 을
예뻐 여</w>
수 있을
부 터
바지 를</w>
밋 밋
머 니
길 게</w>
해요 ^^</w>
해야 하나
좋으 나</w>
저 는
인 지
이라 면</w>
싸이즈 가</w>
서 야</w>
사 시
브랜 드
발 목</w>
목 부분</w>
만족스럽 습니다.</w>
막 입기</w>
래 요</w>
남자 친구</w>
것 보단</w>
휴 가
했 음</w>
해요 ~
카 드
줄 여
있 겠어요</w>
입겠 습니다.</w>
오프 라인
어디 에나</w>
아니 네요.</w>
싼티 나요</w>
시원 한
스판 기가</w>
스 판</w>
숄 더
사 줬는데</w>
불 구
물 론</w>
무난 합니다.</w>
무겁 고</w>
무거 워요</w>
똑 같이</w>
딱 입니다</w>
디자인 이라</w>
들었 어요</w>
드립 니다.</w>
되어 있어서</w>
곳 이</w>
골반 이</w>
고급스러 운</w>
16 4
폭 이</w>
코디 해서</w>
죠 ?</w>
좋네요 !</w>
제 작
접 어
잘어울 리고</w>
일 이</w>
이쁜 거</w>
이 하
여 튼</w>
손 편
세탁 하면</w>
생 겼
보람 이</w>
발 가
박시 한</w>
두 깨
넣 어</w>
1 23
해보 임</w>
하 지는</w>
파 여서</w>
총 알
처리 도</w>
지만 ...</w>
지만 ..
이 가격
옷 감이</w>
엉덩 이가</w>
신어 보니</w>
스타일 리
블 루</w>
무 릎</w>
니다 ~</w>
난 리
꼼꼼 히</w>
구입 해서</w>
골 지
것같 고</w>
감사합니다 ^^</w>
000 원
하 의
편 할
편 이에요</w>
파 였
파 란
톡톡 하고</w>
치 고는</w>
좋아요좋아요 좋아요좋아요
재 고
있 습니다
입었 을</w>
인 거같아요</w>
이 다</w>
원 래
않을 까</w>
안 내
아파 요</w>
심플 하고</w>
셔 야</w>
받아 보고</w>
물건 도</w>
몸 이</w>
린 넨</w>
두툼 해서</w>
늦 고</w>
끈 도</w>
구매평 이</w>
한 사이즈
편 함</w>
친절 하시
저 에겐</w>
은 거</w>
애 용
아 도</w>
신축성 은</w>
스타일 도</w>
바 랍
무 리
모양 도</w>
모르겠 네요</w>
모델 분
따 가
됐 는데</w>
다르 고</w>
누 가</w>
나 갈
감 사</w>
가죽 도</w>
❤ ️</w>
c m</w>
훨 씬
허리 가
품 으로</w>
짧 아</w>
좋 고,</w>
정 확
잡아 줘서</w>
잘산 거같아요</w>
이쁘 네여</w>
예 버
에 가</w>
앞코 가</w>
안 쪽에</w>
신 으니</w>
상 의</w>
사 세요
보는거 랑</w>
보기 보다</w>
별로 고</w>
배송 만</w>
받았 어요.</w>
무 게</w>
많 은데</w>
뒷 꿈
둘 레
도 록</w>
더라 고요</w>
대 한</w>
단 지</w>
그런 가
것 도
흰 색은</w>
코 디</w>
줘 야
좋 네여</w>
이유 가</w>
이 지</w>
원피 스</w>
앙고 라
속 상
생각 중
사 는</w>
빠 지고</w>
불 안
먼 지</w>
만족 !</w>
마무 리가</w>
라인 은</w>
굿 !</w>
갠 차
18 0
타이트 하게</w>
차 분
저한 텐</w>
이쁘 다
여유 있게</w>
안되 고</w>
아쉬움 이</w>
아니 예요</w>
습 니
사이즈 보다</w>
빨 간
불 편하고</w>
베란다 에</w>
말 이</w>
따뜻 하고
됩 니다</w>
될 것</w>
덩 치
나 을
금 방
구요 ..
겨울 에도</w>
~! ~!
해야 겠어요</w>
특성 상</w>
체 구
찾 던
쪄 서</w>
적당 한
잘어울 려
입었 더니</w>
옷 이네요</w>
연락 도</w>
연 히</w>
아쉬 운</w>
사진 그대로</w>
불 만
모델 핏은</w>
렇 게
대체 적으로</w>
네요 ....</w>
괜찮아요 ~~</w>
검정 색
감사 합니당</w>
가 네요</w>
M 사이즈</w>
품 질이</w>
편 한데</w>
전 반
저렴 하게
잘산 거</w>
요 ?
여 ~~</w>
얇 은데</w>
않 고
신으 려고</w>
스트라이 프</w>
던 지</w>
다른 건</w>
다녔 어요</w>
나왔 어요</w>
나온 거</w>
긴 하지만
글 쎄
. 0
했 을
하 네요.
파세 요.</w>
짜 리</w>
좋았을 텐데</w>
입고 싶
이에 요!</w>
이쁠 듯</w>
이쁘 네용</w>
이 걸</w>
을때 는</w>
연 한</w>
얼굴 이</w>
언 제
어 어
애매 한</w>
아닙 니다</w>
세탁 해도</w>
세 요~</w>
빠 름
비지 떡
블랙 이랑</w>
보 자마자</w>
보 입니다.</w>
많 아</w>
루즈 핏</w>
두께 감</w>
데 ,</w>
다림 질
나 는
그렇 지만</w>
구매 햇
m 사이즈</w>
X L
: )
한 달</w>
필 수
풀 려서</w>
팔 부분이</w>
카 멜
추워 져서</w>
입기 에
옷 이에요</w>
옷 의</w>
없 어요.</w>
어 야
스트라이 프
스커트 에</w>
불구 하고</w>
보 였는데</w>
벗 겨
몸 무게</w>
듯 해요.</w>
나 면</w>
나 는데</w>
까 실
길이 감은</w>
기 전에</w>
귀여 운</w>
구매 하세요</w>
괜찮 네요
겠 죠</w>
것같 아서</w>
검 수</w>
하 였
청바지 나</w>
참고 로</w>
참 고</w>
입고 다닐
이 어서</w>
어 차
시 간</w>
불편 하네요</w>
모델 핏
말 씀
될 거같아요</w>
다 릅
는데 .</w>
나 요.</w>
s k
s j
1+ 1
화면 하고</w>
택 배</w>
커 서
집 에</w>
잘 쓰
있 다면</w>
입으려 고요</w>
원 했는데</w>
왔 고</w>
여 요</w>
알 려
심 하네요</w>
세탁 을</w>
보 드
베이 지는</w>
받았 습니다
미 니
물 이</w>
따 라</w>
됩 니다.</w>
남 방</w>
결혼 식
거 는</w>
가방 을</w>
프릴 이</w>
집 니다</w>
주문 해
입니다 ..</w>
입 지</w>
이 미</w>
어 찌
어 느</w>
약간 의</w>
았 으면</w>
스판 끼</w>
생각했던거 보다</w>
산 뜻
베이 지도</w>
미끄 러
모 습
딱맞 아요</w>
납 니다.</w>
거같아요 !</w>
거같 아용</w>
^ _
17 5
하나 더
핑크 색</w>
포 근
쫀쫀 해서</w>
주문 할
좋아요 !!!</w>
저렴 해</w>
재질 에</w>
장 에</w>
작 아요
있 고
으 신</w>
옷 자체는</w>
연 휴
어 제</w>
안되 어
색 이에요</w>
살 이
빨 강
별로 였
받 쳐</w>
모델 언니
맞 네요.</w>
디자인 과</w>
두께 는</w>
는 게
긴 팔
그 만큼</w>
굿 입니다</w>
거 에요</w>
k g</w>
g oo
2 25
/ 6
활용 도가</w>
품 질은</w>
풀 려
저렴 하니</w>
저 에게</w>
요 청
요 새</w>
예쁘 긴한데</w>
어울리 네요</w>
어울 릴</w>
아 침
스 카
속 옷
세탁 후</w>
부츠 컷</w>
보온 성
민 망
문 제가</w>
매 일
따뜻 할
니다 ..</w>
늘어나 는</w>
넣 으면</w>
깔 끔</w>
k g
X L</w>
23 5</w>
1 2
화면 그대로
한 느낌
풀 리
파우 치
크로 스
좀 ..</w>
제 질
정사이즈 보다</w>
잠 깐</w>
자 수
이에 여</w>
이 였
완 벽
예뻐요 .
예 뿌
었 어요</w>
어깨 에</w>
시원 해요</w>
수납 도</w>
속 이</w>
사이트 보다</w>
사이즈 에</w>
부 츠</w>
베 스트
뭐 가</w>
모델 처럼</w>
마 냥</w>
뚱뚱 해보이
달 리</w>
남 기
나 올
고 맙
검 색
가까 운</w>
화사 하고</w>
한 참</w>
하면 서도</w>
하고 ..</w>
털 은</w>
추 가</w>
촌 스럽
중 요
주머니 도</w>
좋 다고</w>
작 은데</w>
입니다 ^^</w>
이쁘 긴
이 도</w>
이 니</w>
원하 던
운동 화</w>
와 이드
얼 룩
어 지
않 습니다</w>
안 사
안 감</w>
아 줌
싼 맛
색 은
빠르 구요</w>
봄 가을
별로 ..</w>
번거 로
버 려
반품 귀찮아서</w>
면 은</w>
마니 파세요</w>
마 감도</w>
돼 서</w>
덩 치가</w>
느리 지만</w>
깔끔 해서</w>
기저 귀
군 데</w>
겟 네요</w>
것같 은데</w>
~ ^^
16 2
해주 세요</w>
하는 거</w>
특이 해서</w>
통 은</w>
타이트 해서</w>
짧은 감이</w>
좋았 습니다</w>
적극 추천합니다</w>
있 구요</w>
입을 려구요</w>
입어 봤
이 에</w>
이 너</w>
용 !</w>
어쩔 수</w>
어 벙
야 겠어요</w>
않았 어요</w>
아니 구</w>
수 선</w>
소라 색</w>
붙 어서</w>
만족 이
려 면</w>
두껍 네요</w>
다행 히</w>
넘 어
꺼 내
구겨 져서</w>
거같 습니다</w>
거 기
같 아여</w>
가벼 워요</w>
!! !!
했 고</w>
하시 길</w>
편해요 !</w>
찾고 있었는데</w>
착용 감도</w>
진않 네요</w>
중간 에</w>
재 봉
잘받앗 습니다</w>
입 니당
임 산
원단 이
옷 감
예 민
에 선</w>
셔츠 랑</w>
색상 이랑</w>
상체 가</w>
부 실
보 여</w>
별루 네요</w>
받 음</w>
미 듐
문 의</w>
딱 히</w>
나 갈때</w>
그냥 그냥
교 복
결 정
거든 요</w>
거 려요</w>
L 사이즈</w>
25 0
해요 ..
해 도
편하 긴</w>
톡톡 하니</w>
주문했 더니</w>
좋 다
종아 리가</w>
있어 도</w>
있 다</w>
입 다보면</w>
인터 넷</w>
애매 해요</w>
아이보 리는</w>
실 패
선 명
생각 하
생 길
샀 어요
살 아
살 걸</w>
래 서</w>
대박 나
단점 은</w>
니트 는</w>
남자 친구
남 편</w>
난 감
기본 템
고 려
거 칠
( ?
흰 색이</w>
했 네요.</w>
클 로
친절 히</w>
진않 지만</w>
지금 부터</w>
좋은 듯</w>
좋았 습니다.</w>
점프 수
작 지만</w>
입어보 진
입기 가</w>
이쁩 니당</w>
이쁘네요 ^^</w>
으 니까</w>
옷 이라</w>
옆 에</w>
옆 구
안 녕
실용 적
비 싼</w>
비 가</w>
봄 가을에</w>
매 고</w>
동생 이</w>
동 생</w>
더 운</w>
그렇 지</w>
괜찮은 듯</w>
괜찮았 어요</w>
괜차 나
가볍 고
가격만큼 의</w>
화면 에</w>
해야 하나</w>
합니다 ..</w>
하 는데
하 구요.</w>
팬 츠</w>
통 이
지 저
좋 음
있는 거</w>
있 다
입을만 합니다</w>
유용 하게</w>
오 염
오 는
없 네요.</w>
어차 피</w>
얇 아요.</w>
색상 과</w>
사 실
비쳐 요</w>
보 인
미 디
만 하면</w>
마무 리
딱맞 네요</w>
듯 이</w>
들어요 ~~</w>
굿 굿굿</w>
경 우
걸렸 네요</w>
7 8
4 9
23 0</w>
활용 도</w>
편하 구요</w>
편 입니다</w>
파 랑
털 날
타이트 해요</w>
주문 하
좋 습니당</w>
제품 을</w>
제 일
정말 좋아요</w>
저렴 한데</w>
이쁘 지만</w>
이 어
양 말</w>
안 쪽
안 샀
안 맞
아닌 거</w>
아닌 가
싸 보이
빠른 편이
배송 느려요</w>
반품 은</w>
메 고</w>
마음에 듭니다</w>
느껴 지
날씬 한</w>
날 에</w>
나오 고</w>
까 지도</w>
55 사이즈</w>
한 개
팔 은</w>
파 시
톤다운 된</w>
크 기는</w>
촤 르
좋아 하네요</w>
점 퍼
전 부</w>
요 일에</w>
오 랜
예쁘 게
어디 서</w>
어깨 도</w>
아쉬 움</w>
수납공간 도</w>
빼 서</w>
반품 하기
만족 합니당
땜 에</w>
들어 용</w>
단추 도</w>
네이 버
나 왓
길 어</w>
기대 는</w>
그런 데
그랬 어요</w>
그 다
귀찮 아서
구매 후</w>
거같 아</w>
4 0
24 0</w>
2 개</w>
회 색</w>
하 하</w>
타 잇
챙 겨
좋 네요.
조아조아 조아조아
절 대
전체 적
전반 적으로</w>
잘 한
작 음</w>
일 부
일 날</w>
이뻐 여
이너 로
으 나
원 플
외 투
여러 모
에 요!</w>
어두 워요</w>
얇 지도</w>
야 겠
신 었는데</w>
스웨 이드</w>
스웨 이드
사 랑
분들 도</w>
보 입니다</w>
변 경
만족해요 !</w>
림 이</w>
루즈 하게</w>
랄 까
대 요</w>
답변 도</w>
다르 지만</w>
네요 ,</w>
나 이
기다 려
했 어요~</w>
포 켓
파 는</w>
촉 감
착용 감이</w>
쫀쫀 한</w>
진 심</w>
지 연</w>
좋은 것같아요</w>
좁 아서</w>
접 어서</w>
인터넷 으로</w>
인데 ,</w>
이쁘 다고
이뻐요 ~~~</w>
않아요 ~</w>
소매 는</w>
상품 을</w>
샀 네요</w>
보다 가</w>
보 세
버 릴
밴드 가</w>
맘에 들어</w>
되어 있
날 짜
긴 했는데</w>
그런 대로</w>
구매 할</w>
괜찮은 것같아요</w>
걸치 고</w>
같 습니다
f j
55 인데</w>
/ 5
품절 이라</w>
포 장</w>
지금 입기</w>
중 청
죄 송
좋 구요
잘입을게 요~</w>
잘맞 네요</w>
입어 볼
입 자마자</w>
으 시
용 ~~</w>
얇 지</w>
안 타
신었 을때</w>
상 큼
배송 기간
물건 을</w>
무늬 가</w>
맘에 듬</w>
말 라
말 까</w>
되 는데</w>
더 더
다 들
누 빔
네여 ~</w>
그냥 입어요</w>
그 럴
것같 아</w>
건 데
같은 데
간 편하게</w>
s d
^^ ;</w>
화이트 는</w>
친절 하고</w>
찾 았
좋 지는</w>
조금 은</w>
잘 입어질
자 세
입어야 할듯
입 구</w>
올라 가
연 한
어깨 부분이</w>
아무 튼</w>
신 중
산 것</w>
사람 들
빼 고
브이 넥</w>
버 클
바 이
만족합니다 ~~</w>
뒤 로</w>
될 거</w>
대 충
넉넉 해요</w>
구매했 어요~</w>
구 김</w>
곳 에서</w>
것 은</w>
합니다 ^^</w>
처음 에는</w>
지저 분
줬 어요</w>
주 의
정 성
저 렇게</w>
임산 부
을 까</w>
옷 에나</w>
올 해</w>
여 행</w>
아니 어서</w>
아 아
스판 도</w>
스트 랩
색상 을</w>
복 숭
보통 보통
무난 히</w>
맘에드 는데</w>
맘에 들어요.</w>
뚱뚱 해</w>
도톰 한</w>
더워 지
다른 거</w>
나 요?</w>
그 가격
구매했 네요</w>
괜찮 아용</w>
것같 은</w>
감사합니다 !</w>
가벼 운</w>
^ -
7 3
16 6
해요 !!</w>
하 비
프리 미
크 긴한데</w>
치 곤</w>
지 ...</w>
주 름</w>
주 는</w>
잡아주 는</w>
인터넷 에서</w>
이 뿐
요즘 같은</w>
옷 입니다</w>
오 픈
오 네요</w>
얼마 나</w>
어디 에</w>
알 앗는데</w>
아직 도</w>
아 랫
싫 어
스판 이라</w>
손 목
세트 로</w>
사고싶 네요</w>
백 화
발 목이</w>
반품 하고</w>
반품 도</w>
무 스
무 배
모델 분이</w>
만족 합니
떨어지 네요</w>
때 가</w>
들고 다닐
들 지만</w>
될 것같아요</w>
내 복
가디건 은</w>
,, ,
흰색 이라</w>
할 수</w>
하 신</w>
핏 에</w>
페 이
짱짱 하니</w>
집 니다.</w>
지않 네요</w>
좋았 어요.</w>
좋네요 ~~</w>
입 거나</w>
이 여서</w>
올려 주
예쁘 지만</w>
연 출
에 도
안 해
아쉽 습니다</w>
소 리
생각 한거
색상 이나</w>
사이트 에서</w>
받았 을때</w>
무난 하네요</w>
맘에 듭니다.</w>
러 블
디자인 도
느 립니다</w>
너무 커요</w>
결 제
것같 습니다</w>
가볍 게
가격에 비해</w>
가 타
가 슴</w>
2 2
티 를</w>
짜 리
질 도
지 지</w>
재 구매했어요</w>
잘입을께 요~</w>
있 긴한데</w>
입어야 할듯</w>
이상 한
이뻐요 이뻐요</w>
원피스 랑</w>
요 ....</w>
안 함</w>
시스 루</w>
소재 가
생각보다 는
색상 별로</w>
색 이네요</w>
샀 더니</w>
부드러 워
보내주 시
박음 질도</w>
무 척</w>
르 고</w>
라 면</w>
달 라</w>
느낌 이네요</w>
네 영</w>
구입 한
괜찮 아여</w>
것 을</w>
17 8
환 절
허리 에</w>
트렌 치
주문 햇는데</w>
좀 만</w>
저 렴</w>
있 는게</w>
입고 나가
이 ..</w>
유니 크
옷 입니다.</w>
양말 신고</w>
애매 해서</w>
아니 에
실제 로
슬 렉
소재 로</w>
셔츠 는</w>
비 침</w>
별루 에요</w>
뱃 살
밝 아요</w>
받 을
반 신
뒤 꿈
더워 져서</w>
남 자</w>
남 겨
나 와</w>
기 에는</w>
그 럼
강추 합니다</w>
가격대비 는</w>
편 이네요</w>
탄탄 하고</w>
크 림
주머니 에</w>
좋 지만</w>
조아요 조아</w>
잘 라
작 아</w>
잇 고</w>
입기 로</w>
이쁠 거</w>
이라 고
음 .
우 면</w>
아우 터
싼 값
순 간</w>
셔츠 에</w>
세탁 하고</w>
선물 해
산 거라</w>
사고싶 어요</w>
사 도</w>
빈티 지
보드 랍
발 에</w>
밖 에
바 꾸
물 빠짐
모르 겟
모 든
먼 가</w>
매치 해서</w>
독특 하고</w>
달라 고</w>
느낌 이고</w>
느 끼
걸 을때</w>
같 지</w>
가성비 가</w>
: -
환 불</w>
혀 서</w>
해요 ...</w>
한 테
크게 나온
커 보이
짱짱 해서</w>
지퍼 도</w>
지금 입기
입을 거같아요</w>
여러모 로</w>
에 만</w>
애매 하네요</w>
스타일리 쉬
생각 만큼</w>
색상 이라</w>
사무실 에서</w>
뾰 족
빳빳 한</w>
비슷 한
비 해
복숭 아
베이 직
매치 하기</w>
듯 합니다.</w>
늦 은</w>
나갔 는데</w>
껴 서</w>
길 지만</w>
기다리 다</w>
기 가
귀 차
고 요
가격 값
가 는
6 5
해보여 요.</w>
함 이</w>
하기 엔</w>
핏 을</w>
편 입니다.</w>
편 이</w>
타이트 한</w>
크 지도</w>
지않 게</w>
주문했 어요.</w>
좋아요 ~~^^</w>
좋 구
잘 입었어요</w>
입고 있어요</w>
이쁘네요 ~~</w>
을 텐데</w>
은 근
용 도
옐 로
예 요~</w>
에코 백</w>
얇 아</w>
스커트 랑</w>
셔 도</w>
선물 했는데</w>
사 세
빠른배송 감사합니다</w>
빠르 구</w>
보다 도</w>
발가 락
반품하려 다</w>
바지 나</w>
떨어 져
듭 니당</w>
드라 이</w>
뒤 집
께 서</w>
기대 가</w>
그래 여</w>
괜차 나요</w>
것같아요 !</w>
검은 색
가성비 는</w>
s o</w>
160 인데</w>
하 네용</w>
풍성 하고</w>
커플 로</w>
카키 색</w>
천 은</w>
쫀쫀 해요</w>
짧은 거</w>
중 간</w>
올 겨울</w>
예뻐요 ~^^</w>
연 보라
어 디</w>
양 쪽</w>
아 쉽</w>
시원 해서</w>
서 ..
생각 보단
살 에</w>
불 편</w>
봄 까지</w>
밴 딩</w>
반신 반
박 아
바 스
물건 이</w>
단 이</w>
는데 ...
느낌 으로</w>
네 오</w>
기대 했
귀찮 고</w>
경 량
같아요 !!</w>
같 습니다.
x l
한 테는</w>
핏 감</w>
키 높
최고 에요</w>
청바지 에도</w>
찾 았는데</w>
착화 감도</w>
집 이</w>
좋 지</w>
이에 요.
이뻐요 ~^^</w>
이 로</w>
이 것도</w>
웨 어
예 뻐</w>
여성 여성
없 이
없 습니다</w>
어깨 선이</w>
아니 여서</w>
아니 에요.</w>
아 플
실물 은</w>
시 미
소 장
비싸 게</w>
봤 지만</w>
보풀 은</w>
밴딩 이</w>
배송 비</w>
무릎 이</w>
무 튼</w>
메 이드
맘에들어요 !</w>
라운 드
던 데
단추 를</w>
다닙 니다</w>
느려 요.</w>
넘 이뻐요</w>
넉넉 히</w>
귀엽 네요</w>
괜 츈
겨 자
걱 정</w>
한 여름에</w>
하네요 ^^</w>
하 거나</w>
핑크 는</w>
핏 감
파 여
티 랑</w>
튿 어
키 크
출 고
착 해서</w>
질 감도</w>
좋아요 ..
입어 봐야
왔 네요.</w>
여유 가</w>
여름 에는</w>
없 습니다.</w>
어 쩔</w>
어 마
아니 구요</w>
싼맛 에
심 히</w>
시 킨
살 껄</w>
발 도
두 께</w>
다른 데</w>
늦었 어요</w>
깔 창
그냥그래 여</w>
구매하 였
괜찬 아요</w>
광택 이</w>
계절 에</w>
겠 습니다.</w>
걸 렷
가까 운
가 끔</w>
5 5</w>
하 구요
편하 네요.</w>
파 시고</w>
저 에게는</w>
잡아주 고</w>
있으 신</w>
잇 는
이쁜 옷</w>
이 렇게
위 에
옷 인데</w>
오래걸렸 지만</w>
안 정
아쉽 습니다.</w>
아닙 니다.</w>
신어 보
신 어서</w>
스판끼 도</w>
셔츠 가</w>
센 치
석 유
샀 어요~</w>
발등 이</w>
멋 스럽
떨어 지고</w>
따뜻 해요.</w>
따 뜻</w>
디자인 이랑</w>
들어 갈
느낌 입니다</w>
느낌 입니다.</w>
기장 이
군 요</w>
계 절</w>
겨드랑 이</w>
것 보다는</w>
간 지
가지 고
흐물 흐물
화면 처럼</w>
허리 부분이</w>
해 지
팔 길이가</w>
판매자 분도</w>
치 수
질 이
지 요</w>
줄 이</w>
이상 한</w>
이쁘 진</w>
음 ...
을 까
은 듯</w>
옷 을
어 야</w>
아 픈
스타일 로</w>
스타 킹</w>
별로 네요.</w>
밑창 이</w>
믿 고
면 서도</w>
며 칠
머 니</w>
대체 로</w>
나오 네요</w>
기모 는</w>
기 를</w>
그냥 ..</w>
괜찮은 데
걸쳐 도</w>
d h
^^ ;;</w>
3 4
화면 과
할 거같아요</w>
판매자 분</w>
크 긴</w>
치마 나</w>
착용 감</w>
차 콜</w>
짧 은데</w>
줄 알았
제 대로
제 거
적당 합니다</w>
이뻐요 ..</w>
이 주
요 건</w>
오렌 지
예 쁠</w>
얼 른</w>
어쩌 나</w>
않 구요</w>
아 무</w>
싶 은데</w>
스 크
소매 부분</w>
소 화
생각했던거 랑</w>
색 이고</w>
봣 는데</w>
발 은</w>
미 리
문 제</w>
모 양</w>
며 칠</w>
레 드</w>
디자인 에</w>
단 품으로</w>
놀랐 어요</w>
넘 게
기본티 로</w>
괜찮 구요</w>
간단 하게</w>
^_ ^</w>
효 과
혹시 나</w>
해 보니</w>
프린 트
캐 시미
취 향
체구 가</w>
장 이</w>
자 꾸
입으 니
입 긴
일 회
이 뻣
오래걸 리
언니 가</w>
언 제</w>
어요 ~~
앙고 라</w>
아이보 리가</w>
아 래</w>
쓰 레
싶 은</w>
신 분은</w>
속 옷</w>
비쳐 서</w>
블랙 이라</w>
뷔스 티에</w>
불편 한</w>
보 였
보 낸
무거 운</w>
못 입을</w>
만족 함</w>
따뜻 하니</w>
듭니다 ~</w>
듭니다 .
더라 면</w>
는 듯</w>
는 것도</w>
나왔 네요</w>
나 서
기모 도</w>
그런 건지</w>
구매할 게요</w>
구김 은</w>
고급 진</w>
각 이</w>
가벼 워
가방 에</w>
가디건 이</w>
흠 ..</w>
화면 보다는</w>
했는데 도</w>
하고 는</w>
하 다는</w>
품 이
편이 지만</w>
커 요
칭 찬
참고 하세요
짧 지도</w>
짐 이</w>
지 난
중 국
주문한 지</w>
좋았 는데</w>
좋 긴한데</w>
입었 네요</w>
임 이</w>
일부 러</w>
이뻐요 !!!</w>
을 거</w>
용 ^^</w>
옷 에
오래걸렸 어요</w>
에 어
어 여
안 이뻐요</w>
쓰 고</w>
소재 라서</w>
브랜 드</w>
배송 빠르네요</w>
맞 습니다.</w>
만족스럽 네요</w>
루즈 한</w>
따 갑
디자인 이
되 네요.</w>
도톰 해요</w>
당 일
단추 는</w>
는 걸</w>
넓 어</w>
내 용
끝 에</w>
그런 지
그래 요..</w>
구매 를</w>
교환 하기</w>
거 려
감 안하고</w>
d i
화면 이랑
했는데 ..</w>
했 지만
할 려
한 가지</w>
필요 했는데</w>
폴 라</w>
쪼 금</w>
지 갑</w>
저 번에</w>
입 지도</w>
입 네요</w>
이 버
으 면서</w>
여름 용
엄청 나게</w>
어요 ...
어떻 게
신 다보면</w>
손 이
색깔 도
사진 을</w>
빠 질
빠 진
비치 는</w>
불 량</w>
부직 포
부분 만</w>
보통 이네요</w>
버 려서</w>
배송 엄청
배 꼽
무료 배송
맡 겼
만 들
다닐 때</w>
높 은
나 옴</w>
나 네요.</w>
기 준
그래 서
그 린</w>
겨울 엔</w>
게 요~</w>
;; ;;</w>
:- )</w>
66 사이즈</w>
27 입는데</w>
할 게요</w>
퍼 프
터 져
카라 가</w>
친절 하셔서</w>
추 석
직 접
좋 진</w>
좋 구요.</w>
조아 여
재질 은
입으 니깐</w>
입구 가</w>
인디 핑크
이에 용</w>
의 외로</w>
을 것</w>
옷 걸
예쁘 진</w>
예 전에</w>
앞 이</w>
알 겠
않 을</w>
안 살
싸 니까</w>
시 작
시 에</w>
스판 은</w>
세탁 소
사 려고</w>
불편 한
베 스트</w>
배송 빠릅니다</w>
배송 빠름</w>
무난 무난</w>
무 슨
만족 해
만 해요</w>
떠 서</w>
듯 ..
더라 도</w>
네 욤</w>
관 리
고 ~</w>
겠죠 ?</w>
걸 림
걸 려
같아요 ..
같 네요
감 싸
가을 까지</w>
가격 대</w>
가 좀
s h
d y
^ .
9 0
3 주</w>
,. ,.
! ^^</w>
후 기에</w>
혹 시</w>
할 때
하 지
프리 사이즈
티 도</w>
큰 거
쳐 서</w>
질 감
좋은 제품</w>
좋 어요</w>
작 아요.</w>
자연 스럽게</w>
자 리
있었 지만</w>
입을게 요.</w>
입으 시면</w>
입 니
이상 하게</w>
이뻐요 ~~
옷 감도</w>
알 아
아쉬운 건</w>
살 을</w>
사 봤는데</w>
사 는게</w>
빨 고</w>
비슷 해요</w>
불편 함</w>
부 해보여요</w>
복 으로</w>
별로 에요.</w>
밴딩 이라</w>
문 안
만족 이요</w>
루즈핏 이라</w>
똑딱 이</w>
들어요 ~
두께 감은</w>
느낌 을</w>
너무 이쁘고</w>
남자 친구가</w>
꽉 끼
그 것도</w>
군 데
구입했 어요.</w>
구 멍</w>
괜찮 습니다
곳 에</w>
고무줄 이</w>
것같 아
검 은</w>
s i
f k
55 반
힘 든
화면 상
했 었
하셔 야</w>
크 지</w>
크 기</w>
추울 때</w>
촘 촘
청 록
줄 이
조 으
저한 테
재질 도좋고</w>
있 네요
입으려 구요.</w>
입고 다니기</w>
이번 엔</w>
요 일</w>
옷 에도</w>
예쁘 긴</w>
어디 에
아이 템</w>
아쉬 워요.</w>
아 빠
슬림 하게</w>
손 잡
선물 용으로</w>
생 가
샀 습니다</w>
빨리 왔
불편하 지</w>
봤 어요</w>
보이 긴</w>
보이 게</w>
배송 진짜
박시 해서</w>
바닥 에</w>
바 람</w>
바 닥</w>
문 자</w>
못 했지만</w>
만족 입니다.</w>
랄 까</w>
따뜻 한
더 워요</w>
댓 글
달라 요.</w>
다른곳 에서</w>
다르 네요.</w>
늘어 날</w>
꼼꼼 하게</w>
그리 구</w>
그렇 게
구요 ~~</w>
구매할 까</w>
구 여
고 르
55 사이즈
흰 색도</w>
확인 하고</w>
하 기에</w>
틀 리
투 박
참고 하세요.</w>
지 를</w>
좋았 을</w>
작 성
있 는데
입고 벗
임 에도</w>
움 이</w>
엄마 도</w>
어둡 고</w>
얇 음</w>
심 함</w>
색이 라서</w>
색 인데</w>
사진 찍
사진 만큼</w>
빨았 더니</w>
봤 을때</w>
보풀 이
베이지 로</w>
백 으로</w>
무난 한
몇 일</w>
매 번</w>
딱맞 아서</w>
따뜻 합니다.</w>
디테일 이</w>
대 서</w>
넓 어요</w>
너무 커서</w>
나 팔
나 도</w>
깜 짝</w>
깔끔 합니다</w>
길 면</w>
기본 이라</w>
기모 라</w>
구매하 려
검 정도</w>
같 긴</w>
가 오리
f i
6 8
16 0</w>
10 일
하시 네요</w>
하셔 야
판매자 분이</w>
파 스
티 에
지않 은</w>
좋아요 ...</w>
좋 음.</w>
좋 고요</w>
조아요조아요 조아요</w>
적당 하고
잘신을 게요</w>
있 다가</w>
이런 거</w>
이 게
을때 도</w>
원 했던</w>
옷 이랑</w>
연 청</w>
여행 가
없 구요</w>
아래 로</w>
아니 였
쓰 려고</w>
싸 고
싶 어</w>
솜 이</w>
뻣뻣 한</w>
비 즈
불편하 지만</w>
번 째
매우 만족합니다</w>
만족 만족</w>
다른데 보다</w>
다니 면</w>
늦 네요</w>
길 어요.</w>
그것 만</w>
구매 인데</w>
구김 이
괜찮을 듯</w>
게 요.</w>
거같 은</w>
같아요 ...</w>
4 7
17 3
160 에</w>
.. ?</w>
후 회</w>
한 다고</w>
하네요 ...</w>
하네요 ..
폴 리
특 별
키 에</w>
코 코
천 원</w>
짧 게</w>
좋겠 어요.</w>
제 질도</w>
잘쓸 게요</w>
작 업
있었 음</w>
있 다고</w>
이쁜 것</w>
요 ~~^^</w>
외 에는</w>
에게 도</w>
얼 마</w>
어요 ~^^</w>
어 떨
약 해서</w>
아프 고</w>
아니 고
아까 워</w>
심 하게
신 랑</w>
시 크
세 상
생각했던 것</w>
빨 래</w>
빠지 네요</w>
배송 완전
받 아</w>
바지 로</w>
매 력
말 곤</w>
만족 해서</w>
만 든
레 터
똑 같은
두꺼 워</w>
다른 색
다닐 수</w>
니트 랑</w>
니트 라</w>
났 어요</w>
나 긴</w>
기 준</w>
그런 거</w>
그 랫
괜찮을 거</w>
괜 히</w>
갠 춘
가 운데</w>
3 개
24 5</w>
흘러내 리
화면 그대로</w>
해야 되
하시 길
프 로</w>
튀어 나와
키 작
코트 가</w>
컷 팅
추천 !</w>
촉 감은</w>
지 나서</w>
주 면</w>
적 당</w>
입을 라
입 다보니</w>
입 는데
왔 지만</w>
옷 이나</w>
오 면</w>
연 결
여성 스럽
얇 긴한데</w>
안 이</w>
아 이</w>
신경써 서</w>
슬리 퍼
수 록</w>
속 옷이</w>
사지마 세요</w>
뻐 요</w>
빨 고
붙 고</w>
부드러 운
몸매 가</w>
몇 개
맘에들어요 ^^</w>
따뜻해 지면</w>
더군 요</w>
늦 엇
는 지
느낌 .</w>
누 가
내년 에</w>
기 고</w>
그다 지</w>
구매 자
골 반</w>
g j
d n
8 0
4 일
후기 보고</w>
햇 지만</w>
해 보고</w>
퍼 플
타이트 하고</w>
찢어 질
지만 .</w>
주 신</w>
좋은 상품</w>
저녁 에</w>
쟁 여
잘입을게 요
잘어울 려서</w>
있 긴</w>
입을게 요~</w>
입고 다녀
입 겠어요</w>
이제 야</w>
이 있어서</w>
완 젼
올 해
오른 쪽</w>
오래걸 려서</w>
예쁜 데
예버 요</w>
여리여리 한</w>
에 스
업 해서</w>
안되 는</w>
아 담
심 각
실 수
스판 기</w>
세련 되
성 공
보이 지만</w>
벨 트</w>
밝 아서</w>
받았 네요.</w>
바지 가
미 흡
메 이드</w>
러블 리
떨어 질
딱 좋네요</w>
듭니다 !</w>
뒤 가</w>
두껍 지도</w>
더워 지면</w>
단 단
다 려
니다 !</w>
눈 데</w>
네여 .</w>
날씬 한
나 요
꼬 매
길어 보이고</w>
기대 했던
기 로</w>
귀여 운
굿 입니다
겨울 내내</w>
검정 색도</w>
가 위로</w>
- -
후회 안
한 참
한 대</w>
하지않 아서</w>
하세 용</w>
핏 이에요</w>
피 스
평범 한</w>
팔 에</w>
타이트 하네요</w>
최고 입니다</w>
직 원
주름 도</w>
주 고
재질 이에요</w>
작은 거</w>
열 심히</w>
여 도</w>
없 는게</w>
아줌 마
싶 어요.</w>
실 버
시켯 는데</w>
세 미
생 겨
색감 이나</w>
상품평 보고</w>
샀 습니다.</w>
삐 뚤
보내 셨
보 일</w>
변 형
벨 벳
발목 까지</w>
못 입어요</w>
면 에서</w>
똑 같아요.</w>
들어요 !!</w>
들어 가</w>
동 네
느낌 인데</w>
긴 하나</w>
교환 도</w>
거 나
간절 기</w>
:) :)
55 입는데</w>
10 5</w>
화이트 도</w>
해보이 는</w>
하체 가</w>
하나 만
크 고
카 라</w>
짧 지</w>
지 워
좋을 듯해요</w>
좋았을 텐데
좁 은
존 예
조심 히</w>
잘신을 께요</w>
잘 늘어나
있 습니다.
인 기
인 것같아요</w>
이쁜 거같아요</w>
이 리
이 네요
왓 어요</w>
와 서
없 을</w>
심 한
스 티
쇼핑 몰</w>
새 옷
상품 은
빨 았는데</w>
빠릅 니다.</w>
부들부들 하니</w>
보이 네요.</w>
보다 는
보 진</w>
별로 예
받 으
바느 질도</w>
바 꿔
많 아요</w>
론 데</w>
랑 도</w>
도착 했
도 없고</w>
데 님
덮 는</w>
다시 는</w>
다른 색으로</w>
누 런
넣 을
넘 넘
나왔 는데</w>
나쁘 지는</w>
끈 을</w>
깔끔 하네요</w>
기 존
기 때문에</w>
그런 거
구입 했는데
구매했 는데,</w>
겨 우</w>
것같 습니다.</w>
걸렸 는데</w>
걸렸 고</w>
거같 애요</w>
h e
2 7</w>
👍 🏻
한 쪽
한 겨울에</w>
하네요 ~~</w>
키로 인데</w>
칼 발
착화 감</w>
지 어</w>
주문 햇
좋네요 ~
잘받았 어요
작 아서
있었 어요</w>
입었 습니다</w>
입어보 지는</w>
입 는거
이쁘네요 !</w>
이 쁠</w>
오리 털
예쁘 네요~~</w>
여름 내내</w>
여러 개</w>
여 러</w>
어깨 선
얇 아서
약 속
알 겠지만</w>
않 는
안 가
써 요</w>
신어 야
쉬 폰
생각했던 거</w>
산 지</w>
사진과 는</w>
봅 니다</w>
보기 엔</w>
보 기</w>
밖 으로</w>
바지 라</w>
무난 무난
목 에</w>
매 칭
마감 처리
라 기
둘레 가</w>
두툼 하니</w>
당 연히</w>
달 아
다 니</w>
느낌이 예요</w>
높 은</w>
구매하 실
구매 햇어요</w>
구두 는</w>
괜 츈</w>
겨울 에는</w>
게 용</w>
갠찮 아요</w>
가격대 에</w>
^^ ~</w>
힘 이
흐물 거리
화이트 가</w>
하시 는게</w>
하루 종
하려 구요</w>
하기 도
하겠 습니다</w>
하 얀</w>
하 길래</w>
핏도 이쁘고</w>
타이트 한
키 는</w>
추천 해
추 위
청 자켓
질 감이</w>
지않 아
지 하
좋아 해요</w>
좋 다</w>
좋 겟
져 있어서</w>
정 장</w>
정 리가</w>
있 으나</w>
잇 네요</w>
이쁘 네용
이쁘 나</w>
없어 서
어쩔수 없
어두 워
싫 어서</w>
생각 하시면</w>
사진 보단</w>
비침 도</w>
비치 고</w>
부담스럽 지</w>
보는 것보다</w>
벽 돌
매 고
맞 았
만족 하
막 입기
마감 처리</w>
떨어 졌
득 템</w>
동 네</w>
단점 이</w>
다림 질</w>
네요 ~~~</w>
내 가
괘 안
골 드
같 네요~</w>
갖 고</w>
가격 보다</w>
히 트
한달 만에</w>
하고 ..
피부 가</w>
포장 이</w>
평 상
편하 다고</w>
편이 라서</w>
톡톡 한</w>
추천 추천
쫀 쫀</w>
쪼 이
진 주</w>
좋을 꺼</w>
좋았 구요</w>
제품 에</w>
제 외
적당 하게</w>
저 런
있는 편이라</w>
입을 꺼</w>
입으 세요</w>
이쁠 거같아요</w>
이 래
원 하는
요 일
완전 이뻐요</w>
옷 들
예쁘 네요^^</w>
예뻐요 ~~~</w>
여기저 기
어깨 가
알 고
안 나서</w>
아직 은</w>
아닌 데
신 분들
시원 하니</w>
슬렉 스
소 리</w>
색 이나</w>
사진 빨
부해보이 지</w>
부분 을</w>
보 면
보 니
버 튼
배송 느림</w>
밝 고</w>
만 한
린넨 이라</w>
따숩 고</w>
따 로
들어가 요</w>
들 면</w>
되 지</w>
던 거</w>
다리 미
늦어 진
놀랬 어요</w>
너무 너무너무</w>
날씬 해보여
까 지만</w>
기 전
구매할 께요</w>
겨드랑 이
게 다가</w>
겉 에</w>
검정 으로</w>
걸치 기
걸렸 구요</w>
거 라고</w>
같 애요</w>
같 애
~~ ^^
d o
^- ^</w>
8 8
후 줄
화사 하니</w>
했 으나</w>
해 져서</w>
한여름 엔</w>
하려 다</w>
하네요 !</w>
하 더라구요</w>
핏 감이</w>
팔 부분</w>
톡톡 해서</w>
코트 는</w>
치 도</w>
추천 이
추천 안
체 크</w>
주말 에</w>
좋은 건</w>
져 있
제품 이
정전 기가</w>
정도 에요</w>
잘입겠 습니다.</w>
잘받았 어요.</w>
자 체</w>
있 어요!</w>
입으 려</w>
입었 습니다.</w>
인데 ..</w>
이쁩니다 ~</w>
이쁘 다</w>
이뻐요 이뻐요
완전 좋아요</w>
옷 만</w>
예쁜 옷</w>
안 입고</w>
싶 을</w>
싶 네요.</w>
신을 게요</w>
신 어요</w>
식 으로</w>
습니다 !!</w>
쇼핑몰 에서</w>
상태 로</w>
빨라 요.</w>
비 춰
봉 제
보드랍 고</w>
별로 ...</w>
반품 비
밑 으로</w>
밑 에
무게 감이</w>
모 니
머 스타
망 가
레깅스 에</w>
듯 ~</w>
대 체</w>
답 변</w>
다 를
놓 은
나오 는</w>
길이 나</w>
기대 한
기다린 만큼</w>
궁 금
개인 적
d b
3 8
168 인데</w>
!! ^^</w>
해보 입니다</w>
할 머니
할 것같아요</w>
한데 ,</w>
한 쪽</w>
하 진않
프린 팅
털 빠짐</w>
코디 하기도</w>
집에서 만</w>
즐 겨
좋아요 ~!</w>
정도 ?</w>
적당 하니</w>
적극추천 합니다.</w>
잠 옷으로</w>
있을 듯</w>
잇 는</w>
입으시 는</w>
입 다</w>
요 거</w>
요 !!!</w>
옷은 이뻐요</w>
오래 기다렸
예쁜 거</w>
여 성</w>
어깨 는</w>
어 이
안 돼
아 기
심 지어</w>
신을 수</w>
신발 을</w>
시켰 더니</w>
스타일 이에요</w>
스타일 이
소재 에</w>
센 스
색상 에</w>
색 과</w>
살 려
사장 님</w>
사 업
뻣뻣 하고</w>
붙 는
불량 이</w>
분위 기</w>
보들보들 하고</w>
받았 어요~</w>
반품 안
박시 하고</w>
바람 이</w>
미 스
무 광
모 든</w>
만족스러 운</w>
만족 해용</w>
만 드
리 얼
렸 는데</w>
러 올
똑 같네요</w>
때문 인지</w>
디자인 으로</w>
되 겠
닿 는</w>
달 랐
다른데 서</w>
다녔 는데</w>
니다 ...</w>
느렸 어요.</w>
넉넉 한
나와 요</w>
나온 듯</w>
끈 이
깡 패
길 지</w>
그대로 네요</w>
구매 합니다</w>
교환 했는데</w>
걸 리고</w>
거같 음</w>
같 구요.</w>
갈 때
e r
9 부</w>
5 일
3 9
17 2
후기 처럼</w>
학 생
하이웨 스트</w>
하나 가</w>
표 시
포 기
판매자 분
커 요..</w>
친구 들이</w>
참고 하세요~</w>
착한 가격에</w>
줄 여서</w>
좋습니다 ^^</w>
재질 이랑</w>
재질 이네요</w>
자체 도</w>
입을 꺼
입을 거
입었 어요.</w>
입어야 겠네요</w>
이라 는</w>
원단 이라</w>
원단 에</w>
왼 쪽</w>
올라 오
예쁘 다
었 으면</w>
않 으면</w>
않 아
안 어울리
안 감도</w>
아닌 것</w>
실밥 처리가</w>
신으 려
소 리가</w>
세련 되고</w>
섞 인</w>
서 는</w>
생각햇 던</w>
상 체</w>
삐 져
붙 어요</w>
별로 예요.</w>
박시 하게</w>
목 폴라
맞 습니다</w>
만족합니다 !!</w>
막 상
마무 리</w>
랍 니다</w>
딱 일
따뜻 하긴</w>
드 릴
드 네요
되 었는데</w>
날 리
그레이 는</w>
구매평 보고</w>
괜찮을 것</w>
고 .
겨울 에
같 긴한데</w>
갑 니다</w>
66 인데</w>
3 5
2 만원
16 1
흔 한</w>
화 이
해주 고</w>
해 여
하 이</w>
핏 으로</w>
핏 감도</w>
프리 사이즈라</w>
팔뚝 이</w>
키 작은</w>
크 긴
치마 도</w>
치 는</w>
짧 을
줘 야</w>
주변 에서</w>
주 신
좋았 어요
종 류
적당 히
재구매 의사
있 지만
있 음
이틀 만에</w>
이쁩니다 !</w>
우 선
옵 니다</w>
오프라인 에서</w>
옆구 리
없 지않아</w>
어두 워서</w>
앉 았
안나 요</w>
실망 스럽
실망 스러
소 비
선 선
생각 이
색깔 이
새 로</w>
상품 이
샀 으면</w>
사 이</w>
비추 입니다</w>
부터 는</w>
부들부들 해서</w>
보플 이</w>
보 시면</w>
배송 을</w>
바 라
문제 는</w>
무난 하게
무거 워
못입을 듯</w>
목 도</w>
모르겠 는데</w>
모델 핏</w>
모델 분</w>
매 듭
많이파세 요~</w>
만족만족 만족</w>
만족 .</w>
량 이</w>
된 다고</w>
되 있어서</w>
돈 아까
더 울</w>
대 비
다른 분들</w>
다 크
니트 에</w>
늦 어</w>
느렸 고</w>
끈 은</w>
귀 찬
구매한 건데</w>
구매 후기</w>
괜찮아요 ..</w>
고급 져</w>
게 요!</w>
가벼 운
가격대비 좋아요</w>
가격 을</w>
하니 깐</w>
하 길</w>
하 긴하지만</w>
플 라
팔 통이</w>
통 풍
털빠짐 이</w>
추천 합니당</w>
짱 입니다</w>
지않 았
주 려고</w>
죠 .</w>
좋아요 좋아요좋아요</w>
조금 씩</w>
재질 이고</w>
잠 옷
잘산 것같아요</w>
잘받았 어요~</w>
작 지도</w>
자국 이</w>
입으 라고</w>
입니다 ~
입 히
입 지만</w>
이상 은</w>
이뻐 서
이너 를</w>
용 .</w>
용 !!</w>
오버 핏이</w>
여름 용</w>
에 용</w>
없 고
얘 기
야 상
암 홀
실내 에서</w>
습니다 ~~</w>
속 치마가</w>
생각 해서</w>
사람 들은</w>
사 놓고</w>
빡 빡
빠른 데</w>
불편 할
부 해</w>
받았 어요
몸 통
먼 저
만큼 의</w>
듯 해요
드 디
두 고
될 듯해요</w>
대만족 입니다</w>
단추 가
니트 를</w>
늦 음</w>
느낌 ..</w>
네여 ..</w>
났 는데</w>
나봐 요.</w>
끊 어
기대 안했는데</w>
기 름
금액 대비</w>
그레이 가</w>
그래 요
굳 굳
군 더더
구요 ...</w>
공 지
거같 은
같 고
감 수
6 6</w>
2주 만에</w>
화사 한</w>
하나 씩</w>
프리미 엄</w>
파세요 ^^</w>
트 임</w>
테 이
크 네요
코디 된</w>
충 전
초 이
차 려
짙 은</w>
잘맞 아요
자마 자
있는 지</w>
입니다 ~~</w>
임 ..</w>
이예 요~</w>
이 러
오랜 만에</w>
오래걸 림</w>
오 옹</w>
예 뽀
연 락</w>
여 자</w>
에 여</w>
안 가고</w>
아직 안입어
싶 을
심플 해서</w>
심 하지</w>
시원 해보이고</w>
수 있어서</w>
손 빨래
세탁 하니</w>
섬 유
색상 은
샀 는데,</w>
사이즈 는
사이즈 나</w>
사이 트</w>
빠른배송 감사
비 칠
불 가
부 위
보여 요
백화 점
반품 비</w>
반신반 의
못 했
못 하겠
리본 이</w>
라 벨
똑딱 이가</w>
딱 이예요</w>
두 가지
돈 이</w>
답 니다.</w>
다 면
다 니다
다 는게</w>
니다 ..
느낌 은
나가 서</w>
께 요~</w>
까 요</w>
깁 니다.</w>
길 지도</w>
그대로 예요</w>
구매평 에</w>
괜찮 지만</w>
괜 찮</w>
겨울 용
걸 어두
건 가</w>
거 보다</w>
감 촉
갈 색
가격 이라</w>
가 게
가 ...</w>
? ??</w>
9 부
! @
화면 으로</w>
하루종 일</w>
하려 다가</w>
하네요 ~
하 얗
특 히
타 이
큰 감이</w>
초 여름
좋은 상품
좁 은</w>
조아요 ~~</w>
접 히
장 점
잘입고 다닐
있 지</w>
있 겠네요</w>
입은 거</w>
인데 요</w>
이상 함</w>
이 네요..</w>
울 어요</w>
왔 구요</w>
예정 입니다</w>
없 으면</w>
없 다고</w>
안되 어</w>
쓰 기</w>
수 있는</w>
소라 색
세탁 해
성 도</w>
생 일
생 겨서</w>
상품평 에</w>
상담 도</w>
샀 냐고</w>
살까 말까</w>
블라우스 랑</w>
분 명</w>
보여 요~</w>
별로 입니다.</w>
베이지 색
배송 으로</w>
배 기
박시 한
바랍 니다.</w>
묻 어서</w>
모르 고</w>
몇 일
면 이라</w>
들어요 .
들어가 는</w>
독특 해서</w>
덥 고</w>
다음 에
다 좋은데</w>
니다 ^^</w>
넣 고
내 구
날씬해보이 는</w>
길었 음</w>
길어 서
긴 합니다</w>
긴 거</w>
귀차 나서</w>
굿 !!</w>
구매확 정</w>
구매 하게</w>
구 냥</w>
고 해서</w>
고 있어요</w>
게 요
걸 릴
s 사이즈</w>
e j
7 5
66 입는데</w>
3 일</w>
3 3
(? )
환절 기에</w>
허리 를</w>
했 을때</w>
했 다가</w>
해서 는</w>
하지만 ,</w>
핑크 도</w>
편하 네요~</w>
팔 길이도</w>
특 유
퇴 근
키 큰
철 에</w>
차 르
찢어 져서</w>
집 앞에</w>
주 황
좋아 하
좀 ...</w>
정말 정말</w>
재 구매했
장난 아니
잠 깐
있을 거같아요</w>
입 혀
인 조
이 옷은</w>
이 옷</w>
으 신분들은</w>
요 요</w>
옷 감은</w>
옆 으로</w>
에 나
었 는데
어깨 끈이</w>
안 들어
아 가
쌀쌀 한</w>
심 한</w>
신고 벗
신 은
슬랙스 에</w>
스팽글 이</w>
스 토
스 탈</w>
스 몰</w>
수납공간 이</w>
수 술
세탁 기</w>
상태 는</w>
사 서
비치 네요</w>
브 리
불편 해서</w>
불편 합니다</w>
벨트 가</w>
배송 두</w>
바지 에도</w>
바 지만</w>
몰 라도</w>
목 부분
모델분 처럼</w>
레깅스 는</w>
똑 딱이
되어 있고</w>
더라 고요.</w>
담 에</w>
다니 는</w>
다녀 도</w>
늘어나 지</w>
느 려</w>
너무 이쁘네요</w>
냄 세
내려 오
내려 가
깔끔 하고
길이 랑</w>
그레이 도</w>
그 것</w>
굿 ~</w>
괜찮아요 .
괜찮 긴한데</w>
고무 줄</w>
것같 구요</w>
건지 ..</w>
같아요 ~~
같 다고</w>
l k
goo d
3 만원
3 개</w>
20 17
1 9
히 히</w>
후줄 근
화사 하게</w>
해보이 네요</w>
항 상
피 팅
푹신 하고</w>
편하고 좋아요</w>
편하게 입기
판매자님 이</w>
파세요 ~~</w>
티 로</w>
택배 가</w>
크 긴하지만</w>
캐주얼 하게</w>
친절 한</w>
추천 이요</w>
촉 감</w>
초 여름까지</w>
집에서 나</w>
진 청</w>
진 않고</w>
준 비
정도 면</w>
저렴 히</w>
저렴 해요</w>
저 히</w>
장 만
장 난</w>
자켓 안에</w>
잇 지만</w>
입을만 한</w>
입을 것같아요</w>
입으 실
입어 지
입니다 ..
이쁩니다 .
으 실
옷은 이쁜데</w>
오오 오</w>
예쁘 네요!</w>
예뻐요 ~~
예뻐요 !!!</w>
여성스러 워요</w>
여성스러 운</w>
어 머니
얇 긴</w>
아주 조아요</w>
아이보리 도</w>
아 들이</w>
시원 해</w>
스판 기도</w>
스러 운</w>
소재 도
생기 고</w>
생각했던 것
샀 었는데</w>
사고싶 었는데</w>
빠른배송 에</w>
봅 니다.</w>
봄 가을</w>
반품 귀찮아</w>
반 팔</w>
맨 날</w>
맡 겨
말 이
말 려
리 뷰
려 니</w>
떨어 져요</w>
딱 좋고</w>
따뜻 해요
다른 색도
넉넉 하네요</w>
내 년</w>
나온 것</w>
나오 면</w>
나쁘 지않고</w>
나 풀
나 은
까슬 거리
기 사
그렇 습니다</w>
그 정도</w>
괜찮아요 ^^</w>
과 하지</w>
고급스럽 진</w>
겠 다</w>
걸 려</w>
거 슬
간단 히</w>
가격대비 만족</w>
가 보시
가 나
❤ ️
~ ♡</w>
7 0
66 사이즈
55 반</w>
4 6
18 3
힘 들어요</w>
해보 인
합니다 ~~</w>
할 머니</w>
하신 분들은</w>
핑크 로</w>
핏 이고</w>
티 나</w>
추 운</w>
찾 아서</w>
찰 랑</w>
착화 감이</w>
착 한</w>
짧은 듯</w>
집 에
질 은
진짜 이뻐요</w>
지 못
주 위
좋았 어요~</w>
좋 습니당
조 여
적당 합니다.</w>
적당 하네요</w>
잘입을게 용</w>
잘받았 습니다~</w>
잘 했
잘 신고
작게 나왔
자세 히</w>
자 수가</w>
있 던</w>
입을 려고
입어보 니까</w>
입니다 !!</w>
입기 로
인가 요?</w>
이유 가
이 틀</w>
이 리</w>
이 ...</w>
으 니
우 아
옷 들이</w>
올라 와서</w>
올 여름</w>
예쁩 니당</w>
예쁘 구요</w>
여성스러 워
여러 번</w>
여기 는</w>
여 !</w>
업 체
어정 쩡</w>
얇 긴하지만</w>
않 는데</w>
아닌 듯
실제 로는</w>
손편 지
사 라
빨 라</w>
빠 진</w>
부들부들 한</w>
봄 이나</w>
보내 고</w>
버 리고</w>
발 등</w>
받았 습니다~</w>
무거 워서</w>
모델 핏이</w>
면 이
맞 춤
만 들었
마음 이</w>
딱맞 게</w>
동 일</w>
던 가</w>
더라구요 .
다른 색</w>
다 음</w>
느낌 이에요.</w>
높 아서</w>
너무 편하고</w>
냄새 나
나쁘 진않
깜 짝
깜 놀
까끌 까끌
기 까지</w>
그 가격</w>
구매한 지</w>
겠 네요.</w>
검정 이</w>
감사 합니당
감 도
가죽 이라</w>
17 7
힘 들었
해 지면</w>
함 ..</w>
할 거
하는 것</w>
핑크 라</w>
편하 긴한데</w>
편 인데
패턴 이</w>
파세 용</w>
통통 한</w>
코코 아
코디 하기
차 이</w>
짜임 이</w>
좋아 서
좋 네용
조아요조아요 조아요조아요
조 이
져 요.</w>
점프수 트
점 퍼</w>
저렴 하고
저 번
저 런</w>
장식 이</w>
잘입을게 요~~</w>
잘샀 네요</w>
잘 해서</w>
있을 꺼</w>
입으려 면</w>
이쁜 듯</w>
이라 서
이라 기
이거 는</w>
이 음
음 ....</w>
으 시면</w>
우 면서</w>
왠 만하면</w>
와인 색</w>
였 으면</w>
여유 있는</w>
얼룩 이</w>
어요 ,</w>
어디 에도</w>
약 해요</w>
아이 가</w>
아쉬운 점은</w>
아 니</w>
심플 하니</w>
신발 은
시켜 서</w>
스팽 글</w>
소재 에요</w>
소재 는
셔츠 를</w>
색도 이쁘고</w>
사람 마다</w>
블링 블링
부해보이 는</w>
부드럽 고
백 팩
반품 할까
반품 하기도</w>
무스 탕
목 이
맞아요 ~</w>
라인 을</w>
떨어지 는
드 리고</w>
둘 러
두번째 구매
되 게
도착 해서</w>
달 린
다리 에</w>
다 는데</w>
다 네요</w>
네 오프
내 부
나시 가</w>
꺼 같네요</w>
까끌 거리
길이 는
긴 팔</w>
긴 데</w>
기다 릴
그래 요~</w>
그대로 고</w>
고 도</w>
계 열
갠차 나
t i
t h
^. ^</w>
17 4
1 주
* *
화면 보단</w>
허벅 지는</w>
할 지</w>
할 께요</w>
하 하
하 도</w>
편안 해요</w>
터 져서</w>
키 도</w>
커 보이고</w>
친 절</w>
초 겨울
진 해요</w>
주 로</w>
좋습니다 요</w>
제품 으로</w>
정도 인데</w>
접 혀
재 구매하
잘입을게 요!</w>
잘 입으
잘 되
작은 듯</w>
입엇 는데</w>
이쁠 듯
이쁠 것</w>
이쁘 지</w>
이뻐요 이뻐</w>
요 ^^
오 요</w>
예 술
였 음</w>
어둡 네요</w>
애매 한
아쉽 긴</w>
아 마</w>
싼티 도</w>
싸이즈 도</w>
실밥 도</w>
습니다 ..
세련 된</w>
세 용</w>
서비 스</w>
상품 으로</w>
살 랑
사이즈 랑</w>
사 각
빨랐 어요.</w>
비 칩
붙 여
보내주 신
보내주 세요</w>
버렸 어요</w>
무난 해요.</w>
목 부분도</w>
몇 개</w>
맨 살에</w>
만족스러 웠
마르 신
려 도</w>
라인 이
뚱뚱 해보여요</w>
똑같 구요</w>
딱 입니다.</w>
딱 !</w>
듯 요.</w>
동 전
대박나 세요</w>
니트 도</w>
늦는 다고</w>
느낌 에</w>
너무 맘에들어요</w>
남 .</w>
나쁘 진않아요</w>
깜 찍
까슬 까슬
까 만
깁 니다</w>
글쎄 요</w>
그리 고
그 게
구매평 을</w>
괜찮 아</w>
과 정
고급 져요</w>
고 생
것같 은
걸치 면</w>
거같아요 ^^</w>
거 처럼</w>
감사합니다 .
감 은
가을 에
가방 이
가능 해서</w>
s n
6 0
55 사이즈인데</w>
👍 🏻</w>
흰색 으로</w>
해 줘서</w>
합니다 !!</w>
한 쪽이</w>
한 마
하 느라</w>
핏도 좋고</w>
핏 과</w>
프 로
포인트 도</w>
편 이에요.</w>
패 드
큼 직
코디 해도</w>
카 드</w>
추천합니다 ~</w>
추가 로</w>
착용 감은</w>
질 렀
지 ..
주문 하세요</w>
좋네요 !!</w>
적 절
잘받았 어용</w>
잘못 입으면</w>
작 았
있 어요.
잇 는데</w>
입을수 있는</w>
입 음
일 자</w>
인 듯해요</w>
인 게</w>
인 거같
이에 요..</w>
이상 하고</w>
이상 으로</w>
이 다
유행 하는</w>
운동 할때</w>
완 죤</w>
완 료
오래걸 린
예쁩니다 !</w>
엑 스
언니 도</w>
어 설
얇 고
애매 하고</w>
앞 에
안 예뻐요</w>
아 크
아 닐
싶 지만</w>
실망 입니다</w>
실 크
실 물</w>
신으 니까</w>
시키 면</w>
시 는</w>
습니다 ...</w>
손 으로</w>
샤 랄
새 옷</w>
사 면서</w>
뽕 이</w>
비지 떡</w>
블 링</w>
부탁 드려요</w>
볼 륨
보내 시
배송 지연</w>
밤 에</w>
발볼 이
받았 구요</w>
바스 락
무늬 도</w>
모니 터
매 장에서</w>
맘에 안
많 았는데</w>
롱 패딩
똑 같아요~</w>
듯 !</w>
둘 다
데일리 로
더라 고
대 응
다릅 니다</w>
느낌이 지만</w>
노 트
네 크
내 고</w>
나머 지는</w>
께 요.</w>
까 먹
길이감 도
길 게
기장 도
기다린 보람
급 해서</w>
구매 하고
것같 음</w>
것같 아여</w>
검정 은</w>
거 에</w>
개 선
같아요 ~^^</w>
같 다는</w>
감사 해요
가 루
> <</w>
7 부
형 태
형 광
했 어요.
할 줄</w>
할 듯요</w>
한여름 에는</w>
한 해
하루 도</w>
필요 한</w>
폼 이</w>
편 리
퍼 가</w>
티 가
크 다
코트 를</w>
칙칙 한</w>
추천합니다 !</w>
착 용</w>
차 가</w>
짱 !</w>
짧 았
진주 가</w>
진 해서</w>
지않 는</w>
주 시면</w>
죠 아요</w>
좋습니다 ~~</w>
적 이</w>
재구매 의사</w>
재고 가</w>
있을 것같아요</w>
이뻐요 ~~^^</w>
이런 건</w>
이랑 은</w>
이 빠
이 가격에
을 거같아요</w>
왠 지</w>
와 이드</w>
옷 감</w>
옵 니다.</w>
예쁠 것</w>
여자 여자
여기 서
엉 망</w>
어디 서
얇 게</w>
앞 뒤</w>
않아요 .
안 쪽이</w>
안 될
아우 터</w>
아 저
싼티 안나고</w>
싼티 나고</w>
신어 야</w>
신경쓰 이
시보 리가</w>
스 팀
스 킨
수 영
수 납</w>
생각한 것보다</w>
상품 에</w>
사 업</w>
사 는
빠르 고,</w>
부분 의</w>
부 각
봤 을땐</w>
보는 것과</w>
보 구</w>
별루 예요</w>
밴 드</w>
받쳐 입기
받 는데</w>
반품 할까</w>
반 짝</w>
맞춰 서</w>
디 잔
단추 구멍이</w>
느 립니다.</w>
넣 어도</w>
긴한데 ..</w>
기대 이하
그렇 습니다.</w>
그 제
교환 신청
경 우</w>
것같아요 ^^</w>
것같아요 .
것같 지만</w>
걸렸 어요.</w>
걸 로
갠 춘</w>
가슴 부분이</w>
가까 이</w>
가 져
가 리
♡ ♡♡</w>
26 입는데</w>
235 신는데</w>
170 인데</w>
100 사이즈</w>
1+ 1</w>
.. 그냥</w>
흔 하지않
행 복
했 구요</w>
해야 할듯</w>
한치수 크게
플 리
풀 어
풀 리고</w>
평 이
편해요 ^^</w>
텐 션
크 네요..</w>
취 소</w>
추 워요</w>
청 자켓</w>
짱짱 한</w>
짝 짝
질 도좋고</w>
지하 상
좋으 네요.</w>
좋았 고</w>
좋아요 오오</w>
좋아요 ~~~~</w>
좁 아요</w>
제품 입니다.</w>
제 질이</w>
젛 아요</w>
정확 히</w>
정도 로
적 응
저렴 하
저 처럼</w>
재질 의</w>
잘 받
작은 듯
있 긴하지만</w>
입을께 요.</w>
입 어요~</w>
일회 용
이뿌 게</w>
은근 히</w>
움직 일
외 엔</w>
와 는</w>
옷 장에</w>
옷 자체가</w>
오 피스
오 트
예 전
었 어요.</w>
언 발
않 고,</w>
안 해도</w>
쓸 만
싸이즈 는</w>
실물 이랑</w>
실망 했어요</w>
시보 리
시 킬
속 바지가</w>
샀 어요!</w>
살 걸
사진 보다
블라우스 는</w>
블 로퍼
불편함 이</w>
보이 지도</w>
번 갈
배송 때문에</w>
바람 막
목 도
많 네요</w>
만 져
마 지
리 닝
렵 니다</w>
레깅스 가</w>
라 서
떨어 짐</w>
때문 에
딸 이</w>
따 듯해요</w>
들 기
뒷 부분이</w>
뒤 에
둡 니다</w>
되어 있어</w>
담 날</w>
다만 ,</w>
는 뎅</w>
누 리
나쁘 지도</w>
끼 고</w>
끄 럽
긴 해도</w>
기본 티</w>
기대 를
글 고</w>
귀 염
굿굿 입니다</w>
굽 높
구매했 구요</w>
거같 지만</w>
강추 !</w>
감사 드려
가격대 가</w>
w j
goo d</w>
3 월
17 6
123 4
. /
힘 드
흐 물</w>
황 당
화이트 로</w>
홈 웨어
했 습니다.
해주 세요
한테 도</w>
하려 고
하고 .</w>
하 기가</w>
핏 되
풀 릴
표 현
페 브리
판매자님 도</w>
파 이
톤 이</w>
탈 부
탁 한</w>
타 입
큰 편이라</w>
크 롭
코트 에</w>
친구 도</w>
추워 지
차이 나
짧 아서
지만 ...
지나 면</w>
중 에서</w>
좋아요 !
좋네요 ~^^</w>
좀 큰
조 하
접 어</w>
점프수 트</w>
절 개
저렴 하니까</w>
저렴 하구</w>
장 사
잡혀 서</w>
잘입을게 여</w>
잘입을 거같아요</w>
잘 삿
자크 가</w>
있 어요..</w>
입어야 할</w>
인 줄알았는데</w>
이뿐 데</w>
이 뿝
웠 는데</w>
우 수
어정쩡 한</w>
어요 ~~~</w>
애매 하게</w>
애 매</w>
알 앗
안나 와요</w>
안 으로</w>
안 와서</w>
안 쓰
안 녕</w>
아 들
심플 한</w>
실 측
실 로</w>
손 글
소 중
세탁 은</w>
색감 이
색감 도
샀 어용</w>
사이트 에</w>
사 쥬
빨리 와서</w>
블라우스 가</w>
블 로퍼</w>
부직 포</w>
보이 지는</w>
보내주 신</w>
배송 빨라서</w>
배송 까지</w>
바람 에</w>
묶 으면</w>
못입 겠어요</w>
맞 는거</w>
마음에 들고</w>
마른 체형
링 이</w>
레이어드 하기</w>
레깅스 랑</w>
딱딱 해서</w>
될 듯요</w>
도톰 한
단추 구멍
넥 라인이</w>
낫 네요</w>
나 지</w>
그런 건</w>
구겨 지
겠 지
검정 색은</w>
건가 요?</w>
거 예요</w>
거 래
같 았는데</w>
강 력
66 반
3 1
2 번째</w>
2 ~
16 9
/ 4
회사 에서</w>
회 사</w>
활동 하기</w>
했 어요!</w>
합니다 ~
하시 면
프 릴</w>
편이 구요</w>
통 통</w>
탄 력
카키 색
최고 네요</w>
청 순
짧 네요.</w>
진 하고</w>
주셨 으면</w>
좋을 꺼
좋 지도</w>
종 종</w>
제품 의</w>
정전 기</w>
전 체</w>
저렴 해서
저렴 하네요</w>
저녁 으로</w>
저 희</w>
잘어울 리네요</w>
입어보 면</w>
입 지는</w>
일단 은</w>
일 할때</w>
일 찍</w>
이쁘 긴해요</w>
이뻐요 ..
이 용</w>
이 었는데</w>
이 뿜</w>
이 긴한데</w>
용도 로</w>
완전 히</w>
옐로 우
예쁜 것</w>
여 서
여 긴</w>
엇 어요</w>
어디에 든</w>
양 호
아주 아주
써 야
스판끼 는</w>
스타일 에</w>
스카 프
센 치</w>
생각 은</w>
생가 보다</w>
색 갈
살 껄
사 시면</w>
비싸 요</w>
비 하면</w>
블랙 이
보이 구</w>
보내주 시고</w>
보 던
보 낼
벗 을때</w>
번창 하세요~</w>
받았 지만</w>
물 빠짐</w>
무 늬</w>
못 입었
몰랐 는데</w>
목 폴라</w>
멋 스럽고</w>
먼 지도</w>
맞 구요</w>
말랑 말랑
말 도</w>
많이 나
만족합니다만족합니다 만족합니다만족합니다
만족 하는</w>
마음에 들어요
마음에 들어
루즈핏 으로</w>
들어가 네요</w>
드디 어</w>
되 니</w>
도 저히</w>
다 운</w>
다 신</w>
늦었 네요</w>
느렸 는데</w>
느낌이 랄까
넣 었
났 지만</w>
나 간
길 래
긴 해요.</w>
기대 했던</w>
기다 림
기다 리고</w>
기다 려</w>
기 재
기 간</w>
그레이 로</w>
그냥그래 요.</w>
그냥그래 요
그 정도
굿 이에요</w>
구 니
공간 이</w>
골 랐
고맙 습니다</w>
고급 스런</w>
겟 습니다</w>
거같 구요</w>
거 면</w>
가죽 은</w>
가격 정도
가격 이면</w>
가 로</w>
c k
163 인데</w>
10 0</w>
흰 색이
화이트 랑</w>
허리 랑</w>
합니다 ...</w>
한 파
한 거같아요</w>
하 기는</w>
편 이라
편 도</w>
패 션
틀 어
탄탄 한</w>
칼 라도</w>
추워 지면</w>
청바지 에
쭉 쭉</w>
짧 긴하지만</w>
진 심
좋았 어요!</w>
좋아요 ^^
좁 아
좀 ..
재질 과</w>
잘산 것</w>
잘 신
입 던
입 다
이쁘네요 ~
원단 도
왓 네요</w>
올려 주세요</w>
온 라인
오 천원
어울릴 것</w>
얇 지않고</w>
앞 부분이</w>
않 구</w>
안녕 하세요</w>
안 좋아요</w>
아이보리 랑</w>
아쉽 네요..</w>
신 는</w>
슈 즈
수납 이</w>
수고 하세요
수 제
손 을</w>
소재 나</w>
소매 에</w>
센 티
세탁 했는데</w>
세 개
선 택</w>
사이 즌
사 려구요</w>
빨랐 습니다</w>
빠 졌어요</w>
비싼 듯</w>
비싼 감이</w>
비슷 한데</w>
블랙 을</w>
블랙 색상</w>
블랙 과</w>
불 만족</w>
부드럽 네요</w>
부 해보일
보통 이요</w>
보이 기도</w>
보 푸
별로 지만</w>
번창 하세
배송빠르고 좋아요</w>
밖 에서</w>
바지 는
몸 무게
면 티
면 에</w>
맘에들어요 ~~</w>
맘에드 는</w>
만족 이에요</w>
리 본</w>
라 는
뛰 어
똑같 은데</w>
떨어 져</w>
디쟌 은</w>
디자인 ,</w>
두껍 게</w>
데 로</w>
당황 스러
다니 기에</w>
느리 긴</w>
느 슨
네이비 로</w>
너무 짧아요</w>
너무 좋네요</w>
끼 는</w>
끈 으로</w>
기 회
그렇 다
굽 이
구입 한</w>
구매할 께
구매할 까
구매하고싶 네요</w>
구 나</w>
교환 했어요</w>
고 마
고 리
것같 아용</w>
같아요 ~~~</w>
값 어
s a
o n
44 반
1 55
화면 이</w>
해 놓고</w>
한철 입기</w>
한 두번</w>
한 개</w>
하루 만에
하겠 습니다.</w>
하 십
핑크 색이</w>
핑크 색
편이 예요</w>
편안 한</w>
팔 을</w>
파우 치</w>
파스 텔
특유 의</w>
카라 부분이</w>
치마 에도</w>
촬 영
체격 이</w>
찰랑 찰랑
착화 감은</w>
지금 입기엔</w>
줄어 들
주 인
조절 이</w>
졌 는데</w>
졌 네요</w>
점 점</w>
있 습니다~</w>
입을께 요~</w>
입어보진 않았지만</w>
입니다 ...</w>
이예 요
이라 인
이 옷
이 름
위 까지</w>
우 우
요 ??</w>
옷이 예요</w>
오래 는</w>
예쁠 거</w>
예쁘 다고
여러 가지</w>
에어 컨</w>
엉덩이 를</w>
얼 굴</w>
않 음.</w>
아이보리 로</w>
아닌 가</w>
쏘쏘 해요</w>
싼 마
싸 보이지</w>
실망 이네요</w>
신발 이
스판 기
스키 니</w>
스 마
속 바지
소중 한</w>
소비 자
센 티</w>
세 번째</w>
성 의
생각 으로</w>
생 기는</w>
사 드렸는데</w>
빠르 진</w>
비치 지</w>
불편 해요.</w>
불 쾌
부 담</w>
보온성 은</w>
보 름
보 네요</w>
보 관
별로 였어요</w>
번창 하세요.</w>
버 전
발 바닥
바이 올
묻 어</w>
무난 해요~</w>
매 장
맞 추
많이 많이</w>
마 세요</w>
들어 간
든 다고</w>
드립 니다
뒤 에가</w>
두개 다</w>
당 장</w>
달라붙 는</w>
달 린</w>
늘어나 요</w>
늘어 난
는거 랑</w>
누리 끼
네이비 가</w>
너무 느려요</w>
날 씬</w>
나 라
나 니까</w>
기저귀 가방으로</w>
기분 좋게</w>
기대 안
그거 빼곤</w>
굵 은</w>
구입했 습니다.</w>
구요 ^^</w>
구매했 습니다.
굉장 히
괜찮은 듯
괜찮 구</w>
겹 쳐
것 만
걱정 했는데
걱정 되
거같 은데
같 기도
가 ..</w>
e k
45 6
4 일</w>
28 입는데</w>
167 인데</w>
165 에</w>
10 일</w>
00 원
힘 드네요</w>
화이트 라</w>
헐 거
해야 할듯
합니다 ..
할 꺼
한겨울 엔</w>
한 해</w>
한 건데</w>
하셨 는데</w>
하 의</w>
표 기
편 해용</w>
편 해
펄 럭
파 임
파 였어요</w>
파 는
톡 톡</w>
큰 걸로</w>
크 기도
카 키가</w>
쵝 오
짱 이에요</w>
지금 도</w>
지 라</w>
주문한 건데</w>
주 니</w>
좋아 보여요</w>
조아 용
제품 이라</w>
적 은</w>
저 만</w>
잘입을께 요^^</w>
잘입을께 요.</w>
잘입을 것같아요</w>
잘입고 다니
있어요 ~~</w>
있 음.</w>
입으시 는
입기 좋은</w>
입게 되
입 금
일 교
이용할 게요</w>
이쁩니다 !!</w>
이쁩 니당
이 야
은은 한</w>
원플 러
왜 이렇게</w>
왔 어요
오 묘
예쁘 지</w>
예뻐 서
여리여리 해</w>
없 구</w>
어깨 라인이</w>
어 떡
양 쪽
아프 네요</w>
아파 서</w>
아요 .
아쉬웠 어요</w>
아님 .</w>
아 팠
써 서</w>
스판 이
스타일 을</w>
셔 요</w>
생각하 던</w>
색감 이랑</w>
상 황
사진그대로 에요</w>
사진 보고</w>
사 기</w>
빼 곤
빠르 게
블링 블링</w>
블랙 샀는데</w>
봤 을</w>
봤 더니</w>
복숭아 뼈
버 건
배송너무 느려요</w>
반품 이</w>
미 치
물빠짐 이</w>
무겁 네요</w>
못 해</w>
맘에 쏙
말 그대로</w>
만족 해여</w>
만원 짜리</w>
마니 마니</w>
마감 처리도</w>
루즈 핏이
랴 요</w>
됐 어요</w>
데일리 백으로</w>
데일리 룩으로</w>
덮 어
더 러
다음 엔</w>
니 깐
느낌 ?
너무 크고</w>
기모 가
그제 서야</w>
구입했 습니다</w>
공 간</w>
고정 이</w>
고 퀄
것같 네요.</w>
걸린 거</w>
걸 쳐</w>
거든 요.</w>
거 지
감 기는</w>
감 기
가까 워요</w>
가격만큼 이네요</w>
i n
5 2
3일 정도</w>
165 인데</w>
1 10
/ 8
. 1
함 은</w>
한 두
한 다
한 느낌</w>
하지만 ..</w>
하얀 색</w>
하 지도않고</w>
핏 되는</w>
피부 에</w>
풀 렸
팔 뚝</w>
팔 꿈
티셔츠 에</w>
틀 리네요</w>
털날 림
택배 사
코디 를</w>
코디 가</w>
커 요~</w>
출 퇴근
추운 날
촤르 르</w>
처 리는</w>
쫀쫀 하게</w>
쨍 한
짱짱 해요</w>
짧아요 ..</w>
짧 긴</w>
질 것</w>
지않 음</w>
지 안
좋을 꺼같아요</w>
좋네요 ..
좋겠 네요.</w>
좋 네요..</w>
종 이
재질 로</w>
잘신을 께
잘 했어요</w>
잘 사용
작 네요.</w>
있 구</w>
입을만 함</w>
입은 듯</w>
입어 봐야</w>
임 신
일 줄</w>
인데 ..
이뽀 용</w>
이 곳
의 심
으로 만</w>
우 니</w>
올라 가서</w>
오래걸 렷
예 정</w>
연 해요</w>
여 ..
에 는
어정쩡 해요</w>
얇 을
안 전
아 버
싼 게
싶 습니다.</w>
슬림 핏
스판끼 가
소재 네요</w>
소 지
셔 서
세일 해서</w>
선물 하려고</w>
사 는데</w>
사 기
비 만
분들 에게</w>
봄 이</w>
복숭아 뼈</w>
보 던</w>
별로에 요..</w>
별로 에요
베이지 라</w>
벌어 지
번창하세요 ^^</w>
배송기간 이</w>
배송 진짜</w>
문자 도</w>
묶 어서</w>
못 입음</w>
몸 매</w>
모델 컷
며 ,</w>
맨 발
듯 해요~</w>
들 이
된 거</w>
더라 구요~</w>
대 나</w>
다른 컬러도</w>
다닙 니다.</w>
다 름
늦엇 지만</w>
늘어날 거</w>
너덜 너덜
남 겼
나 갈</w>
기 까지
그냥 그럼</w>
귀 걸
구 냥
괜찮 네요^^</w>
고급 진
것같아요 ~
걸쳐 입기</w>
걸 칠
같 구</w>
갖 고싶
갑 니다.</w>
가디건 이랑</w>
가 운
s t
i g
f g
L X</w>
240 신는데</w>
2 일</w>
15 9
000 원</w>
./ ./
... 그냥</w>
흐물 흐물</w>
할 꺼</w>
핏이 며</w>
플 레
편하고 조아요</w>
톡톡 으로</w>
크 면</w>
커 도</w>
캐시미 어
채 로</w>
찰랑 찰랑</w>
지않 고
지마 세요</w>
좋은 듯
좋아 좋아
좁 고</w>
잡아 줘
있 던데</w>
입을 거라</w>
입었 을때
입어야 겠어요.</w>
입어 질</w>
일어 나는</w>
인 듯요</w>
이쁠 것같아요</w>
이 브
은 거같아요</w>
위 해</w>
요즘 에</w>
왜 케</w>
없 음.</w>
없 는거</w>
어 제
야 할듯</w>
애 기
안 빠지
아이보리 색</w>
아 침</w>
싶 어
신축성 이
습니다 ~
세탁 후
세탁 도</w>
세탁 기에</w>
사람 도</w>
빠르 네요.</w>
비싼 거</w>
불편 합니다.</w>
부드럽 게</w>
보 드라
베이직 한</w>
배송이 좀
받았 습니다.
받 으니</w>
받 는
반품하려 다가</w>
반 바지에</w>
박 혀
박 스</w>
바 뀌
무겁 지만</w>
못입을 것</w>
머 리가</w>
맘에들어 여</w>
말 라서</w>
만족 하는데</w>
리 닝</w>
려 고요</w>
라운 드</w>
따뜻 하게
디자인 만</w>
들 보다</w>
드 네요~</w>
두께 감이
두 벌
도착 했어요</w>
도 있고</w>
덧 대
대만족 입니다.</w>
다양 하게</w>
다리 가
다니 는데</w>
다 리는</w>
니트 조끼</w>
늘어 남</w>
네이비 는</w>
남 친</w>
낙낙 하게</w>
나오 는
나 아요</w>
꾸 민
꺼 끌
기분 이
기본템 으로</w>
금 장
그 건
구매했 어요.
구매 .</w>
괜찮 네요~~</w>
고급스럽 게</w>
건 조
거 림</w>
거 가타
가볍 네요</w>
가격만큼 이에요</w>
~!~! ~!~!
^ ~
, .</w>
(? )</w>
회 색도</w>
황 토
화 가</w>
했 어요..</w>
해야 할</w>
함 .
한 쪽은</w>
한 걸</w>
하이웨스트 라</w>
하 네
편해요 ~~</w>
편하 긴
파세요 !</w>
탄탄 해서</w>
키가 작아서</w>
캐쥬얼 하게</w>
칼 배송</w>
카 멜</w>
추천 은</w>
추천 드려요</w>
최고 !</w>
촌스럽 지</w>
처음 이네요</w>
찍 어
짧은 게</w>
주문 을</w>
좋았을 거</w>
조끼 가</w>
조금 더
조 명
져 있고</w>
재질 이라서</w>
잘 한거</w>
자연 스러
있어 용</w>
있 네요~</w>
입은 거
입기 도
입 던</w>
일어 날</w>
인 기가</w>
이쁘 긴한데
이미지 랑</w>
이 니까</w>
이 .</w>
요즘 은</w>
왔 습니다.</w>
와 우</w>
올려주 세요
올라 와
예쁩니다 .
예쁘 고,</w>
열 흘
연 두
여러 가지
어려 울
야 할</w>
야 상</w>
않은 거</w>
안나오 네요</w>
아쉽 고</w>
아무 리
아니 지만
쓰레 기
심 해요.</w>
신 다면</w>
신 는
슬랙스 랑</w>
스 퀘
쇼 핑</w>
속 바지</w>
소매 통이</w>
서 ...</w>
생각 해보
살 고</w>
사진 상</w>
뻣뻣 해서</w>
불편하 진</w>
불 만</w>
부분 에서</w>
본 인
보라 색
보 임
베 리
밴딩 바지</w>
받쳐 입기도</w>
받앗 어요</w>
무게 가</w>
못 했는데</w>
못 하
메 모
맘에 듭니당</w>
말 랐
만족해요 ~~</w>
만족해요 ^^</w>
만족합니다 만족합니다</w>
만족합니다 ~^^</w>
만 만
러 요</w>
디자인 의</w>
듭니다 ^^</w>
듭 니당
들 었는데</w>
두껍 진</w>
두개 나</w>
두 면</w>
되 겠어요</w>
더 주고</w>
당황 했지만</w>
다행 이</w>
네이비 도</w>
넣 기</w>
넘 좋아요</w>
너무 이뻐요
날씬 하게</w>
나시 를</w>
나 쁜
나 무
나 긴하지만</w>
나 ..</w>
끝 이</w>
글 구</w>
근 육
그냥 입
그 림
구매하 러</w>
괜찮을 거같아요</w>
괜찮 다고</w>
곳 도</w>
결혼 식</w>
결 국
거리 는
거같아요 ~~</w>
거 니</w>
같 진</w>
같 고,</w>
가을 에도</w>
가 면</w>
~ .
x l</w>
d l
c o
9 9
18 2
허리 는
해 봤는데</w>
한 여름에도</w>
하 자</w>
편하 진</w>
틀 린
틀 려요</w>
퉁 불
털빠짐 은</w>
카키 도</w>
치마 를</w>
최 저
쳐 지
차이 가
쭈글 쭈글
질 감은</w>
지금 날씨에</w>
지금 까지</w>
줄 은</w>
주문했는데 ,</w>
주 세요
주 기</w>
좋을 듯요</w>
좋아 하시는</w>
좋아 영</w>
좋 네
좋 구요~</w>
조끼 를</w>
조금 만
제품 입니다</w>
정사이즈 고</w>
전 부
저 보다</w>
잠 궈
잘입을게 요.</w>
잘입고 다녀요</w>
잘 신고</w>
잇 음</w>
입었 어요
입어야 지</w>
입기 좋네요</w>
인 건</w>
이쁘 요</w>
이쁘 네요..</w>
이쁘 네요.
이번 에도</w>
을때 마다</w>
원 해서</w>
울 퉁불
울 어서</w>
예뻐요 ..
예 브
연 휴</w>
여름 이라</w>
없 지</w>
없 었는데</w>
앞 으로
안된 다고</w>
안 가는</w>
아요 !</w>
아니 네요..</w>
아 슬
씁 니다</w>
싸 요</w>
심 하
시원 해보이
슬림 한</w>
스트랩 이</w>
스커트 는</w>
수 는</w>
생각했던 것보단</w>
생각 합니다</w>
색이 예요</w>
사 줬
사 보
빨랐 습니다.</w>
비슷 하고</w>
브이넥 이</w>
붉 은
분 만</w>
부탁 드립니다</w>
부탁 드려
보라 색</w>
보 정
보 라</w>
베이지 랑</w>
벌어 져서</w>
버 스
밝 아
발볼 도</w>
발도 편하고</w>
반품 할
바지 통이</w>
바 깥
밑위 도</w>
묻 고</w>
못입을 거</w>
모 자</w>
메 고
많이 했는데</w>
만족 요</w>
마음에 드네요</w>
마 감은</w>
랬 는데</w>
떠 요</w>
따뜻해 져서</w>
따뜻 해요~</w>
등 등</w>
듯 해서</w>
뒷꿈 치</w>
두 장
되 는거</w>
덜 렁
더라구요 ..</w>
단 골
다양 한</w>
다른 색상</w>
다 는거
는 거같아요</w>
누리끼 리
놀러 갈때</w>
네용 ~</w>
넉넉 합니다.</w>
나시 는</w>
까 요?</w>
기대 보다</w>
굿 ~~</w>
구입 하고싶
구매하 게
괜찮 고
겠 지</w>
것같아요 ~~</w>
검정 색이라</w>
검수 를</w>
거같아요 .
거 슬리
거 림
같 네요..</w>
간단 한</w>
ᆢ ᆢ
y o
w h
r e
a n
2017 .0
2 일
. 5
,, ,,</w>
히트 텍
후 드</w>
핸드 메이드
해 놓
한겨울 에도</w>
한 장
하지않 아요</w>
핏 감은</w>
폭신 폭신
포장 은</w>
편 히
파세 여</w>
티셔츠 는</w>
티셔츠 가</w>
트 레이
터 라</w>
키작 녀
크 네요~</w>
칼 배송
칼 라</w>
친절 해서</w>
친구 랑</w>
출 산
추천 하고</w>
추천 드립니다</w>
추천 드려
초 등
참고 하세
착 샷
쫀쫀 하네요</w>
짧 습니다.</w>
짧 긴한데</w>
짜 증</w>
질 거</w>
좋 구여</w>
제 키가</w>
제 격
정 리</w>
점프 슈
전 까지</w>
적당 해요.</w>
있어요 ^^</w>
있 는데도</w>
잇 어</w>
입을수 가</w>
입어야 될
입어보 는데</w>
입어 두</w>
입기에 는
입겠 네요</w>
이유 를</w>
이에 요!!</w>
이쁩니다 ^^</w>
이쁨 니다</w>
이 하</w>
이 좀</w>
이 네요~</w>
을 텐데
요 런</w>
왼 쪽
옷걸 이에</w>
옷 들은</w>
옷 들</w>
예쁩니다 ~</w>
예쁘 구</w>
예뻐요 ~!</w>
예 요!</w>
여 유</w>
여 ~
엉망 이네요</w>
엄 지
얼굴 도</w>
어요 ....</w>
어깨 끈</w>
앞 쪽</w>
안나 와
아요 ~~</w>
싼값 에</w>
싸 서
신어 보고</w>
신 분들</w>
시원 할
시 는
스토 어
스크 래
스커트 나</w>
슈 퍼
수선 을</w>
소재 의</w>
소 라</w>
셔츠 도</w>
선 호
생일 선물로</w>
생각 외로</w>
생각 보
샀 지만</w>
살 구
산 거같아요</w>
사진과 같아요</w>
사진 하고
사이즌 데</w>
사 정
사 드렸
빳빳 해서</w>
빨라 요~</w>
불편 한데</w>
부 해보
부 턴</w>
부 자
봄 ,
별로 인
벌 룬
배송 느린
배송 겁나
발목 부분이</w>
발가락 이</w>
반품 하고싶
바랍 니다</w>
바 꿨
뭐 ..</w>
매치 해도</w>
맞 네요~</w>
많이 나요</w>
만족 !!</w>
만원 대
만 들어</w>
만 든</w>
마 침</w>
로 브
레이스 도</w>
똑 같아요
듯 ...
들었 어요.</w>
들어 간</w>
독특 한</w>
덕 에</w>
더 이뻐요</w>
더 더</w>
대 답
다릅 니다.</w>
다닐 것</w>
늦어 져서</w>
늘어날 것</w>
느린 편이
노 출
네요 ?</w>
나머 지</w>
나 아
길 긴</w>
긴 하
기저 귀</w>
기대 하고</w>
기다렸 지만</w>
기다렸 어요</w>
금액 이</w>
그런데 로</w>
그냥그래 요..</w>
그냥 그
굽 도
구매하고싶 어요</w>
괜찮 네용</w>
괜찮 네여</w>
공간 도</w>
갠차 나요</w>
개 봉
같 네요.
가디건 을</w>
가 도</w>
s b
e i
d u
? !</w>
5 8
2 8</w>
2 6</w>
18 1
17 1
17 0</w>
힘든 데</w>
후 크
헐렁 한</w>
허리 밴드
했는데 ..
해 준
해 봐야
핏 이네요</w>
편해요 !!</w>
패딩 이</w>
트임 도</w>
큰 듯</w>
쿠 폰
커 요...</w>
친구 들
치 렁
촤르 르
초 봄
초 반
체형 이</w>
찾 기</w>
참고 하시
짧아요 .
좋은 가격에</w>
좋으 네요~</w>
좋아 오</w>
좋겠 지만</w>
조심 해서</w>
조 음</w>
정 사이즈가</w>
적 혀
적 합
재질이 며</w>
잘어울 리는</w>
잘신을 게
잘못 된
잘 하면</w>
잘 라서</w>
자켓 은</w>
자 인
잊 고
입을수 록</w>
입으려 구</w>
입기 좋은
입기 는
입고 나갔
일 듯</w>
이에 요^^</w>
이리 저
이 신</w>
으 네요</w>
와이 프
옷이 든</w>
오른 쪽
오렌 지</w>
오 지
예쁘 네용</w>
예뻐요 ..</w>
예 뻣
옆 이</w>
연락 을</w>
여유 있고</w>
여리여리 해보이고</w>
었 네요</w>
어 딘
얇은 거</w>
안 합니다</w>
안 좋네요</w>
아요 ..</w>
선물해 줬는데</w>
생각 과</w>
상 상
샀는데 ..</w>
샀 던</w>
사진 으로
사 지</w>
사 길
분들 은
보통 이고</w>
보이 구요</w>
베이지 색이</w>
버클 이</w>
배송이 느려요</w>
받 을</w>
받 는</w>
반품 안하고</w>
반 바지</w>
반 바지
미끄 럽
뭐 랄까</w>
무료 배송에</w>
못입 지만</w>
못 해서</w>
맞 춰</w>
만족합니다 ~
마른 사람이</w>
마르 신</w>
딱 좋은</w>
딱 좋은
디자인 을</w>
듯 한
두 터
대 부분</w>
당황 스럽
당 연
다 이어
늘어 났
느낌이 네요.</w>
느낌 ...</w>
놔 서</w>
노 력
넓어 보이고</w>
냄새 도
내 리
낮 아서</w>
남 은</w>
낙낙 하니</w>
나 ,</w>
기장 이나</w>
기장 감도</w>
그대로 입니다.</w>
귀여 워요.</w>
군더더 기</w>
구입 할
구매했 고</w>
구매하 세요
구 경
구 ..</w>
괜찮 네요!</w>
겨 요</w>
검은 색도</w>
거같 습니다.</w>
거 라
같아 용
강추 합니다
강추 입니다</w>
간 만에</w>
가 려고</w>
가 능</w>
가 너무
m 으로</w>
f u
a l
20 18
2 1
158 인데</w>
👍🏻 👍🏻
행 사
해주셨 어요</w>
합니다 만</w>
한겨울 에는</w>
한 복
한 게
한 것
하늘 색
필 요</w>
프 라
평범 해요</w>
편이 긴</w>
펀 칭
퍼 플</w>
퍼 도</w>
패딩 조끼</w>
팔 길이</w>
탄탄 하게</w>
타이트 합니다</w>
키가 커서</w>
클 래
큰 듯
코디 하면</w>
캐주 얼</w>
충전 재
착용 감
짧 습니다</w>
지하상 가
중 입니다</w>
중 에
주름 이
좋아용 ~~</w>
좋아 하는
좋습니다 !!</w>
정도 네요</w>
전 에
적당 하구요</w>
저렴 해보여요</w>
장 바
잘못 하면</w>
잘 빠졌
잖 아요</w>
작을 까봐</w>
있어 야</w>
있는 거
있 네요...</w>
있 고,</w>
입을만 해요.</w>
입을 때마다</w>
입을 때
읽 어
일어 났
일어 나서</w>
인 지는</w>
이 럴
이 더
원피스 나</w>
우 연히</w>
요 새
와 인</w>
옷 .</w>
오리 털</w>
예쁘 지는</w>
연락 도
여자 가</w>
없어 지
어울릴 듯</w>
애 즈
않 네요..</w>
안되 네요</w>
안 쪽으로</w>
안 잠
아주 좋습니다</w>
아무 옷에나</w>
아 야
싼티 는</w>
싼티 남</w>
싶 은
신어 봤는데</w>
시원 하고
시 즌
스탈 이라</w>
스타일 의</w>
수 정
소재 예요</w>
세 트</w>
세 일</w>
섞 여
생기 네요</w>
생각 도</w>
색 별로</w>
샀 으니</w>
샀 는데도</w>
사은 품
사 게
뽀 송
빨리 왔어요</w>
빠른 배송도</w>
블라우스 에</w>
브라운 도</w>
뷔스 티에
부들부들 해요</w>
보이 는거</w>
별로 .</w>
베이지 에</w>
베이 직</w>
뱃 살이</w>
뱃 살</w>
배송 느리고</w>
발 송</w>
반짝 반짝</w>
문자 로</w>
무난 해요
무게 감은</w>
목 부분은</w>
모 셔
매일 매일</w>
많이파세요 ^^</w>
만족스러 워요.</w>
마 치</w>
립 니다.
뜯 자마자</w>
뜨 고</w>
떼 어
따뜻 한데</w>
디 만</w>
등 이</w>
들어 해서</w>
들어 오</w>
두꺼 움</w>
되어 있는데</w>
동일 하고</w>
돌 리
더군 요.</w>
단정 하고</w>
단 아
다니 기엔</w>
다 좋아요</w>
는데 ,
느 린</w>
노 랑</w>
너무 편해요</w>
나왔 으면</w>
나쁘지않 네요</w>
나가 면</w>
나 일
꿰 매
기다 렷
금액 에</w>
그런 게</w>
그럭저럭 ..</w>
그랬 네요</w>
귀여워 용</w>
굳 이</w>
구매했 다가</w>
구매하 는데</w>
구매 입니다</w>
교복 처럼</w>
괜찮 습니다.
괜차나 여</w>
고 급</w>
검정 이랑</w>
거같 네요.</w>
같 음.</w>
같 아서
가능 한</w>
가 랑
f h
dk dk
;; ;
7 6
3주 만에</w>
.. 좀</w>
.. 그래도</w>
- !</w>
활용 도
했 나봐요</w>
핸드 폰
핸드 메이드</w>
합 리
한치수 크게</w>
하 긴해요</w>
편하게 입을수
특이 한</w>
택 이</w>
타 사이트보다</w>
키높 이</w>
클로 슈
크 다는</w>
코트 나</w>
캐시미 어</w>
칠 부
추천 추천</w>
추 운데</w>
최악 입니다</w>
최고 의</w>
촌스러 운</w>
첨 부
채 우
짧은 감이
짧 고
지퍼 는</w>
지않 은
지 말
지 가
주문했 습니다.</w>
주문 후</w>
주문 하면</w>
좋은 지</w>
좋았을 것</w>
좋 긴
좀 ...
저렴 이</w>
잠그 면</w>
잠 바
잘입고 있습니다</w>
잘입 구
있는 편인데</w>
있는 건</w>
입기 전에</w>
인 대</w>
이해 가</w>
이상 해서</w>
이쁨 .</w>
이쁘 고,</w>
이버 요</w>
이 네여</w>
이 걸로</w>
음 요</w>
으신 분은</w>
으 며</w>
움 .</w>
요즘 날씨에</w>
요 오</w>
옷 장
옐로 우</w>
예 요.
었 지만</w>
없 으니</w>
엄청 커요</w>
어울려 요.</w>
어떨 지</w>
양말 도</w>
않아요 ..</w>
앉 으면</w>
안 이쁨</w>
안 에서</w>
안 됨</w>
아주 만족합니다</w>
아쉽 네요~</w>
아깝 네요</w>
실용 성
스 런
세 여</w>
생각 합니다.</w>
색상 보다</w>
삿 는데
살 빼고</w>
사진 처럼
사이즈 입는데</w>
사은 품도</w>
사람 들</w>
사 항
사 러</w>
뿌 려
빼고 는
빨라 서
붙 어</w>
분들 만</w>
부 해보이고</w>
보이 고
별로 인듯</w>
번 들
배송 빠름
배송 과</w>
받 으면</w>
바 래
밍 크
무난 한데</w>
무 척
못 함</w>
모 직
머스타 드
맞 아</w>
망설 이
많이파세요 ~~</w>
많이 가
많 았
만족 하며</w>
마른 편인데</w>
마르 고</w>
라인 에</w>
라 기</w>
뜯 겨
떨어 진
때 까지</w>
따뜻 해요!</w>
따 수
들어 갔
들 지</w>
되어 있는</w>
돼 요</w>
도 너무
도 .</w>
다른 거
다니다 가</w>
다 님</w>
다 길래</w>
니트 나</w>
니다 ~~</w>
늘어나 네요</w>
느림 .</w>
놀러 가서</w>
너무 조아요</w>
너 ~~
내려 오는</w>
남 아
나 는거</w>
끄 러
꺼 라</w>
길 고
기분 은</w>
기 에
글 을</w>
그저 그럼</w>
그런 듯</w>
그냥 그러네요</w>
그 때</w>
굿굿 굿
구요 ...
구멍 이
구매해 봤는데</w>
구매하 려구요</w>
괜찮아요 !!</w>
고급스러 운
경우 가</w>
겟 지만</w>
것같아요 ..</w>
것 으로</w>
거 짓
같 지는</w>
같 습니다!</w>
같 네요!</w>
감사합니다 ~~</w>
가볍 구</w>
가격만큼 해요</w>
가격 은
ᆢ ᆢ</w>
i t
c j
? 이</w>
6 4
5 천원
2018 .0
후 기대
회사 에</w>
화이트 에</w>
화사 해요</w>
허리 만</w>
햇 네요</w>
해외 배송
해보 여</w>
할듯 .</w>
할 려고</w>
한번 씩</w>
한데 ..</w>
하셔 도</w>
하세요 !</w>
풀 린
편해요 .
편하 기도</w>
페이 크
큰 게</w>
크로스 로</w>
퀼 리
퀄리티 면</w>
컬러 로</w>
추 울</w>
최고 입니다.</w>
총 장이</w>
천 이라</w>
찝 찝
찍 찍
쪼 여
쪼 끔</w>
짧 았으면</w>
지않 아요.</w>
주문했 어요~</w>
주문했 다가</w>
주 구
좋을 텐데</w>
좋아요좋아요좋아요좋아요 좋아요좋아요좋아요좋아요
좁 게</w>
조아조아조아조아 조아조아조아조아
조끼 는</w>
정말 이뻐요</w>
적당 하구</w>
저 기</w>
잠그 고</w>
잘입을 거</w>
잘 나왔
자 수도</w>
자 석
있 네요.
입을게 요^^</w>
입을 라고</w>
입으려 구요~</w>
입었 는데도</w>
입었 는데
입어보 니
입 진</w>
일주일 정도</w>
일주일 만에</w>
일 은</w>
이제 서야</w>
이쁘네요 !!</w>
이뻐요 !
이번 에는</w>
이 염
이 구</w>
이 고
의 문
을 것같아요</w>
위 치가</w>
워싱 이</w>
워 낙
운 전
요 ~!</w>
왔 습니다</w>
올 려서</w>
오버핏 에</w>
오래걸 리고</w>
오래 기다려서</w>
오 ~</w>
예쁩 니당
연락 이</w>
여유 롭
여리여리 해보여요</w>
여름 슬랙스
여 ...</w>
에 요..</w>
에 요!!</w>
엉망 이고</w>
엉덩이 도</w>
없 네요
어깨 깡패
안 아프고</w>
안 맞아서</w>
안 들어가
아닌가 요?</w>
아 들</w>
쌀쌀 할때</w>
실용 성</w>
실망 입니다.</w>
슬리 퍼</w>
스 포
송 장
손잡 이</w>
소 소</w>
세 로
색 입니다.</w>
새 로
상 이</w>
샀는데 ..
살 빼서</w>
사진이랑 은</w>
사용 할</w>
빨랏 어요</w>
비침 은</w>
브 라우
불편하 긴</w>
불량 으로</w>
부위 가</w>
부 지
봉 투
별로 네요..</w>
번거 롭
받았 고</w>
반 사이즈</w>
바이 오
민 감
무스 탕</w>
무게 감도</w>
목 은</w>
맡 기
맞 음</w>
만족스러 운
만족 핮
만원 짜리
리 오
롱 패딩</w>
롤 업
려 구요.</w>
레이어드 용으로</w>
뜯어 져서</w>
똑같 아서</w>
따 라
들어 여</w>
들 을</w>
두툼 한</w>
됬 는데</w>
더울 것</w>
대 신
단 품
다리 를</w>
다 더니</w>
다 는거</w>
늦어 졌
늘어나 면</w>
눈 에
높 고</w>
넘 예뻐요</w>
넓어 보여요</w>
너 므</w>
너 덜</w>
냄새 만</w>
냄새 나서</w>
남 자마
날짜 에</w>
날씨 에
나 요..</w>
나 눠
길 긴한데</w>
기본 적인</w>
기 만
그렇 네요.</w>
그닥 ..</w>
굵 어
구매 해야겠
구매 해야
교환 해서</w>
교환 하고</w>
교환 은</w>
괜춘 해요</w>
괜찮아요 ~
괜찮 네요..</w>
광 이</w>
고민 을</w>
겠 어요~</w>
걸린 듯</w>
걱정 햇는데</w>
거같 애
감사합니다 ~^^</w>
감사 드립니다</w>
가 로
가 득
가 는데</w>
w e
e n
M 으로</w>
27 -
105 사이즈</w>
1 도</w>
/ /
힙 이</w>
후기 를</w>
회 색이</w>
환불 도</w>
화 학
허리 부분</w>
했 는지</w>
해주 신
해 결
항 공
합 성
한 지</w>
한 여름</w>
하겠 지만</w>
하 거</w>
프리 사이즈</w>
푸 른
포인트 되고</w>
편 해여</w>
패턴 도</w>
파 인
튀 는</w>
택배 비</w>
태 가</w>
큰 것</w>
크 네요...</w>
퀄리티 에</w>
커 보여요</w>
친절하시 구</w>
친구 들도</w>
추천 !!</w>
차분 한</w>
짧아요 ...</w>
짧 지않고</w>
지 에</w>
줄 줄</w>
주문 폭
주 에</w>
좋 길래</w>
존 예</w>
조심 해야
정도 가</w>
전 환
저한테 도</w>
저렴해보이 지</w>
저 랑</w>
재질 입니다</w>
잘입을게 요^^</w>
잘받았 어여</w>
잘받았 습니당</w>
잘 모르겠
잘 되고</w>
자주 자주</w>
자 수</w>
잊 고</w>
있 네요..</w>
있 길래</w>
입을수있을 것같아요</w>
입을게 요!</w>
입을 듯
입어보 지</w>
입기 좋을
입게 되네요</w>
일 트
이에 요~~</w>
이쁜 데..</w>
이쁜 것같아요</w>
이뻐 욤</w>
이것 만
이 네요.
워싱 9부</w>
워 싱</w>
운동화 는</w>
옷 이라고</w>
옷 과</w>
옴 .</w>
예쁘고 편하고조아요</w>
열 어
연 하고</w>
여행 때</w>
여성스러 워</w>
어울리 는
어 무</w>
앗 어요</w>
암 튼
않았 어요.</w>
않 아서
안 이쁘네요</w>
안 감이
아쉬웠 지만</w>
아무 대나</w>
싼 가격에
싸게 잘샀어요</w>
신랑 도</w>
슬 립
수선 비
수 잇
수 령
수 가
손 빨래</w>
손 목</w>
소매 를</w>
소매 랑</w>
선택 했는데</w>
선물 로
색깔 이랑</w>
색 입니다</w>
사진 으로는</w>
사장님 이</w>
사고싶 어서</w>
사 탕
사 러올
빠 지는</w>
비치 는
비싸 서</w>
비 닐</w>
브라운 이</w>
불편하 네요.</w>
부드러 워요.</w>
봄 에도</w>
보온성 도</w>
보내 준
벨트 는</w>
벙벙 한</w>
번거로 워</w>
버 림</w>
백화점 에서</w>
배 색
방 법
발가 락</w>
받았 을</w>
받아보 았
받아 보면</w>
바이오 워싱9부</w>
문의 하니</w>
무릎 까지</w>
매우 매우</w>
매 면</w>
맞 을</w>
맘에 듬
많이 파
만족 해용
만원 에</w>
마 찬
마 실
루즈 한
려 구</w>
뜨 는</w>
똑같 습니다</w>
딱이 네요.</w>
디자인 이며</w>
들어 하네요</w>
들 여
들 구요</w>
드렸 더니</w>
두개 째</w>
되었 어요</w>
동 안
돌 렸
돌 려
다른 것도</w>
다녀 서</w>
니까 요</w>
늦 을
늦 었는데</w>
느렸 구요</w>
놓 은</w>
놓 고
네이 버</w>
너무 크네요</w>
남자마 바지</w>
남 아서</w>
나가 는</w>
나가 기</w>
나 ?</w>
길이 에</w>
기저귀 가방
기다리 다가</w>
기 존</w>
그레 이랑</w>
그대로 입니다</w>
그냥 ..
굿 입니다.</w>
구매했 지만</w>
구매하 였는데</w>
구매하 려고</w>
구매 하는</w>
구겨 져
곳 은</w>
골 덴
겨울 은</w>
겠 습니다
겁 니다</w>
걸어 놨
걸렸 습니다</w>
걱정 이
거같아요 ..</w>
거같아요 !!</w>
거같 기도
갠 적으로</w>
강추 합니다.</w>
강추 강추</w>
강추 !!</w>
감사 드려요</w>
가슴 쪽이</w>
w k
f o
e o
d t
2 번
163 에</w>
15 7
... 그래도</w>
흰 티
휴 대
후기대 로</w>
확인 을</w>
해주 시면</w>
할 걸</w>
한번 입었는데</w>
한마 디
한 벌
한 건지</w>
하셨 어요</w>
하나 쯤</w>
하고 ...</w>
프린팅 이</w>
폴라 니트</w>
평 을</w>
편안 하네요</w>
편 할것</w>
편 할</w>
팔 아주
판매자 가</w>
틀 려
택배 사</w>
크게 나왔
크 신분들은</w>
크 네여</w>
쿠션 이</w>
코 팅
춥 고</w>
추천 해요~</w>
최 대한</w>
초록 색</w>
초 에</w>
참고 해서</w>
짧은 듯
짧은 것</w>
짧 네요..</w>
지퍼 를</w>
지않 는
지만 .
주구 장
좋은 제품
좋은 데..</w>
좋 내요</w>
좀 크네요</w>
조 여서</w>
졌 어요.</w>
정말 로</w>
정 상
전화 도</w>
적 어
저 랑은</w>
잘 입을</w>
잘 삿어요</w>
잘 되어
잘 늘어나고</w>
작 긴한데</w>
자 칫</w>
자 신
자 국</w>
있었 는데
있어요 ~
있는 것</w>
있 던
입으 실</w>
입고 다녔
입 장
일 찍
이쁘네요 ..
이래 저
이라 그런지</w>
이 젠</w>
이 이
이 래서</w>
이 든</w>
이 구요.</w>
원플 원
외 투</w>
옷이 네요.</w>
오버 핏은</w>
오버 사이즈
오리 털이</w>
오 .</w>
예쁘 다는</w>
여리여리 하고</w>
에 다가</w>
없 을듯</w>
어울릴 거</w>
어울 립니다</w>
어마 어마
어깨 랑</w>
알 맞게</w>
않은 것</w>
안샀 을
안 오
아무 옷이나</w>
아니 네요
아 예
아 리
쓸 게요</w>
싼티 가
싶 습니다</w>
심 플</w>
심 이</w>
신으 려구요</w>
신발 에</w>
신 기에</w>
시간 도</w>
스크 레
수선 해야
쇼핑몰 보다</w>
손편 지도</w>
생겼 어요</w>
상 표
상 자
살 집이</w>
산 게</w>
사진 에서
사이 로</w>
사 게</w>
빼 야
빼 면
블랙 에</w>
분 께</w>
부분 이랑</w>
부드러 워</w>
부드러 운데</w>
보기 에는</w>
보 시고</w>
보 송
백화 점</w>
배송비 가</w>
배송 만
발견 해서</w>
받앗 습니다</w>
받아 봤
미 안
무엇 보다도</w>
못 하네요</w>
몰 라
모습 이</w>
면 티</w>
멋스러 워요</w>
멋 스럽게</w>
매 기</w>
망 사
말 을</w>
만족스러 워서</w>
루즈 해서</w>
려 나</w>
레깅스 를</w>
런 히</w>
뚫 려
따 스
디 쟈
들었 습니다.</w>
들어요 ~^^</w>
두 장</w>
될 꺼같아요</w>
되었 네요</w>
돌아 가
돌 돌
도 착</w>
더울 듯</w>
더라 구
더 욱
당일 배송
달려 있어서</w>
다 며</w>
다 녓
니다 ~
늦게 왔어요</w>
늦 으면</w>
늦 어도</w>
는거 라</w>
느렸 음</w>
느려 도</w>
느낌 도
누 구
넣 을</w>
넓 은데</w>
내 피
날씬 해보여서</w>
낙낙 하고</w>
나 구요</w>
나 갓
끼 네요</w>
끼 가</w>
꺼 같아요~</w>
깔끔 하지</w>
길이감 이나</w>
기장 이라</w>
기대 한</w>
기 만</w>
귀여 워서</w>
구매하 길</w>
구매 해</w>
관 계
곳 보다</w>
격 식
검정 색으로</w>
검은 색이라</w>
걸림 .</w>
같아요 !
같 았
갖 고
갔 는데</w>
감사합니다 !!</w>
감사 히</w>
가벼 운데</w>
가방 끈이</w>
가격 정도</w>
가 겨
❤️ ❤️
~ ♥</w>
w o
so so
^^ !</w>
S D
L 로</w>
4 월
3 6
2주 넘게</w>
22 5</w>
18 4
,.,. ,.,.
흰색 이랑</w>
흰 티에</w>
흡 사
흠 ...</w>
후 들
헐렁 해서</w>
향 이</w>
했 을</w>
했 습니다
해주 세요.</w>
해요 ~~
해야할 지</w>
함 께
한 두번
하는 건</w>
하는 거
하 더라구요
하 다고
핑크 랑</w>
프리미 엄
편 할거</w>
편 은
퍼 는</w>
팥 죽
트렌 치</w>
트레이 닝
튀 지</w>
터 지
클로 슈</w>
크 다고</w>
컬러 감도</w>
칼라 가</w>
최 근
총알 배송</w>
체 인
처음 이라</w>
참고 하시고</w>
찮 아요</w>
착화 감
질 감</w>
진 행
직 장
지퍼 부분이</w>
지만 ,
줫 는데</w>
중 입니다.</w>
좋은 옷</w>
좋아요 ~~~
좋 다고
좋 네여
제 질은</w>
정사이즈 네요</w>
저렴 한거</w>
재 고</w>
잘입을 수있을
잘쓸 께요</w>
잘 입어요</w>
잘 입어
작 으면</w>
작 다는</w>
작 다고</w>
있었 네요</w>
입을수 있어서</w>
입을수 잇을
입을만 은</w>
입을게 용</w>
입어야 겟어요</w>
입기 엔
입 힐
임 ...</w>
일반 적인</w>
인 해</w>
인 정
이쁘 네여
이쁘 네
이뻐요 ...</w>
이 어</w>
이 만한</w>
으면 서도</w>
으 셨
울퉁불 퉁
우 유
요 거
왔 다
옷 자체
옷 이에요.</w>
오프 숄더
오염 이</w>
오래걸렸 네요</w>
예쁠 듯</w>
예쁘 네요.
열 고</w>
여유 있
여성 스럽게</w>
여름슬랙스 남자마바지</w>
엠 사이즈</w>
없 어요~</w>
어 영</w>
얇 긴
야 들
않을 거</w>
안입어 봤는데</w>
아크 릴
아줌 마</w>
아주 이뻐요</w>
싼티 안나
싸 이트
싸 보여요</w>
실제 는</w>
실밥 처리
실 루
시켰 다가</w>
시 길</w>
습니다 만</w>
수납 공간</w>
손 가
소재 를</w>
생각 하는</w>
상품 이라</w>
샀 어요.
사진 에는</w>
사진 도</w>
사진 같은</w>
사 세요.</w>
빨리 오고</w>
빈티 지</w>
비싸 네요</w>
블랙 도
붙 지도</w>
분홍 색</w>
봐 요.</w>
봄 여름
봄 .
보내 신
보기 싫
별 론데</w>
벗겨 지
벗 기</w>
배송이 빨라요</w>
배송빠르 구요</w>
반품 비가</w>
바스 락</w>
바 쳐
바 늘
무겁 지</w>
무 리가</w>
모델 언니</w>
머리 카
맞아요 !</w>
맘에들어요 ~
말 도
말 까
만족스럽 고</w>
만원 대</w>
마 트
림 .</w>
똑 같은거</w>
딱맞 는
딱 인듯</w>
따가 워요</w>
따 시
듯 하고</w>
들 러
드 는
두꺼 웠
돌 리면</w>
도톰 하네요</w>
도 아니고</w>
데 이트
당황 했어요</w>
단추 부분이</w>
다음 부터는</w>
다운 된</w>
다니 려고</w>
다니 기
니트 안에</w>
늦은 거</w>
늦게 와서</w>
는데 .
느리 구요</w>
느려 요..</w>
놀 라
네요 ;</w>
넓은 편이라</w>
넉넉 합니다</w>
너무 좋아요
너무 많이
내 일</w>
내 내
남친 이</w>
날씨 에도</w>
날씨 에는</w>
낙낙 한</w>
나온 거같아요</w>
나오 지</w>
나가 고</w>
께 용</w>
께 요^^</w>
길이 만</w>
길었 으면
길어 보이
긴 편인데</w>
기존 에</w>
기대 보단</w>
기다 림</w>
그러 네요.</w>
그랬 지만</w>
그랬 나봐요</w>
그냥 ...</w>
귀엽 게</w>
구입 햇는데</w>
구요 !!</w>
구매하 세요.</w>
구매 안
구 ,</w>
괜찮 습니당</w>
관 리</w>
고급져 보이고</w>
겠죠 .</w>
검정 이라</w>
걸렸 네요.</w>
걷 어
건지 ...</w>
걱정 이</w>
개인 적인</w>
개 안
갔 다
감사 해요~</w>
가디건 으로</w>
가격만큼 만</w>
가격 값</w>
가 끔
d s
^ ^^</w>
5 4
230 신는데</w>
105 입는데</w>
!@ $
흔 치
화이 팅</w>
화면 보다
화 가
했는데 ...
해요 ~^^</w>
함 에</w>
한 다면</w>
학 생</w>
하셔 요</w>
하기 에는</w>
하 단
프린트 가</w>
풍성 해서</w>
품 도
편해요 ~
패딩 은</w>
튼튼 한</w>
통통 한
터 질
태 슬
타 는</w>
코디 대로</w>
케 이
컬러 별로</w>
컬러 랑</w>
컬러 라</w>
컬러 감이</w>
커 요..
추운 날</w>
최악 이네요</w>
총 장
청바지 는</w>
짧은 거
짜임 도</w>
진 하네요</w>
진 작
지 말고</w>
지 로</w>
지 ...
좋아요~ !!</w>
좋아요 ,</w>
좋 다는</w>
좋 겟어요</w>
좀 커요</w>
조 만
정 싸이즈
정 돈</w>
재구매 합니다</w>
잡히 고</w>
잘입을께 요~~</w>
잘입을 것</w>
잘산 듯</w>
잘받았 습니다.
작 습니다</w>
자주 입을
자 기
있으 신분들은</w>
있었 어요.</w>
있 겠어요.</w>
잇 엇
잇 습니다</w>
입을만 해요
입을만 하네요</w>
입엇 을때</w>
입고 가
입 어요
입 는데도</w>
입 는데,</w>
일자 로</w>
인 내
이뻤 어요</w>
이거 만</w>
이가격 이면</w>
이 벤
이 니
원단 은
워 서
우 체
우 리
용 ..</w>
외출 용
옷 처럼</w>
올 리면</w>
오래걸렸 는데</w>
오 십
오 배송
오 랫
예쁘 긴
옆 트임
여리여리 해보이
엉덩이 는</w>
없 어요
얇아요 ..</w>
애매 함</w>
앞 쪽이</w>
앞 뒤
앗 지만</w>
않 고요</w>
아쉬 운데</w>
아니 니</w>
싼티 나는</w>
싸 다고</w>
실물 로</w>
실망 스럽네요</w>
신 을때</w>
시켰 어요</w>
수납 력
손 에</w>
세탁 소</w>
상 담</w>
삽 니다</w>
살 집
살 때</w>
사진상 으로</w>
사장님 도</w>
사이즈 와</w>
사이즈 만</w>
사은 품</w>
사 요</w>
빨 강</w>
빠른배송 과</w>
비 오는
붙 지</w>
불량 이
분위 기
부지 런히</w>
부 해보여
봄에 입기</w>
보일 수</w>
보여 요.
보내 세요</w>
보 니깐</w>
벨트 를</w>
백 팩</w>
반품 할려
반 해서</w>
바지 보다</w>
밑단 도</w>
뭔 지</w>
물 량
무게 는</w>
못 신
모르겠 고</w>
모든 게</w>
면 바지</w>
먹 고</w>
맘에 든
많이파세 용</w>
많이파세 요.</w>
많 아서
만족합니다 ..</w>
만족 하네요</w>
만족 은</w>
마른 사람
마 찰
려 다</w>
라고 해서</w>
라 니
똑같 구</w>
또 살
딱맞 는</w>
딱딱 한</w>
따뜻 하구요</w>
디테일 도</w>
들어 있어서</w>
들어 서
들고 다닐</w>
드 나</w>
두껍 지만</w>
될 거같
된 다는</w>
되 세요</w>
되 고
덩 치</w>
덥 네요</w>
다른 색상으로</w>
다 닌
늘 려
느렷 지만</w>
느렷 어요</w>
넘 어서</w>
넓 으신</w>
너무 이뻐용</w>
너무 예쁘고</w>
너무 나도</w>
냄새 는
냄새 나고</w>
내려 와서</w>
나오 는데</w>
깔 별로
길이 라</w>
긴 게</w>
글 자
그것 빼곤</w>
그것 만
그 정도는</w>
그 만
귀찬 아서</w>
귀여워 요~</w>
귀여워 요
굵 은
구매했는데 요</w>
구매했 었는데</w>
구매 한거</w>
구매 하시면</w>
교환 을</w>
괜찮 으면</w>
괜찮 네요~
괜찬 네요</w>
고민 하고</w>
고무줄 이라</w>
고급지 진</w>
경우 는</w>
겨울 이라</w>
게 여</w>
검정 색이</w>
걸렸 습니다.</w>
개 느림</w>
감사 요</w>
가격만큼 입니다</w>
가격 과</w>
가 즈
가 있어서</w>
가 아니라</w>
g k
f y
dj dj
c i
a s
^^ ♡</w>
:):) :):)
25 0</w>
2 -
18 5
17 5</w>
16 5</w>
- _
힘들 지만</w>
흐 믈
확 정
헐 렁</w>
핸드 폰</w>
해야되 나</w>
할듯 ..</w>
할 때도</w>
한 겨울</w>
하는 지</w>
하 지마
필 수</w>
플 랫
평상 시</w>
평 범</w>
편 한거</w>
페브리 즈</w>
팬 티
파 임이</w>
티 입고</w>
튀어 나와서</w>
택배 기사
키 작은
크 다</w>
크 네요..
치마 에
취소 하고</w>
출 발
추천 할
촌스러 운
초 가을
체 형</w>
쫀쫀 하고
쪼 금
쨍 하니</w>
짧 다는</w>
짧 다고</w>
집 앞
질 이나</w>
지도 않고
지 .</w>
중간 중간</w>
주 네요</w>
좋앗 을
좋고 .</w>
좋 더라구요</w>
조아요 ~</w>
조 회
조 심</w>
정장 에도</w>
전체적 으로는</w>
전 화</w>
저 희
잡 고</w>
잘입을 수</w>
잘입을 꺼같아요</w>
잘받았 습니다^^</w>
잘 가는</w>
잘 가
작 네요..</w>
자켓 이</w>
입을려 고요</w>
입을 땐</w>
입으려 고요.</w>
입었 어요~</w>
입고 도</w>
일 정
이에 요~
이었 으면</w>
이뻐용 ~</w>
이뻐요 !!!!</w>
이래저 래</w>
이라 ..</w>
이 도
음 에도</w>
은은 하니</w>
은 것</w>
움직 이
왠 만한</w>
올해 는</w>
온 거</w>
예쁜 거같아요</w>
예뻐요 ~~^^</w>
예뻐 여
연청 이</w>
었 고</w>
없는 것</w>
어울 립니다.</w>
어울 린
어둡 지만</w>
양 털
았 지만</w>
않았 고</w>
않 네요~</w>
안타 깝
안나 오고</w>
안 해서</w>
안 입게</w>
아침 저녁으로</w>
아이 는</w>
아쉽 네요
아닌 데도</w>
아 픔</w>
싶 네요~</w>
심 하지만</w>
신을 려고</w>
시키 고</w>
시원 하네요</w>
슬림 핏</w>
스타일 인데</w>
스퀘 어
속 에
세탁 시</w>
세일 할때</w>
선물 용
샤랄 라
색깔 로</w>
색 이에요.</w>
상품평 을</w>
상의 를</w>
샀 고</w>
살이 쪄서</w>
살 쪄서</w>
사이 에</w>
사은 품으로</w>
사용 하고</w>
사야 겠어요</w>
사세요 !</w>
사 용</w>
사 달라
빨랐 어요~</w>
빨간 색</w>
빤 딱
비닐 에</w>
분들 께</w>
부 피
봤 다면</w>
봤 는데
봄 ,</w>
보이 는게</w>
보 완
별루 입니다</w>
번창하세요 !</w>
번거로 워서</w>
번 쩍
버려 야
버 린
밸 트
배송 완료
배송 너무</w>
배 색</w>
발볼 은</w>
발 바닥이</w>
반품하기 귀찮아서</w>
박시 해요</w>
무게 감
무겁 지도</w>
무겁 긴</w>
못입겠 네요</w>
못 해요</w>
모르겠 어요.</w>
먼지 가
망설 였는데</w>
맘 이</w>
말 에</w>
말 리
많이 나서</w>
많 지만</w>
만족 하구요</w>
루즈핏 에</w>
로 만</w>
라 이트
라 룸
떨어 졌어요</w>
딱 인거</w>
따뜻 하구</w>
따듯 하게</w>
듯 하지만</w>
들었 습니다</w>
들 에</w>
든 지</w>
드 네요!</w>
두꺼 워요.</w>
두꺼 우
되 지만</w>
동일 해요</w>
돌 아서</w>
도 전
도 대체</w>
데 님</w>
더울 거</w>
더라 구여</w>
단추 로</w>
단 ,</w>
다른 듯</w>
다르 네요..</w>
다 자인
네 오
넣 는</w>
넓은 편인데</w>
넉 넉</w>
너 뮤</w>
날씨 엔</w>
나이 들어
나 을듯</w>
끝 까지</w>
깔끔 해요.</w>
길어 보여요</w>
기장 이랑</w>
기대 안하고</w>
기 억
글 이</w>
그래 요...</w>
규 요</w>
구매했 어요!</w>
구매 합니다.</w>
교환 이</w>
괜찮 으나</w>
괜찮 게</w>
골 지</w>
고민 없이</w>
고급져 보여요</w>
건 지는</w>
갖 춰
감사 드립니다.</w>
가을 용
가깝 네요</w>
w i
c h
a sd
S 사이즈</w>
5 6
5 3
3 번째</w>
3 73
123 456
100 입는데</w>
100 %
10 일만에</w>
.. 너무</w>
흠 ..
화장 품</w>
화사 해서</w>
했 더니
햇 더니</w>
할 듯해요</w>
하늘하늘 하고</w>
하늘 색</w>
하나 로</w>
하고 도</w>
하 자마자</w>
핏이 라서</w>
피 치
프 리</w>
푹신 푹신
편 함
펴 지
퍼 지는</w>
퍼 져서</w>
팔 쪽이</w>
판 매</w>
트렌치 코트</w>
통 굽
텀 블
탓 이
탈 취
키 큰</w>
클래 식
큰 편인데</w>
크 네요.
큐 빅
추천 해요.</w>
추천 요</w>
총알 배송
초이 스</w>
초이 스
차이 는</w>
짱짱 하게</w>
짧아요 ~</w>
집 어
집 앞</w>
짐 도</w>
진 않았지만</w>
지인 이</w>
중요 한</w>
줄 알고</w>
주 는
좋은 데요</w>
좋앗 어요</w>
좋아 욤</w>
좋네요 ~~~</w>
좋 앙
좁 아</w>
조으 네요</w>
조 항
제 법</w>
정도 입니다.</w>
적 인
장바 구니
잘입었 습니다</w>
잘 했네요</w>
작 습니다.</w>
자켓 을</w>
입을만 합니다.</w>
입어야 겟
입고 지연
입고 다녀요</w>
입고 가</w>
인줄 알았
이쁘네요 ~^^</w>
이쁘고 좋아요</w>
이쁘 지도</w>
이미 지</w>
응 대</w>
으 려고</w>
유행 이라</w>
우 와</w>
완전 만족
옷 중에</w>
올 께요</w>
오트 밀</w>
오버핏 인데</w>
오버 사이즈</w>
오 니</w>
여성 여성</w>
여름 용으로</w>
없 지않아
없 는거
어 이가</w>
얇은 감이</w>
얇 지않아서</w>
야 해서</w>
않 으면서</w>
않 아도</w>
안나오 지만</w>
안나 옴</w>
안나 네요</w>
안 했지만</w>
안 하시
안 하면</w>
아쉬워 요~</w>
싼 만큼</w>
싶 지</w>
심플 하게</w>
실제로 보니</w>
신을 만
신 은</w>
식 초
스러 워요</w>
스 로</w>
스 가</w>
숄 더</w>
솔직 한</w>
소재 입니다</w>
소재 랑</w>
소매 가
셔 야할
셋 트
선택 을</w>
생각 을</w>
색상 이고</w>
상품 인데</w>
사용 하기</w>
사람 들도</w>
사 계절</w>
뻣뻣 해요</w>
빨랐 으면</w>
빨랐 는데</w>
빠르 면</w>
빛 도는</w>
빈티지 한</w>
비슷 한거</w>
불량 이라</w>
분 리
봤 을때는</w>
봤 으면</w>
보여 요..</w>
보여 서
보 기에</w>
번창 하시고</w>
버건 디
배송이너무 느려요</w>
배송은 좀
배송도빠르고 좋아요</w>
배송도 빠르
배 달
방 금</w>
받아보 니
반팔 에</w>
바닥 도</w>
밑 창</w>
밑 위</w>
미 세
물어 보
문의 도</w>
못 한</w>
몸 통이</w>
몸 에
몸 뚱
모르 지만</w>
맞 지</w>
맞 아
말 할
많 던데</w>
만족합니다 ~!</w>
만족 함
만 조
마찬 가지
마음에 듭니다.</w>
마니 파세요
마 음</w>
립 스
러 플
라 룸</w>
뚱뚱 해보임</w>
듯 해여</w>
들어가 있어서</w>
들 처럼</w>
뒷꿈 치
뒤꿈 치
두꺼운 거</w>
두 었
되 니까</w>
도 많이
데일리 용으로</w>
더워지 기전에</w>
대 해</w>
대 처
당 일</w>
다행 이네요</w>
늦 긴했지만</w>
늘 씬
느린 데</w>
눌 러
놔 도</w>
놀 랫
네용 ~~</w>
네요 !
넣어 입으면</w>
넣 는
넓 게</w>
널 어
냄새가 너무
내년 에도</w>
내 요.</w>
낮 에</w>
남방 에</w>
남 고</w>
날 이
날 은</w>
나쁘지않 음</w>
나가 보진</w>
나 들이</w>
나 네요..</w>
김 에</w>
길이 와</w>
긴 편이라</w>
금 액</w>
그거 빼고는</w>
그 가격에</w>
귀찮 아
귀엽 고
구입 후</w>
구입 해
구요 ~~
구매 해야겠어요</w>
구매 시</w>
구 깃
교환 하느라</w>
괜 히
과 하게</w>
공 장에서</w>
고 장
게 요^^</w>
것같 애요</w>
걸 리네요</w>
거 뜬
같아요 ,</w>
감사 해용</w>
간절기 때</w>
간 지</w>
가죽 냄새가</w>
가격 만
~ !!!</w>
x k
so so</w>
s u
G oo
44 사이즈
3일 만에</w>
20 일</w>
18 0</w>
170 에</w>
164 인데</w>
/ /</w>
... ^^</w>
흘러 내려
휴 양
확인 도</w>
홈웨어 로</w>
헐 떡
햐 요</w>
했 어도</w>
했 나
해주셨 으면</w>
해 질
할 정도로</w>
한 느낌이
한 거같
하시는 분들</w>
하나 에</w>
하 여
하 실</w>
품 이나</w>
품 을</w>
풀 고</w>
평 타
편하게 입기</w>
편하 지만</w>
편안 합니다</w>
퍼 지
팔 기장이</w>
파우치 도</w>
파스텔 톤
티 나
튼튼 해서</w>
트 위
튀 지않고</w>
통 화
털빠짐 도</w>
탈부 착
탄탄 해요</w>
킬 로</w>
쿠션 감이</w>
컬러 감
컬 리
추천 해요
최고 예요</w>
초 가을에</w>
체형 커버
처음 으로</w>
찾 다</w>
찢어 져
쪼 아요</w>
쨋 든</w>
짧 게
짙 은
지만 요</w>
지 난</w>
즐 겨</w>
중 청</w>
줄 알앗는데</w>
주문 하니</w>
주문 이</w>
주구장 창</w>
좋을 것같네요</w>
좋았을 듯</w>
좋아요 !!!!</w>
좋겠 습니다</w>
좁 네요</w>
조 합
조 이는</w>
정도 예요</w>
정도 ..</w>
전체적 으로
쟁 이
잘입을께 용</w>
잘입을 듯</w>
잘못 이
잘 한</w>
잘 구매한
잔 뜩</w>
작아 보이고</w>
있으 신분은</w>
있어 여</w>
있는 듯</w>
있 겠지만</w>
입을만 한
입을만 은
입을게 요~~</w>
입고 있
입겠 습니다~</w>
일어 나요</w>
일 거</w>
인디 핑크</w>
인데 ...</w>
이제 는</w>
이쁘 진않
이쁘 구
이쁘 고요</w>
이뻐용 ~~</w>
이뻐용 ^^</w>
이뻐용 !!</w>
이뻐요 오오</w>
이뻐 보이
이리저 리</w>
이 바지는</w>
이 고,</w>
응대 해주셔서</w>
읍 니다</w>
유 의
유 연
욕 심
외출 할때</w>
외 에</w>
왔 음</w>
완전 맘에들어요</w>
완전 만족</w>
올 릴
오픈 해서</w>
오 브
예쁘 고요</w>
옆 트임이</w>
여자 친구가</w>
에 이라인
엉덩 이랑</w>
었 을때</w>
없 어도</w>
언 젠
어쩔수 없이</w>
어 좁
어 욤</w>
야 지</w>
앞 쪽
알았 으면</w>
앉 아
안되 요</w>
안나 지만</w>
안 내</w>
안 감은</w>
아이보리 색이</w>
아무 거나</w>
아 는</w>
쏘쏘 합니다</w>
싼 거</w>
심각 하게</w>
실망 ..</w>
실 때</w>
신을 것</w>
신경써 주셔서</w>
시원 하게
시 원</w>
시 기에</w>
스트 레
스타일 이라서</w>
스커트 가</w>
솔직 히
손편 지</w>
소재 고</w>
세탁 했더니</w>
세 가지</w>
석유 냄새
샤 방
생각한거 보다</w>
생각보다 별로</w>
색감 과</w>
색 만</w>
상품 도
사진 에서는</w>
사야 겠
뻔 했어요</w>
빠른 편이고</w>
비싸 게
붙 네요</w>
불편 한거</w>
불 면</w>
부츠 가</w>
부드럽 진</w>
봣 지만</w>
봄 이라</w>
봄 에는</w>
보통보통 보통보통
보들보들 해서</w>
보 임.</w>
별로 라</w>
반 송
바지 와</w>
바지 에
바지 라서</w>
밑 에가</w>
미 듐</w>
뭐 ...</w>
문 에</w>
묶 어
무게 도</w>
무거 워요.</w>
모델언니 처럼</w>
맛 은</w>
말라 야</w>
많이파세요 !</w>
만족스럽 습니다
만족스러워 요!</w>
만족 하지만</w>
루즈 하고</w>
루즈 핏은</w>
레터 링</w>
뜯어 질
떨어지 는게</w>
딱 붙
따뜻 함</w>
따뜻 할거</w>
따 끔
디자인 이에요</w>
디자인 이라서</w>
들어 갈</w>
들고다니 기
드 네요^^</w>
뒷꿈 치가</w>
두개 가</w>
됨 .</w>
될 꺼</w>
되었 습니다.</w>
도 톰</w>
데 서</w>
덥 지만</w>
대박 입니다</w>
답답 해요</w>
달라붙 어서</w>
달라 요..</w>
달 았
다리미 로</w>
다른 색상
다 려서</w>
님 이</w>
늘 어</w>
느린 거</w>
느리 고
느 립
느 꼈
놀랐 어요.</w>
노트 북
노란 색</w>
넘 는</w>
너무 하네요</w>
너무 좋아서</w>
너무 좋고</w>
너무 많이</w>
너~~ 무</w>
너 ~~~
너 ~
냄새가 좀
내구 성이</w>
낮 은
납 니다
날 거</w>
난 다는</w>
나시 입고</w>
나머 진</w>
나 ...</w>
껴 요</w>
깔끔 한
까 봐
기장 에</w>
기분 나
기대 없이</w>
기다린보람 이
기 네요.</w>
그랬 는데</w>
그냥그래 용</w>
구요 ,
구매 해요</w>
구두 가</w>
구 제
교환 요청
괜찮 긴</w>
고급스럽 지는</w>
고 좋아요</w>
겨울 이</w>
겨 우
겉 감이</w>
것 보다
걸 린</w>
거 려</w>
거 라서</w>
갠찬 아요</w>
감사 합니
갈 때도</w>
가방 에서</w>
가디건 도</w>
가 진</w>
가 에</w>
e u
c u
a k
a j
> .
7 2
5 0</w>
2 월
17 9
160 인</w>
1234 1234
1 4
... ?</w>
* ^^*</w>
!@$ #
👍 👍</w>
흰 티</w>
화이 팅
화면 에서
화려 하고</w>
헨 리
헐렁 해요</w>
허리 라인이</w>
허리 끈</w>
했는데 .</w>
했 어요~
했 다고</w>
해주시 구</w>
해야하나 ?</w>
한사이즈 크게
하지않 아</w>
하이웨 이
하시 는데</w>
하네요 ...
하고 요.</w>
하고 ...
하 체</w>
하 겠어요</w>
편하 구
편 해서
팍 팍
티셔츠 로</w>
티셔츠 랑</w>
티 나요</w>
튼튼 해요</w>
튼튼 하게</w>
특이 해요</w>
투 명
털날 림이</w>
택배 도</w>
타이트 하지만</w>
크 진</w>
컸 으면</w>
컬러 감</w>
커 보이는</w>
카키 색이</w>
친절 하세요</w>
춥 지</w>
추천 합니다.
추천 드립니다.</w>
찾 는
착용 시</w>
차 이나</w>
쪼 여요</w>
쨍 하고</w>
진 작</w>
지금 같은</w>
지 폐
지 ?</w>
주문했는데 도</w>
좋아용 ~</w>
좋아용 !!</w>
좋아 보이
좋습니다 아</w>
조아요 ^^</w>
조아 조아요</w>
제품 인데</w>
제 꺼
제 겐</w>
정사이즈 로
접 혀서</w>
적극추천 합니다
저 에게도</w>
저 녁</w>
재질 인데</w>
재 구매했는데</w>
잠 시</w>
잠 기
잘어울려 요.</w>
잘받았습니다 잘받았습니다
작은 감이</w>
있는 걸</w>
있 더라구요</w>
있 다는</w>
있 고요</w>
입을만 해요~</w>
입을 듯해요</w>
입어야할 거같아요</w>
입어야겠 어요~</w>
입어야 해서</w>
입 지도
입 어요..</w>
잃 어
일 이
이유 는</w>
이었 어요</w>
이쁠 듯해요</w>
이쁘 내요</w>
이뿌 다고</w>
이뿌 네용</w>
이뻐요 ~~~~</w>
이런 스타일</w>
이라 니</w>
이 다보니</w>
유 난
웬 만한</w>
원플러 스
원단 이나</w>
워 요
완 죤
옷 인
올 리고</w>
올 려</w>
오래 기다렸는데</w>
오 전에</w>
예쁩니다 ^^</w>
예쁘 네요~
예쁘 네요..</w>
예쁘 네여</w>
예민 한</w>
옆구 리</w>
연휴 가</w>
여행 용으로</w>
여 밈
에 스</w>
없었 어요</w>
어깨 선</w>
어깨 뽕이</w>
어깨 부분</w>
어 찌</w>
어 쩜</w>
어 오</w>
어 여~</w>
양말 에</w>
얇 습니다.</w>
앞 쪽에</w>
알 게
않 습니다.
안감 에</w>
안 맞고</w>
아침 에</w>
아쉬움 이
아무 때나</w>
아래 까지</w>
아니 예
아니 에요
아까 워요</w>
아 는
아 ..</w>
쓰 기
싼 가격
싶 어요~</w>
싶 네요
실밥 처리</w>
실망 했지만</w>
실망 이
신을 께요</w>
스판 기는</w>
스타일 이네요</w>
쉽 고</w>
수선 해서
소장 하고</w>
세 상</w>
생겨 요</w>
생각한거 랑</w>
생 활
생 길</w>
색상 의</w>
색깔 은
새 가</w>
상품평 처럼</w>
사진상 으로는</w>
사진그대로 입니다</w>
사 주
뿌 리고</w>
빨랏 구요</w>
빠지 는
빠지 긴</w>
빠 서</w>
비추 입니다.</w>
비싸 지만</w>
비슷 해서</w>
비 추천</w>
브라운 은</w>
뷔스 티
붙어 있어서</w>
불편함 은</w>
불편 할</w>
분 명
부담스러 울
봄 이
보통 이구요</w>
보인 다고</w>
보여 용</w>
보들보들 하니</w>
별로 ..
별 론
베이지 색도</w>
배송지연 으로</w>
배송도 느리고</w>
배송 짱
배 색이</w>
받쳐 입고</w>
받 혀
반 정도</w>
반 목
박 시</w>
바지 에요</w>
바지 네요</w>
바 뀐
밑단 에</w>
미스 로</w>
미디 움
미 친
뭐 라
뭍 어
문자 를</w>
목 선이</w>
모델언니 가</w>
멜 빵
메 이
먹 었
머 메이드
맵 시
매치 가</w>
맘에들어요 !!</w>
맘에드 는
많이 나네요</w>
많 아
만족만족 만족만족
만족 입니다!</w>
만족 ~</w>
만원 도</w>
마음에 들어요~</w>
마음 으로</w>
마 다
롱 스커트</w>
레터 링
레이스 는</w>
라 임
똑같 아여</w>
떨어 집니다.</w>
때 매</w>
딱 인</w>
따 시고</w>
듯 .
둘 째
두깨 도</w>
두개 를</w>
돈 주고</w>
데 미
덮 고</w>
덥 지도</w>
대박나 세요
당황 했는데</w>
당황 했
답답 한</w>
답 도</w>
담 날
단추 구멍</w>
다음 날
다른곳 에</w>
다른 옷
다 홍
다 라
다 ..</w>
니트 로</w>
니까 ?</w>
늘어 지는</w>
늘어 남
는 ...</w>
놓 으면</w>
네용 !</w>
네요^^ ;</w>
네요 ....
네여 ..
너무 작아요</w>
냄세 가</w>
남 색</w>
끼 우
끼 어서</w>
꾸 깃
께 요
깨끗 하고</w>
길이 감이
길 엇
길 어요~</w>
기장 은
기분 도</w>
기모 라서</w>
급 히</w>
그닥 ...</w>
그냥저냥 ..</w>
귀엽 습니다</w>
굵 어서</w>
구입 햇
구매했 어요~
구매하실 때</w>
구매 함</w>
구 리
괜찮았 어요.</w>
공 장
고민중 이에요</w>
고민 이</w>
고급스럽 네요</w>
고 리가</w>
고 는
겨울 까지</w>
것 과는</w>
겁 니다.</w>
검은 색은</w>
검은 색으로</w>
걸 으면</w>
건지 ..
거기 다</w>
거 친
같 습니다~</w>
같 고요</w>
강 아
가즈 아</w>
가을 이나</w>
가루 가</w>
가격도 저렴하고</w>
가격대비 굿</w>
가 오
~~~ !!</w>
x j
c t
^ *
8 부
7 9
7 0</w>
3 0</w>
27 사이즈</w>
26 -
240 으로</w>
2 번</w>
2 20
180 에</w>
15 6
123456 78
. 2
, ..</w>
힘들 었는데</w>
힘 있는</w>
흐 늘
휴가 때</w>
활용 하기</w>
화사 해</w>
했는데 ...</w>
해서 ..</w>
해 지고</w>
해 줬
해 볼
할 줄알았는데</w>
한데 ...</w>
한 칫
하실 때</w>
하신 분은</w>
하니 좋아요</w>
하게 도</w>
피 부</w>
피 드
포장 상태도</w>
펼 쳐
편하고 이뻐요</w>
편 합니다
펑퍼짐 한</w>
판매 하는</w>
판 단
틀 림</w>
튀어 나오
택 도</w>
타 서</w>
큽 니다
큰 편
큰 사이즈</w>
큰 데
코트 랑</w>
커 버</w>
카드 지갑
추천 입니다</w>
초 봄에</w>
초 봄까지</w>
쳐 도</w>
찾아 보다가</w>
착용 하고</w>
착용 전
차르 르
짱 입니다.</w>
짧 구요</w>
집에서 도</w>
짐 .</w>
진짜 진짜</w>
진않 았는데</w>
진 게</w>
지않 아서
지난 번에</w>
지 에서</w>
중국 산
주문 햇어요</w>
주문 해도</w>
주머니 는</w>
주 의</w>
죠 아요
좋았 겠지만</w>
좋습니다 ..</w>
조아요조아요 조아요
조 카
정확 한</w>
정 보
적 으로
적 립
적 고</w>
저렴한 만큼</w>
저렴 해도</w>
저렴 하지만</w>
재 구매할
잡혀 있어서</w>
잘못 와서</w>
잘 찍
잘 늘어날
자 르
있는 것도</w>
있 네요..
잇 엇는데</w>
입으 니까
입어야할 듯요</w>
입어야 죠</w>
입어 본
입니다 요</w>
입니다 !!!</w>
입는 다</w>
일 상
일 도</w>
인 치</w>
이쁨 요</w>
이쁘네요 ~~
이쁘 다는</w>
이뿌 네요~</w>
이뻐요 ~!</w>
이뻐요 ^^
이뻐 영</w>
이미지 와</w>
이너 는</w>
이거 랑</w>
이 후
이 신
이 바지</w>
이 걸
응대 도</w>
으 루</w>
유 광
위 치
위 로
원 하시면</w>
울 고</w>
요즘 같이</w>
요~ !!</w>
요 :)</w>
왜 이리</w>
와인 색
와 우
올라 오는</w>
올 이
오래걸 릴
오래걸 리네요</w>
예정 입니다.</w>
예쁠 거같아요</w>
예쁘 나</w>
예뻐요 !!!!</w>
예뻐요 !
여유 로
여 ^^</w>
여 !!</w>
에 이
에 다</w>
없 네요..</w>
어벙 벙</w>
얇은 건</w>
얇 습니다</w>
얇 기도</w>
애매 하긴</w>
암홀 이</w>
알 아서</w>
않은 데
앉았 다</w>
앉 을때</w>
안 할
안 좋은</w>
안 좋은
안 오고</w>
안 에도</w>
안 어울려서</w>
안 맞을
안 들어요</w>
안 드네요</w>
아직 입어보
아직 안
아이보리 라</w>
아요 ..
아쉽 긴하지만</w>
아닌 거같아요</w>
아니 예요.</w>
쓰 는</w>
쓰 네요</w>
쏙 들어요</w>
쌀쌀 해서</w>
싼 데</w>
실물 도</w>
실 제가</w>
시키 니</w>
시켰 는데
시 큼
슬림 해</w>
슬랙스 나</w>
슬 림</w>
스카 이
스 퇄
수제 화
수고 하세요.</w>
손글 씨
손 색
소매 길이가</w>
소라 색이</w>
소 개
세탁해 봐야</w>
세 번</w>
세 번
세 개</w>
설 마
서비스 도</w>
서 요</w>
생각했던 대로</w>
생각 입니다.</w>
상품 의</w>
상품 과</w>
삼 일
살 다</w>
사진 의</w>
사이즈 네요</w>
사려 다</w>
뿌 려서</w>
뻑뻑 해서</w>
빨라 요!</w>
빨라 여</w>
빠른배송 감사</w>
블랙 으로
블랙 보다</w>
브라운 으로</w>
부츠 는</w>
보통 인데</w>
보이 네요~</w>
보라 색이</w>
보 지</w>
별로에 요...</w>
별로 요</w>
베이지 색은</w>
버 튼</w>
백 을</w>
배송 받고</w>
배송 넘
배 를</w>
받았 는데
받아 보니까</w>
반신반 의</w>
박시 하네요</w>
바지 안에</w>
밑 이</w>
묻어 나
문의 를</w>
무배 에</w>
무난 하고
못입겠 지만</w>
못 했어요</w>
못 하지만</w>
못 입고
몸 통</w>
목도 리
모자 가</w>
모 임
모 노
머 메이드</w>
맨 날
매 치</w>
매 끄럽
맞 았어요</w>
망 에</w>
말 처럼</w>
많이 들어가고</w>
만족 도</w>
마니 마니
리본 으로</w>
리 얼</w>
럽 고</w>
락 스
뚱뚱 해보일
떼 고</w>
따뜻 하네요.</w>
디쟈 인
디자인 ,
뒤꿈 치</w>
뒀 어요</w>
두툼 해요</w>
두껍 지는</w>
동일 합니다</w>
동생 도</w>
동 전</w>
도 될
덥 지</w>
던 거
더라구요 ..
더 이쁜
대 단
당 황</w>
담 에
달라붙 고</w>
다닐 게요</w>
다니 면서</w>
다니 기도</w>
다 섯
다 구</w>
늘어나 는
늘어 지
늘 려서</w>
느렸 어요..</w>
느낌 나고</w>
누 락
놨 는데</w>
네용 .</w>
네용 ..</w>
너덜 너덜</w>
너~~~ 무</w>
난 다고</w>
나름 괜찮아요</w>
나 요?
나 여</w>
나 .</w>
꾸 준
꺼 칠
깨끗 한</w>
깨끗 하게</w>
깔끔 해요
까 바</w>
까 만</w>
까 끌</w>
깊 어서</w>
기준 으로</w>
기분 전환
기본 템</w>
기간 이</w>
근 대</w>
그저 그래요.</w>
그러 려니</w>
그 부분이</w>
그 만큼
그 때
귀여 움</w>
굿입니다 요</w>
굿 .</w>
군데 군데</w>
국 산
구입 하게</w>
구매확정 합니다</w>
구매했 습니다
구매할 때</w>
구매 는</w>
구 려요</w>
괜찮아 지
고급스럽 습니다</w>
계 열</w>
겠 다고</w>
겉 옷</w>
겉 옷
거같 긴한데</w>
개 나
같이 산</w>
같은 건</w>
가을 에나</w>
가디건 에</w>
가능 할</w>
가능 하고</w>
가격만큼 이
가격 만</w>
가격 도착
가 족
가 장
가 리고</w>
가 더
가 ..
~~ !!
s p
f l
@ @
?? ??</w>
> _
3 ~
2 번째
167 에</w>
164 에</w>
1+1 이라</w>
... 너무</w>
흰색 을</w>
흐 릿
흐 느
후회안 하실
후회 하지</w>
회 색은</w>
화장 실
화사 해보이고</w>
화면 상</w>
허리 부분
향 수
했 어요^^</w>
해야 할까
해 외</w>
한번 더</w>
한 텐</w>
한 다</w>
한 건
한 가
하체 비만
하의 에</w>
하얀 색이라</w>
하신 다면</w>
하늘하늘 하니</w>
하 던</w>
하 구요~</w>
핏 입니다</w>
핏 입니다.</w>
플리 츠</w>
플 러
포켓 이</w>
편하 고,</w>
편안 합니다.</w>
패딩 조끼
팔 목
팔 길이는</w>
파란 색</w>
특히 나</w>
트 여
테이 프
타이트 해요.</w>
큰 일
큰 걸</w>
코디 된
컬러 도
커버 되고</w>
칼 라는</w>
카키 랑</w>
친절 한
출근 할때</w>
추천 안함</w>
촌스러 워요</w>
청바지 가</w>
첨 에
챠 콜
찾 기가</w>
찍 은</w>
찍 었
쪽 도</w>
질 리
진짜 예뻐요</w>
지퍼 가
지워 지
지않 을까</w>
지않 을
지만 ~</w>
줘 요</w>
줘 도</w>
줄 일
주문 하시면</w>
좋을 거같
좋은데 ,</w>
좋은 거같
좋아용 ~
좋아용 !</w>
조심 해야</w>
조 아요.</w>
제 작</w>
제 꺼</w>
정말 예뻐요</w>
정도 에</w>
점 에</w>
적당 한데</w>
적당 한거</w>
저렴 이
쟁여 놓
잡아주 는
잡 아</w>
잘샀 어요~</w>
작은 편인데</w>
작은 편이라</w>
자켓 에</w>
있으 면
입을수 있겠어요</w>
입을게 여</w>
입을 꺼같아요</w>
입었 을땐</w>
입었 다가</w>
입어볼 게요</w>
입기 딱
입 력
일어 나고</w>
인 건지</w>
이에 요...</w>
이에 요..
이쁜데 ..
이뻐용 !</w>
이곳 저
이 즈
이 중
음 !</w>
은 좀
으면 ..</w>
웨 어</w>
원단 이랑</w>
용 용</w>
왔 을때</w>
왔 으면</w>
와이드 팬츠
와 도</w>
옷 같아요</w>
오피스 룩
오프 라인</w>
오 바
예상 했던</w>
예쁘 긴해요</w>
예뻐요 ~~~~</w>
였 어요.</w>
연 베이지</w>
여 전
에 요^^</w>
에 요.
없 고,</w>
엄청 난</w>
어찌 나</w>
어중간 해서</w>
어정쩡 하게</w>
어두 워요.</w>
어깨 쪽이</w>
어 케
어 쨌
어 져</w>
어 머니</w>
얇은 편이라</w>
알았 어요</w>
안 해요</w>
안 없어
안 가네요</w>
아저 씨
아니 라고</w>
아 녜
싸 보이는</w>
싸 니깐</w>
싶 어요
심 하네요.</w>
실제 론</w>
실밥 처리도</w>
실망 이에요</w>
신청 했는데</w>
신을 거</w>
신경 을</w>
신 는게</w>
신 고싶
슬렉 스</w>
스러 워
수 거
속 옷을</w>
소재 라
소라 색은</w>
소 한</w>
셔 링
세탁소 에</w>
세탁 한번
섞 인
서 좋아요</w>
서 인지</w>
생각햇던 것보다</w>
생각보다 ..</w>
색이 네요.</w>
색상이 며</w>
색상 이에요</w>
색상 만</w>
색깔 별로
상세 사이즈</w>
상관 없이</w>
상관 없
살 다
산 건데
사진 대로
사세 여</w>
사고싶 을
사 봤
사 려고
사 니</w>
뻔 했
빵 꾸
빳빳 하고</w>
빠른 편은</w>
빠 니까</w>
비추 에요</w>
비싸 고</w>
비교 적</w>
비 해서는</w>
블랙 ,</w>
불 만족
분 이
부해보이 네요</w>
부탁 드립니다.</w>
부 한</w>
부 산
본 거랑</w>
보통 체격
보통 .</w>
보여 요!</w>
보 지는</w>
보 았
벙벙 해서</w>
번갈 아가
배송비 도</w>
배송 문제
배송 ,</w>
받은 지</w>
받아 본
받고 나서</w>
반품 을</w>
반품 도
반 응
므 로</w>
문자 가</w>
무료배송 이라</w>
못 할
몰 라서</w>
목 부분이
모습 은</w>
명 절
먼 지는</w>
머스타 드</w>
맨투맨 에</w>
맞 네요
맛 이</w>
맘에 들고
말 랑</w>
많이 나고</w>
만족해요 !!</w>
만족스러워 요~</w>
만족 도가</w>
만 ..</w>
만 ,</w>
마른 편이라</w>
마르 신분들은</w>
르 는</w>
롱 코트</w>
런 닝
라인 이라</w>
뜨 는
똑같 습니다.</w>
떠 나서</w>
듯 한데</w>
듯 ~~</w>
들어 와서</w>
들어 오
들 고요</w>
드 레
뒤꿈 치가</w>
둘 레</w>
두번째 구매</w>
두껍 지않고</w>
두고 두고</w>
두 벌</w>
될 꺼
도 좋아요</w>
데 가</w>
대 칭
대 자
대 도</w>
달 려서</w>
다음 에는</w>
다음 번
다른곳 보다
다른 색깔도</w>
다른 사이트보다</w>
다른 분들은</w>
다른 게</w>
다닐 거</w>
다 ...</w>
다 .
니트 조끼
니트 입고</w>
니다 !!</w>
니 더</w>
늦어 지
늦 긴</w>
느껴 져요</w>
네요^^ ;;</w>
네요 ~~~
너무너무 너무너무
너무 이뻐서</w>
너무 예쁘네요</w>
너무 얇
냄새 나요</w>
낳 고</w>
낮 은</w>
남 색
날씬 해보
날씬 하고</w>
나왔 어요.</w>
나 라</w>
끼 는
끝 단
꾸 미
꺼 내</w>
까실 까실
길이가 좀
길이 를</w>
길 지는</w>
기대 이상</w>
기다린 보람이</w>
기다렸 다</w>
기 냥</w>
그린 색</w>
그랬 어요.</w>
그 래</w>
귀 욤
구입 .</w>
구매 해보
구매 입니다.</w>
구 분이</w>
괜찮 습니다~</w>
괜찮 네요.
골지 라</w>
고민 했었는데</w>
고급스러 움
결 론
겠 어요
겟 죠</w>
게 도</w>
것같 은데
것 처럼
걸치 기에</w>
걸린 것</w>
걸 을때마다</w>
걸 을</w>
걷 어서</w>
거 즈
거 린
같 네여</w>
같 기도하고</w>
감안 해서</w>
가려 주
가까 이
가격만큼 하는
가 게</w>
~~ ~!</w>
s 로</w>
s l
f n
e t
a g
>_ <</w>
245 신는데</w>
17 7</w>
* -
! ~</w>
힘 들고</w>
힘 들</w>
흰색 에</w>
휴 가</w>
효과 가</w>
혹시 나
형 식
헐 겁
허리 밴딩
허리 밴드가</w>
했 나봐
해주 네요</w>
해보이 지</w>
해 줘야
함 ...</w>
한철 입고</w>
한 장</w>
하 트
하 요</w>
하 였는데</w>
하 던데</w>
하 다보니</w>
하 내요</w>
하 구요.
핑크 색도</w>
필요 가</w>
품절 되서</w>
포장 을</w>
포 함
평 도</w>
편하 네용</w>
편하 긴해요</w>
편이 네요.</w>
편 인거</w>
펑퍼짐 해서</w>
펑퍼짐 하고</w>
팔꿈 치
팍 팍</w>
티 에요</w>
티 슈
튼 실
통 에</w>
털 도
터 틀
키크 신분들은</w>
크 신</w>
코디 하니</w>
커 프
캔 버스
추천 해요!</w>
추울 때는</w>
촌 스럽고</w>
쳐 박아
청 남방
첨 에는</w>
책 임
찾던 중</w>
찰랑 거리는</w>
찢어 진</w>
쭈 굴
쪽 이
짱짱 하네요</w>
짱 이네요</w>
짱 이
짧아요 ..
짧아 도</w>
짧 아여</w>
짜증 났
질 을</w>
진않 은데</w>
진 거</w>
지도 않
지금 입기에</w>
주위 에서</w>
주문했 습니다</w>
주문 하려
죵 ~♥</w>
죠 아
죠 ..</w>
좋을 것같
좋아용 ^^</w>
좋네요 ~~^^</w>
좋고 ~</w>
좋겠 어요~</w>
좋겠 는데</w>
족 합니다</w>
조아 조아</w>
조만 간</w>
제품이 죵~♥</w>
제 발</w>
정전 기
정리 해서</w>
정도 입니다</w>
전 부터</w>
저렴한 가격에
저 럭</w>
저 도
저 냥
재구매 입니다</w>
재 구매했어요.</w>
잘입을께 요
잘입을 듯
잘입으 께요</w>
잘입 어서</w>
잘산 듯
잘맞 아요.</w>
작은 것</w>
작 으신</w>
작 으신
자주 이용할
있 도록</w>
있 긴
있 고..</w>
잇 어서
입을수있을 거같아요</w>
입을 때는</w>
입을 까
입으려 구요
입으 셔야</w>
입어야할 지</w>
입어야할 것같아요</w>
입는 다고</w>
입겠 습니다
입 는거</w>
임산부 라</w>
임 신중
일어 나네요</w>
인데 .</w>
이쁜데 ...</w>
이뿌 고
이뻐요 ~~~
이빠 요</w>
이 ...
은 게</w>
웠 어요</w>
워싱 도</w>
용 ~~^^</w>
용 ~
요즘 입기</w>
요 일날</w>
와이프 가</w>
와 요.</w>
옷 핀
옷 재질도</w>
올 때</w>
오래걸 려</w>
오래걸 려
예쁘네요 !!</w>
예쁘 요</w>
예뽀 요</w>
영 ~</w>
연 보라</w>
에나 멜
에 뻐요</w>
어정쩡 하고</w>
어울리 네요.</w>
어울 림</w>
어 용~</w>
얇아요 ~</w>
애용 할
애매 합니다</w>
않 아여</w>
않 네요
안되 있어서</w>
안내 도</w>
안 펴
안 좋아서</w>
안 가서</w>
아주 만족스러운
아주만족스러운 제품이죵~♥</w>
아우터 로</w>
아쉬운 게</w>
아깝 고</w>
아 기</w>
아 ..
싼 거
싶었 지만</w>
싶 음</w>
싫어 하는데</w>
실밥 은</w>
신발 이라</w>
신경 이</w>
신 음</w>
신 다가</w>
시스루 라</w>
시보 리</w>
시 킨</w>
시 장
수 준</w>
소재 여서</w>
세탁 후에</w>
세탁 기
설 명</w>
샵 에서</w>
생각했던 것보다는</w>
색상 이뻐요</w>
색상 ,
색 으로
색 보다</w>
새 끼
상의 가</w>
샀는데 요</w>
샀 어요~
샀 던
사이즈가 좀
사용 하려고</w>
사세 용</w>
사 야</w>
사 셔도</w>
빨랐 어요
빨랐 구요.</w>
빠지 면</w>
빠른배송 좋아요</w>
빠르 네요~</w>
빠르 고요</w>
빈 다</w>
비칩 니다</w>
비치 지도</w>
비 쌈</w>
블루 가</w>
블랙 진
분 이라면</w>
부 해보여서</w>
봄 여름에</w>
보통 이에요~</w>
보이 는데
보이 네요..</w>
보이 네요
보들보들 한</w>
보 태
보 조
벨 벳</w>
벗 어
벌 써
버 킷
배송이 ..</w>
배송 정말
배송 오
배송 두
배송 되었
배송 느림
배 가
발 을</w>
발 바닥</w>
바 램
바 랜</w>
바 래요</w>
믿고 사는</w>
미 스</w>
뭐 가
묶 는</w>
묵 직
몸 을</w>
몇번 입으면</w>
메 리
멋 스럽네요</w>
머리카 락
맨발 로</w>
맘에드 네요.</w>
맘에 들었
말 대로</w>
많이 들</w>
만족스럽 진</w>
만족 하나</w>
만족 하고
마지 막</w>
마감 이
리오 더
루즈 핏이</w>
레이어드 해서
랑 같이
라 요</w>
뜯어 져
떨어 집니다</w>
딸 아이가</w>
딱맞 음</w>
딱 !!</w>
들어요 ..
득템 했
드 네요.
뒷 부분</w>
돌 렸는데</w>
도 좋고
도 드라
더라구요 ~
더 좋았을
단 점</w>
단 순
다림질 을</w>
다른 분들
다른 것</w>
다녀 야</w>
다녀 야
는 디</w>
느린 거
느낌 이에요
느낌 ..
누 렇
놨 어요</w>
놓 으니</w>
놀랐 네요</w>
네요 ~~^^</w>
네여 ^^</w>
네여 ...</w>
네 욤
너무 이쁩니다</w>
너무 예뻐서</w>
내려 와요</w>
남 아요</w>
날씬 하신
낙낙 해서</w>
나 긴하는데</w>
깜 놀</w>
깔 창</w>
까 진
깊 게</w>
기대 하지</w>
기대 만큼</w>
기다렸 다가</w>
그래 용</w>
그대로 인데</w>
그대로 이고</w>
그대로 구요</w>
그냥그래 요~</w>
그냥 .</w>
그 뤠
귀엽 구</w>
굽 에</w>
구입했 어요~</w>
구매했 더니</w>
구겨 져</w>
구 구
구 .</w>
괜찮아요 ~~~</w>
괜찮 음.</w>
고싶 네요</w>
고민하 다
고급스러 워서</w>
결 과</w>
게 요~~</w>
것도 아니고</w>
것같 기도
검은 색이</w>
검 수도</w>
거리 지</w>
개 시
같아요 ~!</w>
같 네용</w>
같 구요
같 고..</w>
감 동</w>
갈 때나</w>
각 각</w>
가성비 좋아요</w>
가려 주고</w>
가능 해요</w>
가능 할
가격대 로</w>
가 치
가 면서</w>
♡ ♡
s y
s v
r j
m 사이즈
e b
d m
c n
: :
4 개
4 4</w>
4 3
3 월</w>
3 번
2 틀
2 만원</w>
168 에</w>
16 8</w>
158 에</w>
1 32
1 3
/7 5</w>
!@$# !@$#
훌륭 해요</w>
훌륭 합니다</w>
후 질
후 기도</w>
화려 해서</w>
허벅지 랑</w>
허벅 지도</w>
허리 끈이</w>
했 지만,</w>
했 음
해주 신</w>
해주 면</w>
해주 는</w>
해요 ....</w>
해요 ...
함 도</w>
함 !</w>
할인 해서</w>
할 까봐</w>
한데 ..
한 것도</w>
하면 서
하나 쯤
하겠 네요</w>
하 하하</w>
하 심</w>
하 러
하 단</w>
하 객
핑크 에</w>
플리 츠
품질 에</w>
품절 로</w>
품 이랑</w>
풀 림</w>
풀 려</w>
폭 신</w>
포인트 라</w>
포근 하고</w>
평 균
편하 니</w>
퍼 요</w>
패 턴</w>
팔 통
팔 부분도</w>
통통 66
털날 림</w>
탐 내
타 사이트
타 사
크 구요</w>
코디 도</w>
커버 가</w>
캉 캉
칼발 이라</w>
칸 이</w>
치 게</w>
충전재 가</w>
추천 합니당
쵝 오</w>
최악 의</w>
초 가을까지</w>
체 격</w>
첫 날</w>
참 조
착한 가격</w>
차르 르</w>
찢어 졌
쨍 쨍
짜증 나
지하상가 에서</w>
지나 니</w>
줍 니다.</w>
줄 었
주 변</w>
주 말</w>
좋을 듯합니다</w>
좋아요좋아요 좋아요좋아요</w>
좋아 해서
좋 습니
좋 구요.
져 도</w>
제품 은
정도 라</w>
접 착
전 이라</w>
저렴 하니
저 의</w>
재질 이에요.</w>
장난아니 게</w>
장난 아님</w>
장난 아니네요</w>
장 점은</w>
장 마
잡 혀</w>
잠 바</w>
잘입을께 요!</w>
잘못 해서</w>
작게나온 듯</w>
작 년</w>
작 긴</w>
자주 입게
자 크</w>
자 면</w>
있었 고</w>
있어 보이고</w>
있는 줄</w>
입히 려고</w>
입을수 있겠
입을 까</w>
입은 것</w>
입으려고 샀는데</w>
입었 네요.</w>
입어 여</w>
입기 좋고</w>
입고 는</w>
일 듯
인줄 알고</w>
이쁜 옷
이뻐요 ,</w>
이라 기</w>
이너 웨어
이 신분들은</w>
이 뿜
이 모
이 렇
이 곳에서</w>
을 듯
은은 하게</w>
유난 히</w>
유 행</w>
원피스 와</w>
용 ~~~</w>
욜 에</w>
요 ....
외출 복
올리 브
오브 제
오버 핏도</w>
예상 은</w>
예쁘 다</w>
예쁘 네요..
옅 은</w>
옅 은
였 네요</w>
였 고</w>
열 리
여유롭 게</w>
여러가지 로</w>
여러 군데</w>
엉망 이라</w>
엉망 이
없을 것</w>
없는 듯</w>
없 으
없 고..</w>
엄청 나
언 발</w>
어찌 보면</w>
어중간 한</w>
어정쩡 해서</w>
어울 립
어용 !</w>
어깨 뽕
양말 신고
앞 뒤로</w>
않았 지만
않아요 !</w>
안되어 있고</w>
안 하는데</w>
안 어울리네요</w>
안 날
안 그래도</w>
아이템 으로</w>
아요 ~
아버 지</w>
아니었 지만</w>
아니 구요.</w>
아까 움</w>
아 아</w>
아 빠</w>
아 나
쓰레 기</w>
쓰 면</w>
써 주시고</w>
심 합니다</w>
실망 이</w>
실루 엣
신 상</w>
신 다보니</w>
신 게</w>
시원 합니다</w>
시 장에서</w>
시 길
스판 기가
스타일리 쉬</w>
스웨이드 라</w>
스럽 지</w>
수선 집
수선 비가</w>
솜 도</w>
소지 품</w>
소 소
소 가죽
세탁 을
설명 에</w>
서 그런지</w>
색깔 이나</w>
색깔 과</w>
색감 이뻐요</w>
상품평 대로</w>
샀 네요.</w>
산 지는</w>
사진 만</w>
사려 다가</w>
사람 만</w>
사 준
사 셔야
사 달라고</w>
사 과
뻔 했네요</w>
빨랐 구</w>
빠른배송 으로</w>
비즈 가</w>
비 비
부해보이 는
부분 까지</w>
부드럽 지</w>
부담 없고</w>
부 해요</w>
봉제 선이</w>
볼 이
본 드</w>
보통 임</w>
보내 서</w>
보 내</w>
별루 에
버튼 이</w>
버려 야</w>
버 전</w>
뱃살 도</w>
배송이 너무</w>
배송완전 느림</w>
배송 최악
배송 중
배송 늦
방 문
밝 게</w>
발 랄
받았 어요!</w>
받앗 는데</w>
받 기까지</w>
민트 색</w>
민 트</w>
미 다</w>
미 가</w>
물건 이
물 씬
물 빠진</w>
무게 감</w>
못 입는데</w>
몰 라</w>
모자 도</w>
모양 이나</w>
모르겠 음</w>
모르겠 네요.</w>
모르 게</w>
모델 같은</w>
면 ..</w>
멋 져요</w>
멀 리
맞는 듯</w>
말 은</w>
말 아
많이파세 여</w>
만족핮 니다</w>
만족 할
만만 하게</w>
만들어 주
만 보고</w>
마무리 도</w>
마 구</w>
린넨 소재라</w>
라 지가</w>
뜨 네요</w>
똑 같아요!</w>
땀 흡
땀 이</w>
딱맞 고
딱딱 하고</w>
딱 좋아요.</w>
따 땃
디쟌 도</w>
등 치
들 려고</w>
둥 글
둡 니다.</w>
두꺼 운데</w>
두 텁
될 정도로</w>
될 만큼</w>
된 다
되 네요~</w>
도 ..</w>
데일리 백</w>
데일리 룩
덮 는
담 아
달 랑</w>
달 랑
달 까
다행 이
니트 라서</w>
늦어진 다고</w>
늦어 질
늦는 다는</w>
늘어 짐이</w>
느리 네요.</w>
느려 요...</w>
느려 여</w>
눈 이</w>
누 르
넥 이</w>
너무 얇아요</w>
냄새가 나서</w>
났 네요</w>
남 성
날 라
나 을</w>
나 올</w>
나 무</w>
나 가</w>
꼼꼼 하고</w>
꼬매 서</w>
꺼 에요</w>
깔 금
긴 한대</w>
기장 감이</w>
기대했 나봐요</w>
기 두</w>
금 새</w>
근 처
그레이 색</w>
그렇 진</w>
그렇 구</w>
그럭저럭 이요</w>
그래 두
그대로 에요.</w>
그대로 라</w>
그냥 그렇네요</w>
그냥 ...
그 려
구입했 네요</w>
구매했 어요~~</w>
구매했 는데..</w>
구매하 세요~</w>
구겨 지는</w>
구겨 져서
구 림</w>
공 용
골 드</w>
고급지 고
고급스럽 고
고급스러워 보이고</w>
고 요,</w>
고 가</w>
결혼식 에</w>
결 제</w>
겨울 용</w>
겨울 동안</w>
것 이
걸리 긴</w>
걸 레
거같아요 ...</w>
거 에요.</w>
갠 츈
개인적 으로는</w>
같 지도</w>
같 어요</w>
강추 요</w>
값 에</w>
간절기 용으로</w>
가슴 쪽</w>
가방 은
가려 지
가디건 이나</w>
가격대비 에</w>
가격대비 괜찮아요</w>
가격 생각하면</w>
가 좀</w>
♥ ♥
s  
s g
o t
good good
cm 인데</w>
^ *</w>
L 사이즈
?? ?
95 ~
4 월</w>
2주 가</w>
240 인데</w>
2 장</w>
175 에</w>
11 월
100 ~
. 너무</w>
. ,</w>
흠 이
흘 러</w>
회 색으로</w>
환절 기
환불 하기</w>
화면 은</w>
혹 은</w>
허리 띠
허리 도
허 접</w>
했 어용</w>
했 나</w>
해야 지</w>
해야 겠네요</w>
해보여 요~</w>
해 봐야</w>
할 때는</w>
한칫 수</w>
한 다는</w>
한 느낌이</w>
한 국
학 교</w>
학 교
하시 네요.</w>
하시 기</w>
하늘하늘 한</w>
하네요 ~^^</w>
하나 도
하기 에도</w>
하 려</w>
하 네여
하 긴하네요</w>
핏 의</w>
핏 두</w>
풀 이</w>
포장 도
편안 해서</w>
편 했어요</w>
편 합니다.
편 .</w>
펑퍼 짐</w>
팔 이랑</w>
팔 부분은</w>
팔 부분
판매자분 께서</w>
파스 텔</w>
티셔츠 를</w>
튼튼 해</w>
토 끼
텐 데..</w>
테 두
터 지고</w>
택배 비
타이트 하네요.</w>
키 링
큼 .</w>
큰 편이
크로 스</w>
크 지않고</w>
크 네용</w>
코 발
컷 팅</w>
컬러 나</w>
커플 로
캐쥬 얼</w>
카키 로</w>
카키 는</w>
치마 바지</w>
추천 드립
추천 ~</w>
최 소</w>
최 근</w>
최 곱
체형 인데</w>
체형 이라</w>
체형 에</w>
채 도가</w>
찾 으시
착 장
착 오
차콜 은</w>
차분 하고</w>
차 가
쫄 바지
쪽 지
짜증 나서</w>
지퍼 부분</w>
지않 지만</w>
지 네요.</w>
좋은 편은</w>
좋은 거같아요
좋아요 !!
좋아 유</w>
좋네요 ~~
좋 지않
조 차</w>
조 직
제 거</w>
정사이즈 에요</w>
접 으면</w>
점프슈 트</w>
전화 를</w>
전 인데</w>
적극추천 해요</w>
저렴해보이 는</w>
저렴한 맛에</w>
저렴 한데
저 만
재질 입니다.</w>
재질 을</w>
잡 힌
잘한 거같아요</w>
잘입겠 습니다~</w>
잘입겠 습니다
잘입 겟
잘샀 어요
잘 랐
작년 에
작 았으면</w>
작 고
자켓 이랑</w>
자연 스럽고</w>
자수 는</w>
있을 지</w>
있으 신
있어 야
있 지만,</w>
있 구요.</w>
입을수 있어요</w>
입을라 구요</w>
입을 지</w>
입은 지</w>
입어야 될듯</w>
입고 있습니다</w>
입고 나면</w>
입 지못
일회 용</w>
일 트</w>
인터넷 쇼핑
인 거
이정도 는</w>
이쁘 지는</w>
이쁘 겠어요</w>
이벤 트
이런 식으로</w>
이 것</w>
으 요</w>
유니 클로
움직일 때</w>
우 글
용 으로는</w>
요 ,
왔 어요..</w>
왓 는데</w>
옷이 너무
옷은 예쁜데</w>
옷 입고</w>
옷 가게
오 후
오 우</w>
오 네요.</w>
예쁠 것같아요</w>
예쁜 데..</w>
예 요~~</w>
였 지만</w>
엿 는데</w>
연청 도</w>
여전 히</w>
여유 있어요</w>
엑스 라지</w>
에 요~
엉망 입니다</w>
없었 으면</w>
없 음
없 다</w>
없 다
없 네요.
얼굴 을</w>
얼 른
언제 나</w>
어요 ;;</w>
어딘 가</w>
어 쩐
어 쨋든</w>
양 심
얇 지는</w>
얇 구요</w>
앞 부분</w>
앙 증
알았 지만</w>
않 네요.
안타 고</w>
안정 적
안되 게</w>
안 하는
안 통
안 좋고</w>
안 올라
안 성
안 됐
안 돼서</w>
아니에 여</w>
아니 고,</w>
심 합니다.</w>
실수 로</w>
실 측</w>
실 에</w>
신축성 좋고</w>
신을 께
시원 해보여요</w>
시원 할</w>
시 는게</w>
스타일 입니다.</w>
스커트 에도</w>
쉬 폰</w>
수 있어요</w>
수 있어</w>
쇄 골
손글 씨</w>
손 세탁
소매 부분도</w>
셔츠 나</w>
성 능
선물 했어요</w>
선 도</w>
서비스 로</w>
서비스 가</w>
서 ...
생각했던거 랑은</w>
생 산
색 샀는데</w>
샀 다고</w>
살랑 살
살랑살 랑</w>
살 을
살 빼
살 게요</w>
산 듯</w>
산 것같아요</w>
삭 스
사진이랑 똑같아요</w>
사진그대로 예요</w>
사고싶 었
사 니까</w>
사 긴했는데</w>
사 긴</w>
빵빵 하고</w>
빨랐 어요!</w>
빨고 나니</w>
비춰 서</w>
비추 합니다</w>
비추 ..</w>
비교 해서</w>
블루 는</w>
블랙 ,
브이넥 이라</w>
불편하 긴한데</w>
부츠컷 이라</w>
부드럽 구</w>
봤 던
봄 되면</w>
보풀 만</w>
보통 이에요.</w>
보일 까</w>
보이 는거
보이 게
보 입니다.
보 더니</w>
별로예 요..</w>
별로 임
벨트 로</w>
베이지 인데</w>
벗 고</w>
버렸 네요</w>
배송 기간</w>
배 에</w>
배 려
배 도</w>
받은 거</w>
받아 서
받 자마자
반 나
박스 티
바이올 렛</w>
바닥 은</w>
바꿔 서</w>
바 스트
바 랜
밑위 길이가</w>
밑단 은</w>
밋밋 하지</w>
문의 했는데</w>
문의 에</w>
묶 어도</w>
무릎 도</w>
못 입었어요</w>
몸 통은</w>
목 을</w>
목 부분에</w>
모델 보다</w>
모노 타
모 를
면 으로</w>
멋스러 워
머 리</w>
매우 만족</w>
매 년</w>
맡 기고</w>
망설 이다</w>
맘에들 구</w>
말 았
많이 커요</w>
만족스럽 습니다.
만 하고</w>
마지 막
마감 이나</w>
마 시고</w>
롱 부츠</w>
로 즐
로 브</w>
렸 어요</w>
라 쿤</w>
뜯어 졌
뜯 어서</w>
똑같 음</w>
떨어지 지만</w>
딱딱 해요</w>
따뜻 하기도</w>
등 에</w>
드렸 어요</w>
드 는건</w>
뒤집 어
두꺼워 서
두깨 감이</w>
되 요.</w>
되 서
동일 합니다.</w>
도 록
더라구요 !</w>
더 더욱</w>
대만족 이에요</w>
대 에</w>
대 략</w>
대 가</w>
당 겨
달 아서</w>
단 체
단 가
다음 부턴</w>
다른데 는</w>
다른 곳</w>
다른 건
다르 긴</w>
는 ..</w>
느낌이 예요.</w>
느낌이 라서</w>
느껴 지네요</w>
느 므
누 런</w>
놓 았
놀랐 지만</w>
녹 색
네이비 색</w>
넓어 보이
넓 으면</w>
널널 해서</w>
넉넉 하진</w>
너무 좋습니다</w>
너무 늦게
너무 나
너무 길
너~ 무</w>
내 여</w>
남자 가</w>
난 방
나 중
나 는것</w>
깔끔 합니다.</w>
깔끔 하니
길 진</w>
길 어도</w>
긴 거
긴 가
기장 감</w>
기장 감
기본 적으로</w>
기대 만큼은</w>
기는 한데</w>
기 능
그저 그렇네요</w>
그런 대로
그러 니</w>
그나 마
그 럭</w>
그 라
굿 이
군 요.</w>
구입했 어요
구입 할</w>
구입 하였
구매했 네요.</w>
구매평 도</w>
구매평 대로</w>
구매 한거
구겨 지고</w>
괜찮을 듯
괜찮아요 ...</w>
괜찮 았는데</w>
괜찮 구요
괜찮 고,</w>
관계 로</w>
고민 중</w>
고무줄 도</w>
고급지 게</w>
고급져 보이
고 ~
경 비
결혼식 때</w>
겨울 용으로</w>
겠 음</w>
겠 다
게 는</w>
걸 리는</w>
걸 려요</w>
거려 요.</w>
거같 기도하고</w>
거 울
갠찮 고</w>
같은 거
값어 치
감사 해요^^</w>
감사 하
감 을</w>
갈 라
가격만큼 은</w>
가격대 로
가격 까지</w>
가 서
가 다
j  
e v
e h
d g
c y
b b
^^ ;;;</w>
9 5</w>
7 7</w>
66 사이즈인데</w>
55 -
50 50
26 ~
1주 일</w>
166 인데</w>
16 2</w>
100 %</w>
00 원</w>
.. ^^</w>
- -</w>
힘들 듯</w>
흠 이네요</w>
확인 후</w>
확 정</w>
혼 자</w>
허벅지 에</w>
허 허</w>
했 는대</w>
해주셨 고</w>
해야하나 ..</w>
해야 겟
해 져요</w>
해 선</w>
합성 피
함 을</w>
할수 있어서</w>
할듯 합니다</w>
할 인</w>
한철 용
한개 는</w>
한 감이</w>
하루 입고</w>
하 라
하 더니</w>
하 곤</w>
필요 없이</w>
플레 어</w>
프린 팅</w>
프 네요</w>
풀 려요</w>
편하 네요
퍼 져
패딩 을</w>
패 드</w>
팔 길이
판 에</w>
파 랑</w>
튀 어</w>
통풍 이</w>
텀블 러
털 어
탈취 제</w>
타 사이트에서</w>
큰 거같
큰 감이
쿠션 감도</w>
코 드
커 보여서</w>
친절 하셨
친구 에게</w>
취향 저
축 축
추천합니다 ^^</w>
추위 를</w>
최근 에</w>
촌스러 워
체크 가</w>
천 으로</w>
찾 기
창 피
찰 떡
차 게</w>
찢어 져</w>
찍 어서</w>
찌 그러
쫀쫀 한데</w>
짧 으면</w>
짐 ..</w>
질 에</w>
진짜 로</w>
직 구
지않 으면</w>
지금 입기는</w>
지갑 이</w>
줬 네요</w>
줍 니다</w>
줄 려고</w>
주변 에서도</w>
주문했 어요
주문폭 주
주문 한거
주머니 가
주 기
좋았을 걸</w>
좋았을 거같아요</w>
좋았 습니다
좋아요 굿굿</w>
좋아요 괜찮아요
좋아 라
좋고 ,
좋겠 습니다.</w>
좋 으면</w>
조하 요</w>
조아요 ~~
졋 어요</w>
제 값
정 사이즈는</w>
적 게</w>
재질이 지만</w>
재질 좋고</w>
재질 이예요</w>
재 주문
재 단
잘입을께 여</w>
잘입 구</w>
잘쓰 고
잘 모르겠어요</w>
잘 들고</w>
잘 되서</w>
작을 까</w>
작아요 ..</w>
작 성</w>
자 유
자 로</w>
있었 습니다.</w>
있는 분들은</w>
있 네용</w>
있 기는</w>
입으 세요
입어야겠 어요
입어야 함</w>
입어 본</w>
입고 나서</w>
일교 차</w>
일 것</w>
인지 라</w>
인 듯..</w>
익 숙
이틀 정도</w>
이뿌 요</w>
이뿌 네요
이뽀 여</w>
이뻐요이뻐요 이뻐요이뻐요
이뻐 염</w>
이라기 보단</w>
이라 지만</w>
이 제품은</w>
이 물
의 향
으나 ,</w>
위 에도</w>
운 동</w>
우 려
요 런
요 긴
요 ~~~
요 !!
왔 어요~</w>
왔 네요..</w>
완전 이쁘네요</w>
와이 셔츠</w>
올 드
올 게요</w>
오래 오래</w>
오 후에</w>
예상 보다</w>
예쁨 니다</w>
예쁜 것같아요</w>
예뿌 네요</w>
예뻐요 예뻐요</w>
예뻐요 ...</w>
예뻐요 ,</w>
예 용</w>
예 요~
예 요^^</w>
예 요..</w>
예 뿐
여성스러 워서</w>
여러 분</w>
에어 컨
에서 만</w>
에 휴</w>
었 습니다.</w>
업 체</w>
엄청 크네요</w>
엄마 랑</w>
어쩌 나
어중간 해요</w>
어울려 요~</w>
어마어마 하게</w>
어 우
어 머
어 마무
얇은 거
얇아 보이고</w>
얇 아여</w>
얇 네요.</w>
애매 합니다.</w>
앞 코</w>
않은 듯</w>
않았 습니다.</w>
않아요 ~
않 네요...</w>
안입어 봤지만</w>
안에 다</w>
안된 다
안 좋음</w>
안 아요</w>
안 들고</w>
아쉽 네여</w>
아쉬워 요
아쉬움 은</w>
아무 런</w>
아니 에요~</w>
아니 네요~</w>
아니 네요.
싼티 나서</w>
심 한데</w>
실밥 정리
실 들이</w>
신축성 은
신으 면
신었 어요</w>
신었 더니</w>
신랑 이
신 엇
시키 니까</w>
시 접
슬림 하고</w>
슬랙스 는</w>
슬 라
스 틸
수영 복
수술 이</w>
소재 특성상</w>
섹시 한</w>
세탁 해서
서 로</w>
생각 하시고</w>
생각 입니다</w>
생 일</w>
색이 면</w>
색깔 두</w>
상품 입니다</w>
상품 입니다.</w>
살짝 만</w>
살 거
산 건
사진상 으론</w>
사진 으론</w>
사진 에선</w>
사이 드
사무 실</w>
사 전에</w>
사 는거
빨리 왔고</w>
빨라 용</w>
빠르 구
빠 집니다</w>
비슷 하게</w>
비 슷</w>
블랙 만</w>
불편함 없이</w>
불 가능
분들 한테</w>
분들 에겐</w>
부해보이 긴</w>
부담스러 워서</w>
부 해보임</w>
봤 던</w>
볼 때
보온 성</w>
보는 그대로
벨트 도</w>
베이지 색이
벙벙 해요</w>
번 호
배송이 느림</w>
배송 해주셔서</w>
배송 됐
밝은 색
받아 본</w>
받 음.</w>
받 기</w>
박음 질은</w>
바이올 렛
바 요</w>
밋밋 한</w>
민 소매</w>
미끄러 울
미 니</w>
물 티슈
물 에</w>
물 량이</w>
묶 고</w>
무난 함</w>
무겁 긴한데</w>
목 라인이</w>
모양 을</w>
모델 핏은
모델 분은</w>
몇번 을</w>
매치 하면</w>
맞 구</w>
맘에들 구요</w>
만족스럽 네요.</w>
만 약</w>
마음에 들어요.</w>
마음에 들어요!</w>
마감 처리는</w>
마 자</w>
마 네
루 즈</w>
롱 한</w>
롱 코트
라이 더
똑같 아용</w>
또 는</w>
딴 데
딱 인
딱 이예
따뜻 해용</w>
따뜻 해</w>
따뜻 하진</w>
따 라서</w>
디테 일</w>
디자인 이고</w>
디 피
등 은</w>
듭니다 !!</w>
들어 도</w>
들고 다녀요</w>
들 과</w>
드 렷
뒤 쪽에</w>
뒀 는데</w>
될 지</w>
된 게</w>
되어 있네요</w>
되 는게</w>
되 구요</w>
동일 한</w>
동 료
도 트
도 잘
도 로</w>
데 이
데 는</w>
던 데..</w>
던 것</w>
더욱 더</w>
더러 워
당 분
답답 하고</w>
답 장
담 에도</w>
담 배
달 래서</w>
단점 이라면</w>
단점 이
다만 ..</w>
다른 사이트에서</w>
다르 겠지만</w>
다는 걸</w>
다녔 습니다</w>
다고 하네요</w>
늦었 어요.</w>
늦는 다</w>
늦 어요.</w>
느렸 지만
느낌 보다는</w>
놔 두
높 아요</w>
놀 랏
놀 람</w>
네크 라인이</w>
네요~ ^^
넣 기도</w>
넘 편하고</w>
넓 네요</w>
너무 예뻐요
너무 얇아서</w>
냐 고
내 려서</w>
내 기</w>
남 깁니다</w>
날씬 해보여요.</w>
날 려요</w>
날 려
나온 듯
나시 에</w>
나시 랑</w>
나 보
꾸민 듯</w>
꽃 샘
꺼 랑</w>
깔끔 하구</w>
긴 편
기대 이하</w>
기 여
기 냥
그런 것</w>
그거 말고는</w>
그 동안</w>
굿 이네요</w>
굽 은</w>
구매하 겠습니다</w>
구매 의사
구매 에</w>
괜찮은 거같
괜찬 습니다</w>
광택 도</w>
과정 에서</w>
고민중 입니다</w>
고급스럽 지</w>
고급스러 워요.</w>
고급 지네요</w>
고급 져서</w>
결론 은</w>
것같아요 ~~
것같아요 ..
것같아요 !!</w>
것 에</w>
것 빼곤</w>
검수 좀</w>
건 가요</w>
걱정 은</w>
거리 는게</w>
거같아요 ..
거 림이</w>
거 리</w>
갠찬 네요</w>
개 월
같 다
강추 !!!</w>
감사합니다 감사합니다
갈 수록</w>
간지 러
가타 요</w>
가을 이</w>
가슴 부분</w>
가성비 갑</w>
가성비 갑
가까 운데</w>
가격만큼 입니다.</w>
가격대비 해서</w>
가 네요.</w>
x n
w a
r i
c l
F SD
50 자</w>
5 월
44 ~
3 만원</w>
3 -
26 사이즈</w>
235 인데</w>
2 월</w>
178 에</w>
17 8</w>
17 4</w>
16 7</w>
16 3</w>
1 박
1 개
.... 그냥</w>
.. 근데</w>
.. !</w>
-_ -
* *</w>
# #
힘 들어요.</w>
흰 바지에</w>
흐물거리 지</w>
훌륭 합니다.</w>
훌륭 한</w>
후크 가</w>
화려 해요</w>
화려 한</w>
허접 해요</w>
했 으면
햇 으면</w>
햇 는데
해요 ,</w>
해서 .</w>
해보이 고
해 달라
합니다 ~^^</w>
함 과</w>
할 껄</w>
한 동안</w>
한 대로</w>
한 것같아요</w>
하지않 은</w>
하나 입고</w>
하고싶 네요</w>
하 라고</w>
하 더라구요.</w>
하 긴한데
핏 하게</w>
핏 되서</w>
핏 되고</w>
핏 되게</w>
플라 워
폴라 티
폴 리</w>
포 켓</w>
편 해</w>
패딩 안에</w>
패 스
파임 도</w>
파 는거</w>
티 도
털 고</w>
터 졌
터 리</w>
택 을</w>
탄탄 하니</w>
탁 월
타이트 함</w>
타 이</w>
킬 로
키가 작아서
키 론데</w>
키 도
코 가</w>
출 장
추천합니다 !!</w>
추천 해용</w>
추천 하지</w>
최고 !!</w>
총 기장이</w>
촌스러 워</w>
청록 색</w>
첫 번째</w>
처럼 은</w>
찾 아</w>
참고 하시길</w>
착용 하면</w>
착 각
쫀쫀 한
짧 긴
지 리
지 나</w>
즐 거
줬 어요.</w>
주문 해</w>
주름 은</w>
좋을 것같아요.</w>
좋은데 ...</w>
좋은 듯해요</w>
좋은 것같아요~</w>
좋았 어요^^</w>
좋았 구요.</w>
좋아요 좋아
좋아요 오</w>
좋아여 ~~</w>
좋아 보이고</w>
좋 긴</w>
조아요 !!</w>
조 쿠
조 은데</w>
조 은
조 마
조 거
제품 보다</w>
제 주
제 이
정리 하고</w>
정도 에요.</w>
저렴한 가격
저 럼
저 가</w>
재 단이</w>
잡혀 요</w>
잡아주 네요</w>
잘입 엇
잘어울리 네요.</w>
잘쓰 겠습니다</w>
잘받았어요 잘받았어요
잘못 온
잘맞 아요~</w>
잘맞 아서</w>
잘맞 구요</w>
잘 한것</w>
잘 사서</w>
잘 록
작은 데도</w>
작은 거
작업 복으로</w>
작 지</w>
자 는</w>
있을 때</w>
있을 까</w>
있으 시면</w>
있었 다면</w>
있어요 !!</w>
잇 어
입을수있을 꺼같아요</w>
입을수 잇
입으려 구여</w>
입으려 구
입었 지만</w>
입었 던</w>
입엇 어요</w>
입어질 것</w>
입어야 할것</w>
입어보 고
입어 용</w>
입어 봣는데</w>
입니당 .</w>
입기 좋음</w>
입고 싶어서</w>
입겠 지만</w>
입겠 어요.</w>
임 부
일주일 넘게</w>
인생 바지</w>
인듯 ...</w>
인 생</w>
인 기</w>
인 걸</w>
이쁠 꺼</w>
이쁜 거
이뻤 을
이뻐 이뻐
이뻐 여~</w>
이런 게</w>
이런 걸</w>
이라 니
이곳저 곳</w>
이 옷을</w>
으 으
윗 부분이</w>
웠 지만</w>
울 이</w>
운 거</w>
우 리</w>
우 는</w>
용 이</w>
용 으로
용 ~^^</w>
요 ;;</w>
왠 만
완 존</w>
완 성
온 다고</w>
오피스 룩으로</w>
오오 오
오버핏이 라서</w>
오버핏 이네요</w>
오래걸렸 어요.</w>
오 버</w>
예쁩니다 !!</w>
예뻤 어요</w>
영 ~~</w>
염 색
연 하네요</w>
역시 나
여름 이</w>
여러 개
여기 가
엉망 진
없 겠
어쩌 지</w>
어울리 지</w>
어느 정도
어깨 를</w>
어깨 끈
얘 는</w>
얇 아용</w>
약간 은</w>
않을 것</w>
안 이쁜
안 빠지고</w>
안 빠져요</w>
아직 입어보진
아쉽 긴한데</w>
아무 것도</w>
아닙 니다.
아님 ..</w>
아닌 것같아요</w>
아니 나</w>
아니 고..</w>
아 웃
아 울
아 라
아 니다</w>
쓸 려고</w>
쓰 고
써 도</w>
싼티 나네요</w>
싼마 이
싼게 비지떡
싶을 정도로</w>
싶 기도</w>
심 하진</w>
심 하긴</w>
실용적 이고</w>
실물 과</w>
실망스러 워요</w>
실망 했는데</w>
실망 했
신을 만해요</w>
신었 을</w>
신어 도
신기 에는</w>
신고벗 기</w>
신경 좀</w>
신 혼
신 청</w>
시켰 는데도</w>
시켜 도</w>
스판 성
스틸 레
스타일리쉬 하게</w>
스타일 입니다</w>
스키니 에</w>
스 니
수선 집에</w>
수 있는
손잡 이
속 치마</w>
소재 입니다.</w>
소재 와</w>
소라 색도</w>
소 요
셔 링이</w>
섹시 하고</w>
세트 로
세탁 하니까</w>
선명 하고</w>
선 을</w>
서 늘
생각했던 대로
생각햇던 거
생각보다는 ..</w>
생각 에</w>
생 김</w>
색상 ,</w>
색 ?</w>
상 세</w>
상 도</w>
샀 음</w>
살까 말까
살 펴
살 쪄
산뜻 하고</w>
산 것
사진 빨</w>
사진 대로</w>
사이즈 ,</w>
사시 는</w>
사시 길
사 쥬</w>
사 자마자</w>
사 세요~</w>
빨랏 고</w>
빤 짝
빠릅 니다
빠르 나</w>
빠르 구요.</w>
빛 나는</w>
빅 사이즈</w>
빅 사이즈
불편 했어요</w>
불편 한건</w>
분들 한테는</w>
분들 이
분들 에게는</w>
분 의</w>
분 은
볼 땐</w>
보통 이에요
보통 이었
보 람</w>
번 도</w>
버 렷
백 이</w>
배송이 넘
배송 와서</w>
배송 빨랐어요</w>
배송 료
배 색도</w>
배 부분이</w>
발목 까지
발 생
받았 어요~
받았 습니당</w>
받고 보니</w>
반품하고싶 은데</w>
반 하이
바지 처럼</w>
바느질 해서</w>
바 캉
바 쁘
바 빠서</w>
미끄 럼
미끄럼 방
뭐 지</w>
묻 어요</w>
무릎 까지
무료 배송</w>
무난 한듯</w>
무게 감이
무거운 거</w>
무 너
못입을 거같아요</w>
못 신을
몸매 를</w>
몰랐 어요</w>
목 둘레가</w>
모 카
몇번 입고</w>
면 은
면 에서는</w>
맨 들
매 는</w>
매 끈
맞을 것</w>
맞 게
맘에들 지만</w>
말 로</w>
많이 는</w>
많 은데
만족합니다 ~~
만 드는</w>
막 입고</w>
마음에 들어서</w>
마음에 들
마 구
리본 도</w>
런 지</w>
랍 니다.</w>
라지 로</w>
라 탄
라 니</w>
라 기가</w>
똑같 아
떨어지 지</w>
딱딱 하지</w>
딱 이에요
디 게</w>
듭 니
들어요 ~~
들어요 ..</w>
들 진</w>
득템 했어요</w>
득템 한</w>
드러 나
둘째 치고</w>
두께 에</w>
두껍 지않아서</w>
두꺼 울
두 배
될 것같아요.</w>
동네 에서</w>
동 봉
돈 아깝
도 이쁘고</w>
도 움이</w>
덕 지
더 이상</w>
닿 는
답변 이</w>
답 니다
단정 하게</w>
단 화
다른곳 은</w>
다른 사이트
다닐 거같아요</w>
다니 네요</w>
다녔 어요.</w>
다녀 요~</w>
다 소
늦어 지면</w>
늘어나 지도</w>
늘어 난</w>
늘어 나</w>
는데 요.</w>
느렸 습니다.</w>
느껴 지는</w>
높 이가</w>
노랑 이</w>
넥 라인
네용 ^^</w>
네요 ,,</w>
네 유</w>
넘 커요</w>
넉넉 해요.</w>
넉넉 하고
너무 심해요</w>
너무 길어요</w>
너 어어
너 므
너 ~~~~
내 용</w>
낮 에는</w>
남겨 요</w>
남 는</w>
날씬 해야</w>
날 풀리면</w>
날 엔</w>
나왔 네요.</w>
나왓 어요</w>
나름 대로</w>
나가 도</w>
나 은듯</w>
나 옴
끼 네요.</w>
끝 단</w>
께 는</w>
꺼같 아여</w>
길이 며</w>
길어 보이는</w>
길 지않아서</w>
길 긴
기다린 게</w>
기다렸 어요.</w>
기 두
급 하게
근 처</w>
그레 이라</w>
그냥 그러
그냥 그냥그냥</w>
귀여워 요~~</w>
귀여워 요!</w>
군더더 기
구입 했는데,</w>
구매하였 습니다.</w>
구매하 는
구매 해도</w>
구매 하면</w>
구매 의사</w>
구두 를</w>
구 석
구 분
구 래
괜찮을 것같아요</w>
공 주
곳 을</w>
골반 에</w>
골랐 는데</w>
고민 했지만</w>
고민 해보
고급스러워 보여요</w>
경 향이</w>
경 량</w>
겹 쳐서</w>
격 이</w>
겨자 색</w>
게 시
게 되
검색 하다</w>
걸치 려고</w>
같아요 ....</w>
같아요 !!!</w>
같 네요^^</w>
같 긴해요</w>
강추 입니다.</w>
감촉 도</w>
감사 해요.</w>
각 보다</w>
가성비 도</w>
가성비 대비</w>
가보시 가</w>
가볍 구요</w>
가디건 이
가나 다라
가격 두</w>
가 봐요</w>
가 릴
가 늘
가 .</w>
가 .
r h
i f
S T</w>
M M
9 월
8 5
7 5</w>
66 반</w>
5 1
5 000원
44 사이즈</w>
44 반</w>
2주 정도</w>
2주 나</w>
245 로</w>
235 -
230 으로</w>
20 일
175 /6
162 인데</w>
16 4</w>
15 8</w>
100 프로
흠 이라면</w>
흘러내리 지</w>
흘러내 리는</w>
흑 흑</w>
흐물흐물 한</w>
후회 되네요</w>
효과 도</w>
회 색이
활 용</w>
화이트 색상</w>
화면 그대로에요</w>
형 편
헐렁 하고</w>
했을 텐데</w>
했는데 요</w>
했는데 ,
해요 ~~~</w>
해 지는</w>
함 ..
할 수도</w>
하지만 ...</w>
하나 하나</w>
하겠 는데</w>
하 얘
하 며
핑크 에요</w>
핏 인데</w>
핏 ,</w>
필요 한
푹 신</w>
폭 스
폭 도</w>
포장 해서</w>
포인트 로
평 가
편한 바지</w>
편하 지</w>
편하 면서</w>
편하 네요^^</w>
편이 예요.</w>
편이 여서</w>
편이 어서</w>
펑 펑
팔 부분에</w>
팔 목</w>
팔 도
판매자 는</w>
튀어 나와</w>
통풍 도</w>
통통 해서</w>
톤 다운</w>
털 은
택배 는</w>
탈부 착</w>
타 고</w>
키높 이
큰 걸
큰 거같아요</w>
크 신
퀄 이</w>
쿠션 도</w>
코트 도</w>
코발 트
캐주얼 한</w>
카키 색으로</w>
카 모
친절 해요</w>
친절 하게
치마 안에</w>
출 고</w>
추천추천 추천추천
추천 하고싶
추울 땐</w>
초 겨울에</w>
천 이
처음 에
처음 부터</w>
채 워
참고 하세용</w>
착용 샷
쭈 글</w>
쬐 끔</w>
쪼 여서</w>
짱짱 !!</w>
짧은 건</w>
짜증 이</w>
진청 도</w>
진 않아서</w>
진 동
지만 ....</w>
지난 번</w>
지나 도</w>
지 막
지 두</w>
지 .
쥬 얼
중 인데</w>
중 이에요</w>
줄 무늬
주문 해야</w>
좋을 거같아요
좋은데 ..
좋은 물건</w>
좋았을 것같아요</w>
좋았 어요.
좋아요 이쁘네요</w>
좋아요 :)</w>
좋아 하시네요</w>
좋겠 어요
좋 구요,</w>
좋 겟네요</w>
좋 게
좀 크
조심 조심</w>
조 절</w>
제품 이네요</w>
제 로</w>
정성 스럽게</w>
정사이즈 라</w>
정도 는
정 보</w>
전 에는</w>
전 공
적 어도</w>
적 나라
저 로
저 거</w>
재질이 네요.</w>
재봉 선이</w>
잠옷 으로
잘입을 듯해요</w>
잘입고 잇어요</w>
잘맞 네요.</w>
잘 해주시고</w>
잘 한듯</w>
잘 입으면</w>
잘 보고</w>
잘 받아
작아 도</w>
자켓 으로</w>
자체 가
자주 이용
자리 에</w>
자 가</w>
있을 까
있으 니까</w>
있어요 ...</w>
있 습니다!</w>
있 고..
입을만 해여</w>
입을께 요^^</w>
입을꺼 라</w>
입을게 요
입으 신
입어보 지도</w>
입니다 ...
입는 게
입고 나갔는데</w>
입 혔
입 자
입 든</w>
임신중 이라</w>
임산부 인데</w>
일주일 이</w>
일어나 면</w>
일 줄알았는데</w>
인가 요</w>
인 간
이하 도</w>
이정도 면
이음 새
이상 하네요</w>
이쁘네요 ~~~</w>
이쁘 더라구요</w>
이쁘 니까</w>
이쁘 구요.</w>
이뿝 니다</w>
이뻐 욤
이번 주</w>
이라 ...</w>
이 지
이 불
의 견
음 ~</w>
음 ....
을 꺼
을 까봐</w>
은은 하고</w>
은 ..</w>
유행 타
원 햇는데</w>
우 면서도</w>
요 청</w>
외출 용으로</w>
완전 완전</w>
완전 별로</w>
옷은 이쁨</w>
옷 이뻐요</w>
옷 만
오트 밀
오래걸 려요</w>
오 징
오 배송으로</w>
오 는데</w>
오 구요</w>
예쁜 듯</w>
예쁘네요 ~^^</w>
예뻐 보여요</w>
옆 에서</w>
옆 부분이</w>
였 습니다</w>
였 습니다.</w>
열 자마자</w>
연 해서</w>
여자 친구</w>
여 ~~~</w>
여 ...
에 요~~</w>
에 쁘
에 뻐
엉덩이 부분이</w>
었 습니다</w>
없 는데
어쨌 든</w>
어용 ^^</w>
어려 울</w>
어 째
양 쪽이</w>
얌 전
얇아요 ...</w>
얇아요 .
얇 지도않고</w>
약 한</w>
야 하나</w>
애즈 미</w>
애 초에</w>
애 나
알았 네요</w>
않을 까
안에 가</w>
안쓰 는데</w>
안되 어서</w>
안녕 하세요
안나 요.</w>
안 생기고</w>
안 빠져서</w>
안 맞아요</w>
아프 네요.</w>
아쉬웠 는데</w>
아쉬운 점이</w>
아닌 지</w>
아닌 거같
아니 네요...</w>
아깝 지</w>
아 픕
아 오</w>
아 리</w>
씁 니다.</w>
싸 니까
싶었 는데
심플 하면서</w>
심 함.</w>
실밥 정리가</w>
실망 했어요.</w>
신중 하게</w>
신고 있어요</w>
신 어요.</w>
신 어</w>
신 기엔</w>
시큼 한</w>
습니당 ~</w>
스타일 이예요</w>
스킨 색</w>
스커트 를</w>
스니 커
스 레</w>
슈 즈</w>
수준 으로</w>
수 있
수 잇을
수 건
쇼핑 윈
속상 하네요</w>
속 치마
속 옷은</w>
속 았
소재 이
소 식
셔츠 로</w>
세탁 하고
세상 에</w>
선명 한</w>
선 에</w>
석유 냄새가</w>
서 서</w>
샤랄 라</w>
생각보다 커요</w>
생각 대로</w>
색상도 이쁘고</w>
색상 인데</w>
색 의</w>
상큼 하고</w>
상당 히
상 처
샀 는지</w>
삿 더니</w>
살다 살다</w>
살 도</w>
사진상 과</w>
사 알
뾰족 해서</w>
뻣 뻣</w>
빨 간</w>
빠른 배송은</w>
빠르 지</w>
비춰 요</w>
비추 요</w>
비오는 날</w>
비교 해도</w>
비 친
비 록</w>
블링블링 하네요</w>
분 실
부들 하고</w>
부 러
부 는</w>
봄 봄
볼 때</w>
보통 입니당</w>
보이 지않고</w>
보이 는거랑</w>
보이 기는</w>
보온 성이</w>
보기 에도</w>
보 플</w>
보 스
보 세</w>
별로 인</w>
별로 예요
별로 네요...</w>
베이지 샀는데</w>
벙벙 하고</w>
번갈 아</w>
번 창</w>
배송이 조금
배송빠르 구</w>
배송기간 은</w>
배송 온
배송 굿</w>
발목 도</w>
발등 부분이</w>
발견 하고</w>
받쳐 입으면</w>
받았 을때는</w>
반팔 티</w>
반짝 이
반짝 반짝
바지 에서</w>
바람막 이</w>
밑창 도</w>
미디 움</w>
문의 했더니</w>
문의 글
문안 하게</w>
무난 하
묘 하게</w>
못입을 듯
못입을 것같아요</w>
몸 집이</w>
모델 은</w>
면 서
면 바지
멀 쩡
먹 색</w>
맨투맨 이나</w>
매우 좋아요</w>
매우 만족
매 도</w>
맡겼 어요</w>
맡 겨서</w>
맞 지만</w>
맞 는것</w>
맘에듭니다 ^^</w>
맘에듭니다 !</w>
맘에들어 하네요</w>
맘에 는</w>
많이 들어가
많은 지</w>
만족스러워 용</w>
만족 한</w>
만족 입니당</w>
만족 입니다
만 적
만 삭
만 독
막 혀
레 더
럽 게</w>
러블 리</w>
라 해서</w>
뚱뚱 한</w>
떨어 져서
딸 아이
딱일 듯</w>
딱 이에요!</w>
딱 봐도</w>
따뜻 할</w>
들어요 ~~~</w>
득 탬
뒷 쪽</w>
뒤집 어서</w>
뒤 쪽이</w>
뒤 로
두툼 한
두께감 도
될듯 합니다.</w>
되 고,</w>
됐 네요</w>
던 져
더라구요 ...</w>
대만족 이
대 요.</w>
당 장
달 아주
다음에 또
다른 분</w>
다니 기에는</w>
다녀 요.</w>
다 지만</w>
다 신
니다 ...
늘어 짐
는 안
느린 것</w>
느렸 습니다</w>
느껴 질
느 낄
놀랐 습니다.</w>
네요 !!!</w>
네요 !!
네오 플
넘 이쁘네요</w>
너무너무 너무너무</w>
너무 편하고
너무 큼</w>
너무 짧
냐 에</w>
냄새 때문에</w>
남자친구 도</w>
남 녀
남 깁니다.</w>
날씬해보이 는
날씬해보이 네요</w>
날씬 해보임</w>
나시 티</w>
나갔 더니</w>
나 았
나 다</w>
나 긴
끼 지만</w>
끈 조절
꾸준 히</w>
껴 입고</w>
꺼 같아요.</w>
깡 패</w>
까 슬</w>
까 맣
깃 이</w>
길 에</w>
길 긴하지만</w>
긴한데 ..
기장 과</w>
기본 스타일</w>
기다리 고
기간 에</w>
기 름</w>
글 씨
그렇 지는</w>
그럼 에도</w>
그냥 그럭저럭</w>
그 점이</w>
그 외에는</w>
귀찮아서 그냥
귀여 운데</w>
구입 하려
구멍 나
구매했는데 ..
구매한 지는</w>
구매한 것</w>
구매하였 습니다</w>
구매 후기
구매 해서
구매 하지</w>
구 스
구 ..
교환 하면</w>
교환 하려다가</w>
교환 귀찮아서</w>
괜찮은 듯해요</w>
괜찮은 데..</w>
괜찮아요 ~~
곤 란
고무줄 로</w>
고객 센
고 양
검색 해서</w>
걸렷 지만</w>
걷 어</w>
건지 .</w>
걱정 했는데,</w>
걱정 을</w>
거래 처
거든 요
거기 서</w>
거 기에</w>
같은 데..</w>
같 습니당</w>
강 조
값 이</w>
감촉 이</w>
감사 해용
감사 하고</w>
감사 드리
간 신
가오 리</w>
가벼 워요.</w>
가려 줘서</w>
가나다라 마
가깝 습니다</w>
가격에 비해
~~ !
~ !!
t e
r o
o r
kg 인데</w>
i s</w>
g i
^^ !!</w>
M 사이즈
E ST</w>
B EST</w>
= "
: D</w>
9 8
7 4
6 3
5 일</w>
235 로</w>
175 /7
17 6</w>
10 월
1 월</w>
1 .
././ ././
*- *-
힘 듬</w>
힘 든</w>
히트 텍</w>
흰색 샀는데</w>
흡 족
흔하지않 은</w>
흔 들
흐 리
후회 는</w>
후드 티
후 반
활용도 도</w>
확인 해서</w>
헐렁 하게</w>
허리 쪽이</w>
허리 사이즈가</w>
허리 라인</w>
허 전
했 네요~</w>
해요 !
해 달라고</w>
함 유
할인 된</w>
할 만큼</w>
할 랑
한철 만</w>
한여름 은</w>
한데 .</w>
한달 정도</w>
한 계절
하자 없이</w>
하자 니</w>
하시는 분들은</w>
하시는 게
하는 거같아요</w>
하네요 ~~
하네요 !!</w>
하기도 하고</w>
하고 ~</w>
하겠 습니다!</w>
하 진않아요</w>
하 심
하 셧
하 ..</w>
핑크 네요</w>
핏이 예요</w>
핏감 이나</w>
핏 좋고</w>
플라 워</w>
프릴 도</w>
풍성 한</w>
품절 이라고</w>
폭신 폭신</w>
포켓 도</w>
포인트 를</w>
포 함</w>
포 토
편해요 ~~
편한 건</w>
편하게 입기좋아요</w>
편하 면서도</w>
편하 기</w>
편 해용
편 합니다~</w>
편 합니다!</w>
페브리 즈
펑퍼짐 해요</w>
펄 이</w>
패턴 은</w>
패드 가</w>
팔 아서</w>
파 져서</w>
파 임</w>
틀 리고</w>
튀 지도</w>
통통 55
털날림 은</w>
터 짐</w>
탁 한
타잇 하게</w>
키가 작아</w>
키 인데</w>
큼 지막
큼 ..</w>
클 러
크 리
퀄리티 를</w>
쿠션 감</w>
커 팅
친절 하세요
치 수가</w>
취향저 격
취소 할
초 여름</w>
초 가을</w>
쳐 지는</w>
쳐 져서</w>
천 을</w>
채 우면</w>
찾 다가
쭈글 쭈글</w>
쫀쫀 하니
짱 이예
짧은 거같아요</w>
짧 네요~</w>
짜증 남</w>
짜증 나</w>
질 문
질 거같아요</w>
진 안
진 리
지퍼 로</w>
지인 들
지않 을까
지나 치게</w>
지 인</w>
지 나고</w>
즐 겁
중간 까지</w>
줄알았 는데
줄 줄
줄 이고</w>
주문했 어요~
주문했 네요</w>
주문했 구요</w>
주문 하세요.</w>
주 세요.</w>
좋았 습니다.
좋았 습니다!</w>
좋아요~~ !!</w>
좋 더라구요
조심 하세요</w>
조끼 도</w>
조 아서</w>
제품 이에요</w>
제 질</w>
제 봉
제 로
정사이즈 예요</w>
정도 까지</w>
적 이
적 어서</w>
저렴 하구요</w>
잡아주 는게</w>
잡 아서</w>
잘입고 있어요~</w>
잘입고 있
잘입 겟습니다</w>
잘받았 어요~~</w>
잘 해주셔서</w>
잘 한듯
잘 신어
잘 가고</w>
작은 걸로</w>
자세 히
자 르고</w>
있겠 네요.</w>
있 네요...
있 나
있 거나</w>
입을수있을 것</w>
입을수 있는
입은거 보고</w>
입은 것처럼</w>
입으시 려면</w>
입어질 듯</w>
입어봐야 겠어요</w>
입어볼 께요</w>
입어 서
입고 있습니다.</w>
입 는데요</w>
일자 바지</w>
일어날 것</w>
인조 가죽
인생 바지
인가 봐요</w>
인 듯.</w>
이상 도</w>
이쁨 이쁨
이쁠 꺼같아요</w>
이쁘 다는
이뻐요 ~!!</w>
이뻐 보여서</w>
이라 인</w>
이 즈</w>
이 전에</w>
이 ..
을 수</w>
유 사
위 한</w>
원단 으로</w>
움직일 때마다</w>
우체 국
용 은</w>
요즘 엔</w>
요 요요</w>
요 기
요 !
왠 걸</w>
왠 걸
왜 소
왔 구요.</w>
왔 구</w>
옷도 이쁘고</w>
옷 임</w>
옷 인거</w>
옷 보다</w>
올 렸
오프 숄더</w>
오버핏 이고</w>
오래 신으면</w>
오래 신어도</w>
오 ~~</w>
오 !</w>
예상 했던
예쁩니다 ~~</w>
예쁨 .</w>
예쁘 긴한데
예뿌 고</w>
예뻐용 ~~</w>
예뻐 보여서</w>
열 고
여자 여자</w>
여성 스럽네요</w>
여름 철</w>
여 미
엠 으로</w>
에 따라</w>
없 네요~</w>
없 고요</w>
엄청 크고</w>
엄마 는</w>
얼굴 에</w>
언발 란
어중간 하게</w>
어울 려</w>
어색 해요</w>
어두 움</w>
어깨선 도</w>
어 쩡
어 린
얘 기가</w>
얇은 데도</w>
얇은 감은</w>
얄 쌍
약 하게</w>
애즈 미
앏 아서</w>
알았 음</w>
않아요 ...</w>
않 으니</w>
않 나</w>
안해 봐서</w>
안입어 봐서</w>
안되 는
안 입으면</w>
안 입
아프 지</w>
아크 릴</w>
아주 조아요
아이템 이라</w>
아요 ^^</w>
아쉬워 요..</w>
아래 가</w>
아니 네여</w>
아까 워
아 쥬</w>
아 .</w>
쏘 옥</w>
싼게 비지떡</w>
싼 이유가
싼 건</w>
싸 도</w>
심 해</w>
심 심하지</w>
실밥 들이</w>
실 사
신중 히</w>
신경써 야
신 행
신 속
시원 해요.</w>
시원 합니다.</w>
시스루 가</w>
시 착
시 도
습니 더</w>
슬림 핏이
스트 랩</w>
스타일 이고</w>
스몰 이</w>
스몰 로</w>
수선 했어요</w>
손가 락</w>
소재 인데</w>
소재 이고</w>
소매 부분
소매 길이도</w>
셔츠 위에</w>
셔츠 와</w>
세탁후 에도</w>
세련 된
세련 되게</w>
선물 받은</w>
선 인
생각했던거 보단</w>
생각햇던 거보다</w>
생각 해요</w>
생각 처럼</w>
상태 에서</w>
상의 는</w>
샀는데 ...</w>
샀 습니다.
삿 어용</w>
삿 네요</w>
산 책
산 건</w>
사진이랑 같아요</w>
사진그대로 네요</w>
사진 엔</w>
사보 는데</w>
사 선
사 는거</w>
삐 뽕
뻗 뻗
빵빵 해서</w>
빨랐 구요
빠짐 이</w>
빠지 는게</w>
빛 에</w>
비치 는게</w>
비치 긴</w>
비 오는</w>
비 교</w>
블랙 사고</w>
블라우스 도</w>
브라우 스
부해보이 지도</w>
부탁 드렸는데</w>
부 해서</w>
부 하고</w>
봤 네요</w>
봉 재
볼 때는</w>
보통 요</w>
보통 ..</w>
보태 서</w>
보이 는건</w>
보는 것
보내주셨 어요</w>
보 입니다
별루 요</w>
별로에 여</w>
별로 안
베이지 색상</w>
벗 기가</w>
번창하세요 ~~</w>
버 클</w>
밴딩 도</w>
밴드 라</w>
밴드 도</w>
백 은</w>
배송빨라 용</w>
배송너무 느림</w>
배송 조회
배송 이나</w>
배송 ..</w>
방 향
방 에</w>
밥 먹
밝 아요.</w>
밝 네요</w>
발목 은</w>
발등 에</w>
받쳐 입어도</w>
받았 음</w>
받았 을땐</w>
받았 습니다!</w>
받았 네요
받고 나니</w>
받 는데
반품 신청
박스 에</w>
바꿨 는데</w>
바 짝</w>
바 랬는데</w>
바 디
밀 리
밀 려서</w>
미 쳤
미 끌
뭐 든</w>
물 품
물 집
문제 로</w>
문 자주
묶 는게</w>
무지 하게</w>
무겁 게</w>
무거 운데</w>
무 리</w>
무 릅
못 하는</w>
못 미치
몸 이
몰 랏
목 티
모자 에</w>
모양 이
모르 겟어요</w>
먼 가
먹 색
맞 습니다.
맘에들어 서
말 려</w>
말 곤
많이 안
많 음</w>
만족해요 ~
만족스럽 지</w>
만들어 주세요</w>
만 더
마 시
립스 틱
리본 을</w>
레이어드 로</w>
띄 는</w>
뚱뚱 해보여
딱이 네요~</w>
딱맞 아요.</w>
딱맞 게
딱 좋음</w>
따뜻하 다고</w>
따뜻하 긴한데</w>
따뜻 할것</w>
등 치가</w>
듯 하네요.</w>
듯 ?</w>
듭니다 ~^^</w>
들었 지만</w>
드라이 크
드라 구요</w>
뒀 다가</w>
두번 은</w>
두껍 고
두꺼운 감이</w>
두 달
될 것같
되었 습니다</w>
되 겠네요</w>
동 그
돌 아요</w>
돌 고</w>
돈 이
돈 을</w>
도 되고</w>
도 ...</w>
데미 지</w>
데 로
더니 ..</w>
더 위
대 용으로</w>
당 기
답답 하지</w>
담 엔</w>
달라붙 지</w>
달 렸
단추 부분</w>
단독 으로는</w>
다행 히
다이어 트
다르 지</w>
다닙 니다
다니 는
다 했는데</w>
니트 에요</w>
니트 가디건</w>
늦었 지만
늦 지만</w>
느려 서
느껴 져서</w>
느 릴
누가 봐도</w>
놀랐 는데</w>
노란 색
네이비 랑</w>
네요 ~!</w>
네요 ;;;</w>
네여 ~
네 ..</w>
넣을 수</w>
넓 으신분들은</w>
넉넉 하구</w>
너무 커
너무 작
너무 이쁨</w>
너무 이쁘고
너무 이뻐여</w>
너무 만족합니다</w>
남편 도</w>
남 동생</w>
남 네요</w>
날씨 도</w>
날씨 가
난 해
나일 론
나와 요.</w>
나와 서
나오 네요.</w>
나오 긴</w>
나갈 때
나 니
나 기는</w>
나 고
껴 입기</w>
꺼 예요</w>
까슬 거리는</w>
깊 고</w>
길이 네요</w>
길이 고</w>
길 지않고</w>
긴 햇지만</w>
기전 까지</w>
기대이상 입니다</w>
기대이상 으로</w>
기대 햇
기다리 다
기다 리는</w>
기는 해요</w>
금 요일</w>
극 찬
그저 그래
그래서 인지</w>
그대로 예요.</w>
그냥 입으려구요</w>
그 가격만큼</w>
귀엽 다고</w>
귀엽 네요.</w>
굳 !</w>
군더더기 없이</w>
구매한 거라</w>
구매 결정
구 해서</w>
교환 했어요.</w>
교환 하기
교 복</w>
괜춘 하네요</w>
괜찮을 듯해요</w>
괜찮 아서
고민하 지마
고민 햇는데</w>
고민 끝에</w>
고무 가</w>
고맙 습니다.</w>
고려 해보
고 만
고 리</w>
경량 패딩
겠 는데</w>
겠 거니</w>
게 아니라</w>
겉 으로</w>
것같 긴한데</w>
것 을
검정 을</w>
검색 하다가</w>
걸치 고
걸 칠</w>
거칠 고</w>
거가타 요</w>
거 릴
개인적 으론</w>
같 습니다^^</w>
같 기는</w>
갔 더니</w>
갑 갑
가을 겨울에</w>
가을 가을
가슴 이
가방 안에</w>
가깝 고</w>
가격이 좀
가격대 도</w>
가격 좋고</w>
가 있어</w>
x i
x h
w n
b o
a d
^* ^</w>
D S
? 가</w>
; )</w>
95 -
66 은</w>
5일 정도</w>
4일 정도</w>
44 -
27- 28
2 5</w>
161 인데</w>
1+1 으로</w>
.... ^^
.. ?
* ♡
!!! ^^</w>
힘들 게</w>
힘들 것</w>
히 는</w>
흠 이지만</w>
흘러내 려서</w>
훤 히</w>
후기 가
확인 좀</w>
헤 헤</w>
허리 밴딩이</w>
허리 끈
허리 까지</w>
했 지만...</w>
했 는
했 네요..</w>
해주시 고
해야 함</w>
해서 좋아요</w>
해보 입니다.</w>
해 졌
항공 점퍼
핫 핑크</w>
합리 적인</w>
함 요</w>
할듯 요.</w>
할까 하다가</w>
할 땐</w>
한번 에</w>
한번 빨면</w>
한데 요</w>
한 날</w>
하지만 ..
하자 가</w>
하십 니다</w>
하셔 야할
하세 여</w>
하겠 어요.</w>
하겠 습니다
하 러</w>
하 던
하 느
핏도 예쁘고</w>
프리사이즈 라
풀 러
폴라 티</w>
포근 한</w>
평범 합니다</w>
평 대로</w>
편해요 ~^^</w>
편하 고요</w>
편 인데,</w>
팬츠 에</w>
팔 쪽</w>
판매자님 께서</w>
파 인</w>
파 이지</w>
티 네요</w>
튼튼 해보이고</w>
특 가로</w>
트렌치 코트
튀 는
통이 커서</w>
테이 프로</w>
택배 로</w>
타이트 하지않고</w>
클 까봐</w>
크기 나</w>
크게나온 듯</w>
크 니</w>
코디 하기가</w>
코디 처럼</w>
코 튼
컸 어요</w>
칼 배송에</w>
카드 지갑</w>
친구 한테</w>
친 철
춥 지만</w>
출퇴근 용으로</w>
추천합니다 ~~</w>
최악 입니다.</w>
초록 색이</w>
초겨울 까지</w>
초 록</w>
체격 인데</w>
청바지 도</w>
청 소
청 색
청 남방</w>
천 에</w>
처음 인데</w>
처음 이에요</w>
처음 이네요.</w>
찾고 있었
참고하세요 !</w>
참고 하시면</w>
참 ..</w>
차콜 이</w>
찢어 진
쯤 에</w>
쫌 더</w>
쪼 이고</w>
쪼 끔
짱짱 짱</w>
짧 지않아</w>
짧 을</w>
짜증 나요</w>
짜증 나네요</w>
짜 여
질 것같
질 감이
진주 도</w>
지도 안
지금 은
지 고
중간 정도</w>
죽 을
죽 는
주시 고
주변 에</w>
주문했는데 요</w>
주문했 어요!</w>
주문 하고
주문 은</w>
주 셧
주 먹
죠 ??</w>
좋을 거같네요</w>
좋은 거
좋아용~ 좋아용~
좋아요괜찮아요 좋아요괜찮아요
좋아 하세요</w>
좋아 하는데
좋아 욤
좋아 여~</w>
좋아 보이진</w>
좋습니다. 좋습니다.
좋습니다 ~
좋네요 !
좋겠 다</w>
좀 커서</w>
좀 있어서</w>
좀 많이
조항 요</w>
조끼 랑</w>
조 오
조 그
져 요
제외 하고는</w>
정사이즈 에</w>
정도 만</w>
정도 .</w>
점프슈 트
전체 가</w>
적당 하네요.</w>
적 으로는</w>
저한테 는
재질이 긴</w>
재질 ,</w>
재 입고</w>
잡아주 니</w>
잘입었 어요.</w>
잘입고 다녔어요</w>
잘어울 립니다</w>
잘신고 있어요</w>
잘샀 습니다</w>
잘늘어나 요</w>
잘 빠져서</w>
작업 복
작게 나왔어요</w>
작게 나와서</w>
작 을</w>
작 다</w>
작 다
작 긴하지만</w>
자켓 이나</w>
자체 제작
자연 스럽
잊 어
있을 듯
있 다보니</w>
있 네요~
있 네요!</w>
입을려 구</w>
입을께 요
입을 일이</w>
입으 렵
입었 을때는</w>
입었 을
입었 던
입어보 려
입는 걸</w>
입기 편해요</w>
입고 ,</w>
임 .
일 을</w>
일 때</w>
일 까
인 것같
이쁨 !!</w>
이쁜 건</w>
이쁘 대요</w>
이쁘 니</w>
이뿌 네여</w>
이뻐 욧</w>
이런 옷</w>
이라 던지</w>
이너 로도</w>
이 주</w>
이 요.</w>
이 옷이</w>
이 아니라</w>
이 뽀</w>
이 만
이 란</w>
이 네요~~</w>
이 가격으로</w>
의 상
음 )</w>
을 꺼</w>
은 ..
웬 만하면</w>
원피스 에도</w>
원단 을</w>
운동 복
우 와
우 나</w>
용 으로도</w>
요즘 같은
외 소
완전 이뻐용</w>
완 존
완 료</w>
옷 에서
옷 상태
오십 자
오버핏 을</w>
오버 사이즈로</w>
오랫 동안</w>
오래걸렸 고</w>
오 배송</w>
예쁜데 ...</w>
예쁜 옷
예쁜 데,</w>
예쁘네요 ~~
예뻐요 ~~~
예뻐요 :)</w>
예민 한
연락 주셔서</w>
여유 가
여름용 은</w>
여름 한철</w>
여기 에서</w>
에나 멜</w>
에 비해
에 ..</w>
었 더니</w>
었 는데,</w>
없 어용</w>
없 게</w>
엄청 느리고</w>
어이 가
어요 !
어설 프
어벙벙 한</w>
어렵 네요</w>
어디 나</w>
어 여.</w>
어 른
양 해
얇 다는</w>
얇 고,</w>
얇 게
앞 은</w>
알았 는데
알 맞고</w>
않았 구요</w>
않 으
않 고..</w>
안정 감
안전 하게</w>
안샀 을</w>
안되어 있어서</w>
안되 지만</w>
안나 는</w>
안나 는
안 하지만</w>
안 하
안 입은듯</w>
안 이쁘고</w>
안 이나</w>
안 에는</w>
안 어울리는</w>
안 보여요</w>
안 들
안 남</w>
아직 까진</w>
아직 까지</w>
아주 좋아요
아주 좋
아이보리 색
아쉽 네요...</w>
아쉬워 용</w>
아닌 듯해요</w>
아니 고요</w>
아 시
아 동
쓰 는데</w>
쏘쏘 입니다</w>
싸이즈 가
싸고 이뻐요</w>
싸 니</w>
싸 네요</w>
심플 하면서도</w>
싫어 해서</w>
실밥 이나</w>
신축성 도
신발 자체는</w>
신발 에서</w>
신발 만</w>
신경쓰 일
시원 할거</w>
시 즌</w>
시 기
습니당 ~~</w>
습니다 ,</w>
슬림 핏은</w>
스트라이프 가</w>
스타킹 에</w>
스타킹 신고</w>
쉬 원
순 간
수선 이</w>
수선 비</w>
수고 하세요~</w>
숏 패딩</w>
숄더 로</w>
손 톱
속 은</w>
소재 도좋고</w>
소매 부분에</w>
세탁소 가서</w>
세탁 해보
세탁 할때</w>
선물 해주
선명 하게</w>
생기 면</w>
생각보다 도</w>
생각 하면
생 겻
색깔 이뻐요</w>
색감 이며</w>
새옷 냄새가</w>
샀 어도</w>
샀 다</w>
샀 는
샀 구요</w>
살 때마다</w>
사진 하고는</w>
사이즈 때문에</w>
사용 할
사업 번창하세요</w>
사람 한테</w>
사람 에게</w>
사고 나서</w>
사 아
빨리 왓
빛 이
비치 네요.</w>
비싸 지</w>
비싸 다는</w>
비 스
붙어 있고</w>
불편 했는데</w>
부츠 를</w>
부직포 같은</w>
부분 이나</w>
부분 과</w>
부드럽 네요.</w>
부담스럽 게</w>
봉 투</w>
봉 제가</w>
봄 여름</w>
보푸 라기</w>
보통보통 보통</w>
보일 까봐</w>
보는 사람마다</w>
보내주셨 으면</w>
별루 임</w>
별로 인듯
별 롭
베이지 에요</w>
베이지 색이라</w>
베란 다</w>
번 호</w>
백 도</w>
배송도 빠르구요</w>
배송 최악</w>
배송 관
배 기</w>
받쳐 입을</w>
받은 건</w>
받 으니까</w>
반품 할</w>
반품 하면</w>
바지 길이가</w>
바 바
바 르
밑 까지</w>
물티슈 로</w>
물어 보고</w>
물 이
문의 하면</w>
문의 글</w>
문 제가
무난 합니다.
무난 한거</w>
무 니
못입었 지만</w>
못 하게</w>
몹 시</w>
몸매 도</w>
목 요일에</w>
목 까지</w>
모르겠 으나</w>
모르겟 지만</w>
모두 다</w>
면 도
멋 내
머리 끈</w>
매 니
맞 을듯</w>
맘에안 들어요</w>
맘에들어요 ~~~</w>
맘에들어요 ~^^</w>
말씀 처럼</w>
말랑 말랑</w>
많 지</w>
만큼 은
만족해요 .
만족합니당 !</w>
만족스럽 게</w>
만족 했어요</w>
만족 했
만족 합
만족 입니다~</w>
만족 ^^</w>
만 지
만 은</w>
만 들어서</w>
막 입기좋아요</w>
마른 편인데도</w>
마른 55
마 저</w>
루즈핏 이고</w>
려 구여</w>
레드 가</w>
레 드는</w>
라쿤 털</w>
뚜 루</w>
떨어지 네요.</w>
떨어 질</w>
때 타
딱이 네요!</w>
딱이 구</w>
딱 임</w>
딱 가격만큼
따뜻할 거같아요</w>
따뜻 은</w>
디자인 입니다</w>
디자인 인데</w>
디 쟌</w>
듯 합니다
들어요 !!!</w>
들 지는</w>
듣 고</w>
득템 했네요</w>
드 린
둬 요</w>
두껍 습니다</w>
두껍 네요.</w>
두개 샀는데</w>
됩 니다.
되었 지만</w>
되어 있는
되 나</w>
돌 려서</w>
돌 려도</w>
돈아까 워요</w>
돈아까 움</w>
돈 값
도 ,</w>
데 다</w>
덮 어서</w>
덩치 있어
덩치 가
덜 하고</w>
더워지 기</w>
더 워</w>
답 게</w>
달라 요...</w>
다른 걸로</w>
다들 이쁘다고
다닐 듯</w>
다니 니</w>
다니 고
다는 ..</w>
다고 들</w>
능 데</w>
늘어 짐</w>
늘어 져서</w>
느려 요
느낌이 구요</w>
느낌 이에요~</w>
느낌 나요</w>
누빔 이</w>
놔 뒀
놓 쳐서</w>
노 노
네이버 페
네오프 렌</w>
네여 ~~</w>
네여 .
네 염</w>
넣어 입어야</w>
넣 으니</w>
넘어 가
넘 이쁘고</w>
넉넉 한데</w>
너무 편해서</w>
너무 예뻐용</w>
너무 길고</w>
너 어무</w>
너 뮤
냐 는</w>
내려 와
내 스타일</w>
내 부</w>
낭 패
납 니다.
남자친구 랑</w>
남방 이랑</w>
남기 는데</w>
날씬해보이 구</w>
날 리고</w>
날 렵
나와 있고</w>
나오 는거</w>
나쁘지않 은데</w>
나갔 다가</w>
나가 는데</w>
나 타
나 요~</w>
나 옵니다</w>
나 는게</w>
끝 단이</w>
끈 에</w>
꾸 겨
꽤 나</w>
께 요~~</w>
께 여</w>
꺼 같아서</w>
꺼 같고</w>
까끌 거리는</w>
길었 음
길 다고</w>
긴가 민
긴 합니다.</w>
긴 함</w>
긴 감이</w>
기장 을</w>
기분 나쁘
기본 인데</w>
기본 이에요</w>
기모 로</w>
기모 라고</w>
기다린 거</w>
기다리 느라</w>
기다렸 네요</w>
기 엽
기 보다</w>
글 쎄</w>
그렇 긴한데</w>
그렇 고
그런 건
그럭저럭 .</w>
그닥 ..
그 다음날</w>
그 날</w>
굿 뜨</w>
구입한 지</w>
구입 한거</w>
구매해 봤
구매하 셔도</w>
구매하 러올
구매 하시길</w>
구매 하시길
구 찮
구 려
교 체
괸 찬
괞 찮
괜찮은 편
괜찮은 데,</w>
괜찮았 습니다</w>
괜 한</w>
괜 챦
공 지</w>
고싶 어요</w>
고민 많이
고객 님
고 요~</w>
고 를
고 른
계절 이</w>
계 획
겨울용 은</w>
겐 차
게 요!!</w>
겉 감
것같아요 ~^^</w>
걸 어도</w>
거리 네요</w>
거기 다가</w>
거 추
걍 그래요</w>
개나 리
같아요 ...
같 으나</w>
같 네요..
강 츄
감사 드립
감 당
갈 색</w>
갈 것</w>
간절기 에
간 편하고</w>
가죽 으로</w>
가을 로</w>
가슴 쪽
가격대비 만족합니다</w>
가격대비 ..</w>
가격 의</w>
가 야
가 보
가 리는</w>
가 량</w>
v k
p x
l j
do y
cm 에</w>
a  
a i
^ 0
^0 ^</w>
U R
S o
M 은</w>
Goo d
77 사이즈
6 천원
6 9
55 입는</w>
49 49
48 48
4 일만에</w>
3 번</w>
3 7
3 /
2 장
1주 일
166 에</w>
162 에</w>
11 일</w>
1 ~
1 .</w>
/8 0</w>
,, ,,
* _
히 고</w>
흰 바지</w>
흠 ...
흔 하지않고</w>
후기 에서</w>
효 과</w>
활동 하기
확인 하세요</w>
화장 품
화사 해보여요</w>
화사 한
호 불
헐렁 헐렁</w>
헐렁 하네요</w>
허접 함</w>
허접 하고</w>
허술 해서</w>
허리 에
허리 부분은</w>
했 습니다~</w>
했 다면</w>
해주 셔서
해외 배송도</w>
해야 겠어요.</w>
해서 인지</w>
해보이 긴</w>
해 오</w>
해 영</w>
함 니다</w>
할 것같
한번 은</w>
한 진
한 싸이즈</w>
한 계절</w>
하지않 고
하의 를</w>
하였 습니다.</w>
하실 듯</w>
하시 고
하비 라</w>
하긴 했는데</w>
하 지가</w>
핑크 샀는데</w>
핑크 를</w>
플레 어
플라 스
푹신 해서</w>
푸 대자
폭신 하고</w>
평 균</w>
편할 거같아요</w>
편하 기는</w>
팩 트
팔 통도</w>
팔 고</w>
파란 색이</w>
티 는
튿어 져서</w>
특별 히</w>
트위 드
트레이닝 복
트 더
통 으로</w>
텐 데요</w>
테 슬
터 진
클 로</w>
큰 사이즈
크기 가
큐 빅</w>
코트 안에
컷팅 도</w>
커 요~~</w>
커 요.
카라 부분</w>
칭 찬</w>
친구 가
친 정
치마 와</w>
치 면</w>
취소 할까</w>
춥 네요</w>
총 길이가</w>
초록 색
처리 해주셔서</w>
처리 를</w>
처 박아
찾 으신
찾 으시면</w>
착용 하기</w>
차콜 로</w>
차 에</w>
쭉 쭉
쫄 쫄
쫀쫀 하구</w>
짱 !!</w>
지도 않아요</w>
지도 않아서</w>
지갑 도</w>
지 키
지 르
지 독
줄 어서</w>
줄 알앗
주문할 걸</w>
주문한 거라</w>
주문 할까
주 소
좋은 거같아요!</w>
좋아요 이뻐요</w>
좋아요 ...
좋아요 !!!
좋아 하고</w>
좋아 여.</w>
좋습니다 ~^^</w>
좋습니다 ..
좋 지는
좋 구요!</w>
좁 아서
좀 많이</w>
좀 .</w>
조아조아 조아조아</w>
조아요조아요조아요조아요 조아요조아요조아요조아요
조아요~~ 쪼아요</w>
조금만 더</w>
조 을
졌 다</w>
정사이즈 입니다</w>
정 돈
전 이지만</w>
적당 한듯
적당 한것</w>
적 은
적 으론</w>
저 서</w>
쟈 켓
재 입고
장 점</w>
장 식</w>
잡아줘 요</w>
잘어울릴 것같아요</w>
잘신 겠습니다</w>
잘받았습니다 잘받았습니다</w>
잘받았 어요^^</w>
잘받았 습니다!</w>
잘못 입음</w>
잘못 사면</w>
잘맞 는데</w>
잘 빠졌어요</w>
잘 붙
작년 에도</w>
작년 부터</w>
작게 나왓
자체 는
자 른
잊 을
있으 면서</w>
있었 음
있어요 ..
있 는데,</w>
있 기</w>
있 구요~</w>
잇 으면</w>
입을수 도</w>
입을수 는</w>
입을만 한데</w>
입은 게</w>
입으려고 샀어요</w>
입으려 구용</w>
입으려 구요..</w>
입으 렵니다</w>
입으 랴
입어야할듯 ..</w>
입어야 합니다</w>
입어야 할거</w>
입어보 려고</w>
입어 주면</w>
입어 봐서</w>
입다 보면
입고 나니</w>
입 진
입 술
입 겟
일주일 은</w>
일자 핏
일자 바지
일자 가</w>
인생 템
인데 ...
이용할 께요</w>
이었 습니다.</w>
이상 해요
이쁠 듯요</w>
이쁠 거같
이쁜 데요</w>
이쁘고 편해요</w>
이쁘 면</w>
이뻐요 ~~~^^</w>
이뻐요 ...
이뻐 영
이런 거
이라 는데</w>
이라 기엔</w>
이도 저도</w>
이 뻥
이 면서</w>
이 네요^^</w>
을 수
은 안
으면 ...</w>
유 치
유 지
웠 으면</w>
월 요일에</w>
원하 신다면</w>
원단 이네요</w>
원단 의</w>
원 했던
움 ..</w>
용 ..
요긴 하게</w>
요 번
외출 시</w>
외 관
완전 빠르고</w>
와이드 팬츠</w>
옷은 예뻐요</w>
옷 인지</w>
옷 인것</w>
옷 인</w>
옷 안에</w>
옷 들도</w>
옷 같은</w>
옵 션
올려주 세
올라 온
온라인 으로</w>
온 라인</w>
옥 스포
오히 려
오오 옹</w>
오오 오오</w>
오래기다렸 지만</w>
오 랜</w>
오 구</w>
예뻐용 !</w>
예뻐 욤</w>
예민 해서</w>
예 요~~
예 요!!</w>
예 술</w>
옆 에
옆 선이</w>
엿 어요</w>
염 려
연 그레이</w>
역 쉬</w>
여행 갈
여유 있어서</w>
여성스러 운
여름 은</w>
여기 옷은</w>
여 태</w>
여 친
여 .
엠 보
에 에
에 들어요</w>
엉망진 창
었 다</w>
없어 보여요</w>
엄청 엄청</w>
언니 한테</w>
어정쩡 하네요</w>
어용 .</w>
어둡 습니다.</w>
어 져
얘 기</w>
얇아요 !</w>
얇아 도</w>
얇 으
얇 기는</w>
야 요</w>
애매 해요.</w>
애매 한데</w>
았 음</w>
알 겠어요</w>
않았 네요</w>
않 으나</w>
않 구요.</w>
안되 있고</w>
안되 는데</w>
안 입음</w>
안 입은
안 심
안 삿
안 보여서</w>
안 된</w>
아주 좋네요</w>
아주 맘에들어요</w>
아저 씨</w>
아이 들</w>
아슬 아슬
아쉽 지만
아래 에</w>
아닌 게</w>
아닌 가요</w>
아니 구요
아까 운</w>
아 이랑</w>
아 방
아 ...
쓸 께요</w>
쓰 는
쌀쌀 해지면</w>
싼 가격</w>
싸보이 지도</w>
싸구려 같
싸 보이고</w>
싶었 던</w>
싶 네요.
십 니다</w>
싫 은데</w>
실제 랑</w>
실밥 이
실망 이예요</w>
실 듯</w>
실 도</w>
신을 만</w>
신발 도
신경쓰 여요</w>
신경써 주시
신경 안
신 뢰
신 던</w>
신 는데
신 기는</w>
시키 는게</w>
시원 한데</w>
시원 하구</w>
시원 하
시간 이
습니당 !</w>
슴 다</w>
스크래 치
스커트 와</w>
스웨 터
스몰 사이즈</w>
스 터
수선 해야</w>
숄더 백</w>
솔직 후기</w>
소매 나</w>
소 프
세요 ..</w>
세련 되</w>
섬 유</w>
선택 해서</w>
선물 도</w>
생길 거</w>
생각한 대로</w>
생각중 입니다</w>
생각보다는 ...</w>
생각보다 많이
생각 햇는데</w>
생 긴
색이 이뻐요</w>
색상 입니다.</w>
색 임</w>
새 옷이라</w>
상품평 이
상체 는</w>
상 대
샀 어요~~</w>
삼 주
살까 봐요</w>
살 찐
살 려고</w>
사진 속</w>
사이즈 표
사이즈 업
사시 는게</w>
사람 인데</w>
사람 이
사 줫는데</w>
사 셔야</w>
사 면
사 다
뻣뻣 한
빨래 를</w>
빠지 는거</w>
빠져 요.</w>
빠 집
빠 져</w>
빠 루
빌 려
비해 선</w>
비칩 니다.</w>
비쳐 요.</w>
비싼 거같아요</w>
비 린
블루 로</w>
블라우스 를</w>
브 라</w>
불량 이네요</w>
불 친절
분 홍</w>
부츠컷 이</w>
부분 은
부담 이</w>
부 하지</w>
봄 이랑</w>
봄 엔</w>
봄 .</w>
보통 입니다~</w>
보통 입니다
보통 으로</w>
보이 기도
보내주셨 네요</w>
보기 보다
보 세요</w>
보 름</w>
보 가</w>
별루 네요.</w>
별로 인데</w>
별로 여서</w>
별로 ....</w>
변형 도</w>
베이지 와</w>
베이지 를</w>
벌어 져요</w>
버 스</w>
버 림
버 릴</w>
배송빨라 요~</w>
배송도 빨라요</w>
배송겁나 느림</w>
배송 준비
배송 되어</w>
배송 되서</w>
배송 개느림</w>
배꼽 티
배 는</w>
밝 아</w>
받았 으니</w>
받았 어요~~</w>
받았 어요^^</w>
받 침
받 고싶
반짝 이는</w>
반 으로</w>
바지 통
바지 보단</w>
바 랄
밀 려
미친 듯이</w>
미세 하게</w>
뭐 지
뭉 쳐
물 씬</w>
문의 드렸
묶 어</w>
무난 해요~~</w>
무난 합니다
무광 이라</w>
무겁 긴하지만</w>
무거운 감이</w>
무거 움</w>
무 서
못입을 듯해요</w>
못 합니다</w>
못 할</w>
못 하고
목 쪽이</w>
모델핏 처럼</w>
모 던
몇 군데</w>
명 품
메 세
멋 지
매치 하니</w>
매듭 이</w>
매 장</w>
맞아요 .
맞 는지</w>
맞 나
맞 구요.</w>
망설 였
망설 여
맘에들어요 ~~
맘에드 러
맘 이
말 자</w>
말 린
많 길래</w>
만족 .
만 합니다</w>
만 났
만 .</w>
르 르</w>
려 구요
레 몬
라운드 가</w>
라벨 이</w>
라기 보단</w>
라 벨</w>
라 ..</w>
뜯어 지
뜯어 져</w>
뜯 고</w>
뚱뚱 한
딱이 구요</w>
딱맞 았
딱 이에요.</w>
딱 .</w>
따뜻하고 좋아요</w>
따뜻 해요~~</w>
따뜻 해보이고</w>
따뜻 한거</w>
따듯 해서</w>
따듯 합니다</w>
듯 합니다.
들어 해요</w>
들 엇
들 만</w>
들 릴
들 기에</w>
드러 나서</w>
뒷 굽이</w>
뒤 늦게</w>
두번 이나</w>
두껍 긴한데</w>
두껍 긴</w>
두꺼운 건</w>
두개 째
될 듯합니다</w>
될 거같아요
되었 으면</w>
되 면서</w>
되 는것</w>
되 긴</w>
도톰 하고
도 와
더울 듯
더 운데</w>
대박 이에요</w>
대박 이네요</w>
대 학생
대 략
닿 으면</w>
답변 해주셔서</w>
담 요
달려 있는</w>
달랐 지만</w>
달라 요~</w>
달라 요
달 려</w>
다행 이에요</w>
다리 도
다른색 으로도</w>
다른 색상도
다닐 것같아요</w>
다는 점</w>
다는 점
다녔 어요
다 행</w>
다 고는</w>
늦었 고</w>
늦어진 다는</w>
늘어날 듯</w>
늘어나 긴</w>
늘어 질
는데 ~</w>
는거 는</w>
느려 요~</w>
느낌 나서</w>
느낌 나
느낌 !</w>
느껴 졌
눌 려서</w>
눈 으로</w>
높 은데</w>
놀랐 습니다</w>
놀 이</w>
놀 라고</w>
노트 북</w>
노란 색이</w>
노 란</w>
넥 라인</w>
네이비 라</w>
네 네
넣어 서
넓 어요.</w>
너무 맘에</w>
너무 너무이뻐요</w>
너~~~~ 무</w>
내용 물
내 일
내 요
내 렸
남자친구 한테</w>
날씬 하면</w>
날씬 이
날 카
난 지금
나요 ??</w>
나머 지
나 팔</w>
끝 부분</w>
끝 내
끝 나고</w>
끄 떡
꼼꼼 히
껀 데</w>
꺼 같은</w>
까슬 거려서</w>
길이도 길고</w>
길이 로</w>
길 들여
길 구</w>
긴한데 ,</w>
긴 편이
기회 가</w>
기본템 이라</w>
기본 에</w>
기다려 야</w>
기 보단</w>
그레이 에</w>
그럼 .</w>
그럭저럭 입니다</w>
그냥그래 요..
그냥그 랴요</w>
그냥 입습니다</w>
그거 빼면</w>
그 점
그 부분만</w>
그 가격만큼
귀염 귀염
귀여 워</w>
굿 이예요</w>
굿 ~~
굿 !!!</w>
굳 굳굳</w>
굳 !!</w>
군 대</w>
구매확정 합니다.</w>
구매했 어요^^</w>
구매했 습니다~</w>
구매평 처럼</w>
구매평 이
구매 해야</w>
구매 하기</w>
구 우우
구 영</w>
구 여.</w>
구 성
구 가</w>
구 ...</w>
교환 할까</w>
괜찬 은
괜찬 고</w>
관 리가</w>
골 라서</w>
고 고
고 ....
경비 실에</w>
겠 지만
겠 습니다.
것같 네요~</w>
것 만큼</w>
걸치 기도</w>
걸린 다고</w>
걸렸 어요..</w>
건 강
거같아 오</w>
거같 구</w>
거 임</w>
같은 데,</w>
같 으
같 네요...</w>
갑 니다
감사 했어요</w>
간신 히</w>
각 각
가을 용</w>
가슴 골
가성비 짱</w>
가방 자체는</w>
가려 져서</w>
가디건 이네요</w>
가까 워
가격이 저렴해서</w>
가격도 싸고</w>
가격대비 해</w>
가격대비 .
가격 정도의</w>
가 시
가 기</w>
ㆍ ㆍ
~~~~ !!!!</w>
~. ~.
~! ~!</w>
x t
sj sj
si z
s 는</w>
s 가</w>
m 이</w>
m 을</w>
e g
dk k
cm 정도</w>
W D
L 사이즈가</w>
? !
: &
55반 인데</w>
55 ~
5 3</w>
3 가지</w>
2주 는</w>
27 인데</w>
25 -
2 XL
2 00
2 .</w>
2 .
180 /7
17 1</w>
161 에</w>
15 0
12345678 90
1 개</w>
/4 8</w>
*♡ *♡
히 히히</w>
흔 히</w>
흔 한
흐느 적
흐 흐</w>
후기 들처럼</w>
회색 빛이</w>
활동 하기도</w>
확인 안하고</w>
화면 과는</w>
혼 방
형 이라</w>
헌 데</w>
허술 하고</w>
했 어요...</w>
했 다</w>
해서 ..
해도 해도</w>
해 준</w>
해 물
합니다 ...
할듯 해요.</w>
할 때나</w>
할 것같네요</w>
할 걸
한치수 작게</w>
한철 입기
한번 만</w>
한달 이</w>
한 통
한 쪽으로</w>
한 줄</w>
한 옷</w>
한 ?</w>
하지만 .</w>
하이웨이 스트
하의 는</w>
하얗 고</w>
하얗 게</w>
하신 거</w>
하세요 ~~</w>
하루 정도</w>
하루 입었는데</w>
하다 가
하다 .</w>
하늘하늘 해서</w>
하는 게
하네요 ....</w>
하구 ..</w>
하고 있어요</w>
하 진않네요</w>
하 진않고</w>
하 네용
하 ...</w>
핑크 고</w>
핏은 이뻐요</w>
핏 이뻐요</w>
피 트
프라 다
품절 이라
품 에</w>
표시 가</w>
포장 에</w>
포장 상태</w>
평상 시에</w>
평범 하고</w>
평 들이</w>
편하고 좋네요</w>
편하 네요~~</w>
편 할듯</w>
편 에</w>
펴 서</w>
패딩 이나</w>
팔 면</w>
파우 치가</w>
파세요 ~~~</w>
파 진
티셔츠 에요</w>
튼튼 하네요</w>
트 러
토 요일에</w>
텐데 ..
테 니</w>
택배 를</w>
탓 에</w>
탄 탄</w>
탁월 한</w>
타이트 하지</w>
타이트 하게
타이 즈
크림 색</w>
크리 스마
크 더라구요</w>
크 구</w>
코트 로</w>
코코 아</w>
코디 해
코디 컷
코디 에도</w>
코디 에</w>
컬러 를</w>
커플 룩으로</w>
커서 그런지</w>
커 피
커 여</w>
칼 배송이
카키 를</w>
카 타
칙칙 하고</w>
츄 리닝</w>
츄 리닝
추천안 해요</w>
추천안 합니다</w>
추워 져서
추울 거</w>
추가 구매</w>
추가 구매
추 위에</w>
추 리닝
촤르 륵</w>
촌스러 울
초 여름에</w>
청바지 를</w>
청바지 랑
첨 이라</w>
챠 콜</w>
참고 하시길
참 았
착 해요</w>
찢어 지
쪽 에서</w>
짱 ~</w>
짧은 지</w>
짧은 감은</w>
짧 네요
짧 구</w>
집 업
질렀 는데</w>
진청 은</w>
진짜 조아요조아요조아요
진짜 이쁘네요</w>
진않 음</w>
지연 되서</w>
지않 아요
지않 습니다</w>
지 는데</w>
중 이라</w>
중 반
줄여 야
줄어 든
주문했 었는데</w>
주문했 고</w>
주문하 길</w>
주 얼
죠 아용</w>
좋을 듯하네요</w>
좋을 것같아요~</w>
좋은 거같아요.</w>
좋았 어요~
좋았 네요</w>
좋아요 조아</w>
좋아요 오오오</w>
좋아 합니다</w>
좋네요 ^^
좋고 요.</w>
좋 진않
좋 네오</w>
좋 고..</w>
종 이</w>
좀 ....</w>
조아요 오오</w>
조심 히
조 잡
조 리
졌 네요.</w>
제품 과</w>
제질 이
제가 찾던
제 민
제민 천
정장 이나</w>
정성 스런</w>
정도 도</w>
정도 고</w>
정 직
정 신
정 성이</w>
접 고</w>
절 대로</w>
전화 해서</w>
전부 다</w>
적당 함</w>
적극추천 !</w>
적극추천 !!</w>
저렴 하면</w>
재질 좋아요</w>
재질 인줄</w>
재 주문</w>
재 봉</w>
재 구매했어요~</w>
재 구매했습니다.</w>
잠 옷</w>
잘입고 있습니다.</w>
잘입고 다닙니다</w>
잘입 게
잘어울 림</w>
잘샀 어용</w>
잘샀 다고</w>
잘 일어날
잘 매고
잖 아요.</w>
작 아요~</w>
작 살
자 칫
있어 보여요</w>
있다 니</w>
있 엇
있 습니다^^</w>
있 다고
있 네여</w>
있 고.</w>
입을수 있
입을 랍니다</w>
입은 건</w>
입어질 것같아요</w>
입어야 되
입어보 구</w>
입어 져요</w>
입니다 ~^^</w>
입는 분들은</w>
입고지연 으로</w>
입고다니 기
입고다녀 서</w>
입고 있어요
입고 다니고</w>
입 어요!</w>
일어나 지</w>
일어나 긴</w>
일 할때
일 본
인가 ?</w>
인 치
인 요</w>
인 듯합니다</w>
이예 요.
이상 해</w>
이상 해
이쁩니다 요</w>
이쁩니다 ~~</w>
이쁩 니
이쁜 듯
이뻐요 오
이뻐요 !!
이뻐 유</w>
이뻐 여~~</w>
이 정도로</w>
이 보다</w>
이 면
이 만하면</w>
이 고요</w>
이 .
으 러</w>
유 럽
원피스 위에</w>
원단 좋고</w>
움직 임이</w>
움직 임
움직 이면</w>
우 네요</w>
용 서
용 도</w>
용 ...</w>
욤 ~</w>
요 가
외투 안에</w>
왔 네여</w>
완전 이쁨</w>
완전 예뻐요</w>
완벽 한</w>
옷이 라서</w>
옷 인줄</w>
올려 도</w>
올라 가는</w>
올 해도</w>
온 건</w>
오묘 한</w>
오래걸 림
오늘 도</w>
예쁜 상품</w>
예쁜 건</w>
예쁘 니</w>
예뻤 을
예뻐용 ^^</w>
예 여</w>
예 뿜</w>
옆 라인이</w>
옆 라인</w>
였 구요</w>
연청 이라</w>
여리여리 하게</w>
여름에 입기
여름 빼고</w>
여 쭤
에코백 이</w>
에코백 보다</w>
에서 나</w>
에 휴
엉성 하고</w>
엉덩이 까지</w>
없을 듯
없었 고</w>
없 잖
없 애
없 네용</w>
없 구요.</w>
엄청 나요</w>
언제 오
언니 처럼</w>
어중간 하고</w>
어울려 요!</w>
어요 ~!</w>
어려 워요</w>
어려 운
어디 든
어둡 지도</w>
어깨 쪽</w>
어깨 에서</w>
어 중간</w>
어 중
어 도
어 께
어 깡
얇 으면</w>
얇 았
얇 다고</w>
약 한
약 하고</w>
야할 지</w>
애매 하네요.</w>
앞코 가
앞 으로는</w>
앞 부분에</w>
앞 뒤가</w>
앙고라 라</w>
알았 는데,</w>
않 지만
않 네여</w>
안입어 봤
안돼 요</w>
안나 올
안나 는데</w>
안 했을
안 하시고</w>
안 입었는데</w>
안 예쁘고</w>
안 아파요</w>
안 심하고</w>
안 맞는
안 들지만</w>
악 세
아픈 데</w>
아프 긴한데</w>
아프 긴</w>
아파 요.</w>
아직 입어보진않았지만</w>
아쉽 ..</w>
아쉬운 점
아니에 요..</w>
아 ,</w>
쏘쏘 하네요</w>
써 주세요</w>
싼맛에 입어요</w>
싸이 하이
싸구려 티가</w>
싸 쥬
싸 보임</w>
싸 면</w>
심 심
싫 어</w>
실밥 정리</w>
실망스럽 네요.</w>
실 화
실 패</w>
실 오
실 버</w>
신으 려면</w>
신었 는데도</w>
신어보 진</w>
신경쓰 이네요</w>
신경써 주세요</w>
신 기도</w>
시킨 건데</w>
시원 함</w>
시 퍼
시 기</w>
슺 니다</w>
습니당 !!</w>
슬림 해서</w>
슬 프
스탈 은</w>
스타일 은
스카 프</w>
스러 워서</w>
수납력 도</w>
수 있겠어요</w>
쇼 퍼
송 송</w>
손 목이</w>
속 은
속 옷도</w>
소재 ,</w>
소 녀
셨 는데</w>
셋트 로</w>
센 스</w>
세탁 이</w>
세 번째
설 마</w>
선택 이</w>
생길 것</w>
생각하 던
생각중 이에요</w>
생각 한것</w>
생각 하고
생각 과는</w>
색상 이네요</w>
색상 두</w>
새 하얀</w>
새 신발</w>
상품평 도</w>
샀 어요^^</w>
샀 습니다
삿 다가</w>
살 아요</w>
사진 이
사진 속
사진 그대
사이즈가 ..</w>
사이즈 입니다</w>
사이즈 라고</w>
사이 가</w>
사야 지</w>
사알 짝</w>
사람 을</w>
사고싶 어요.</w>
사고 파
사 도
사 긴
뿜 뿜
뽀송 뽀송
빨랐 구요~</w>
빨랐 고
빨 면
빠른편이 구요</w>
빠른 편</w>
빠른 편
빠른 배송이
빠르 구여</w>
빛 바랜</w>
비침 이
비치 는데</w>
비추 합니다.</w>
비싸 도</w>
비싸 다고</w>
비 칠</w>
비 즈</w>
비 쌉
블루 도</w>
블랙 구매</w>
브이넥 도</w>
브라우 스</w>
붙어 있는</w>
붙 이고</w>
불편함 을</w>
불편하 지않고</w>
불편 해</w>
분위 기가</w>
부츠 에</w>
부족 한</w>
부드러 움</w>
봣 어요</w>
봄 날씨에</w>
볼 까</w>
본드 칠
보풀 일어날
보일 수도</w>
보이는 대로</w>
보이는 것과</w>
보온 도</w>
보여 요...</w>
보기 만
보 석
보 는데</w>
보 는게</w>
보 냄</w>
별로 일
별로 네여</w>
변형 이</w>
벽돌 색</w>
벽돌 색
베이지 색으로</w>
베이지 ?</w>
벌어 져
버킷 백</w>
버렸 어요.</w>
버건 디</w>
버 리네요</w>
배송빨라 요.</w>
배송빨라 여</w>
배송도 빨라서</w>
배송 전에</w>
배송 빨랐구요</w>
배꼽 이</w>
배 소
배 꼽</w>
밝은 색</w>
발바닥 도</w>
발 은
받쳐 입으니</w>
받았 어요.
받았 네요..</w>
받아 봤는데</w>
받아 보고
받 지</w>
반품할까 하다가</w>
반 폴라
반 딱
반 들
박음질 이
박음 선이</w>
박시 하니</w>
박스 티</w>
바캉 스
바지 인데</w>
바로 바로</w>
밑 부분이</w>
믹 스
미디 가</w>
미끄러 워서</w>
뭣 보다</w>
뭐 라고</w>
물 품</w>
물 빠진
묻어 있고</w>
문의 해도</w>
문의 하고</w>
무지 무지</w>
무릎 정도</w>
무료 배송이
무난 히
무난 하면서</w>
무난 하니
못 하는
못 사
못 봤
몬 가</w>
목 선</w>
모르겠 지만
모르 겟네요</w>
모르 게
모델 이랑</w>
몇 년
먹 을
매칭 이</w>
매치 하기도</w>
매 서</w>
맞 나</w>
맞 고요</w>
맞 고,</w>
맘에드 네요~</w>
말 고는
많이 파시고</w>
많이 파시
만족합니다 ~~~</w>
만족합니다 !!!</w>
만족합니 딘</w>
만족스러 운데</w>
만족 해</w>
만족 하면서</w>
만족 입니다.
만족 을</w>
만족 스런</w>
만들어 진</w>
만 더</w>
만 ...</w>
마찬가지 로</w>
마음에 드는데</w>
마니 파세
마감 부분이</w>
마 인
리 는
르 륵</w>
루즈 해요</w>
롤 업해서</w>
로즐 리</w>
로 드
력 이</w>
려 니
레드 로</w>
레깅스 도</w>
러플 이</w>
라이 더</w>
라는 건지</w>
똑같 네요.</w>
똑 닥
또 샀어요</w>
땀 차
딸 아이</w>
딱이 네요
딱 이에요~</w>
딱 !
따뜻하 긴해요</w>
따뜻 해요^^</w>
따뜻 하기
따듯 하네요</w>
따갑 지</w>
따 듯</w>
디테일 은</w>
디자인 이나
디자인 두</w>
들었 네요</w>
들어요 ~~^^</w>
들어요 ~!</w>
들 도
들 구</w>
드 림</w>
드 는게</w>
뒷꿈 치도</w>
뒤집 어</w>
둘레 도</w>
두껍 지도않고</w>
두 겹
됬 어요</w>
될 거같네요</w>
된 다</w>
되 진</w>
됐 어요.</w>
동일 하게</w>
돌 리고</w>
독특 해요</w>
도 없이</w>
도 도</w>
데일리 하게</w>
덥 겠어요</w>
더운 감이</w>
더군 요
더 이쁘네요</w>
대만족 !!</w>
당분 간</w>
답변 해주시고</w>
답 니다.
담에 또
단정 한</w>
다행 입니다</w>
다이어 트</w>
다음 주</w>
다림 질도</w>
다름 .</w>
다른 컬러
다른 분들이</w>
다닐 듯
다니 긴</w>
다녔 네요</w>
다 맘에들어요</w>
다 !</w>
니트 티</w>
니트 인데</w>
니트 소재
니까 ..</w>
늦어졌 지만</w>
늦 을</w>
늦 네요.</w>
는 지..</w>
는 좀
는 듯
느리 긴했지만</w>
느리 고,</w>
느렸 네요</w>
느낌 나는</w>
느낌 ~</w>
느낌 ...
눌 렀
눈 여
누 빔</w>
노란 빛이</w>
노 멀
넥 라인도</w>
네이버페 이</w>
네오프 렌
네 모
넘 는
넓 지</w>
넉넉 하지</w>
넉넉 하네요.</w>
너무좋아요 핏도이쁘고</w>
너무 좋아요.</w>
너무 도</w>
너무 느려서</w>
너무 길어서</w>
냄새가 ...</w>
내부 가</w>
내려 오고</w>
내 의
내 요~</w>
낭 낭
남친 도</w>
남 는
날씬해보이 고
날씬 해보입니다</w>
날 려서</w>
날 듯</w>
날 개
나일 론</w>
나왔 습니다.</w>
나와 있어서</w>
나온 듯해요</w>
나갈 때나</w>
나 은</w>
나 뿌
나 빠
나 간</w>
끼 어요</w>
끝 부분이</w>
끊어 질
꽂 혀서</w>
꼐 요</w>
꺼내 서</w>
꺼 는</w>
꺼 같아
깔 고</w>
까칠 한</w>
까슬 거려요</w>
길 어요..</w>
길 어요
길 구요</w>
긴 것</w>
기저귀 가방</w>
기분 좋은</w>
기대한 만큼</w>
기대 에</w>
기대 보다는</w>
기다리 는
기 전</w>
금액 대비
금 요일에</w>
그저 그렇
그저 그런듯</w>
그레이 를</w>
그렇 긴</w>
그런가 ..</w>
그런 지는</w>
그럭저럭 요</w>
그대로 에요~</w>
그냥 은</w>
그냥 그렇
그것 빼고는</w>
그거 만</w>
그 럴</w>
그 것보다</w>
그 걸</w>
귀 요
귀 염</w>
권 장
굿굿 !!</w>
구입 할까</w>
구매했는데 ...
구매했 어용</w>
구매 하시는</w>
구 는</w>
교환 하려다</w>
교환 하려
괴 안
괜춘 합니다</w>
괜찮을 꺼</w>
괜찮은 거같아요~</w>
괜찮았 어요~</w>
괜찮았 어요!</w>
괜찮았 습니다.</w>
괜찮았 고</w>
괜찮 다</w>
과정 이</w>
과 한</w>
고민 했는데
고민 하시는</w>
고마 워요</w>
고려 해서</w>
고급스러 움</w>
고 객</w>
고 ....</w>
결 과
겠 어요!</w>
것만 빼면</w>
것같 구</w>
것 두</w>
것 .</w>
검은 색이랑</w>
검수 해서</w>
검수 하고</w>
걸쳐 서</w>
걸렷 어요</w>
걷 다보면</w>
건지 ...
건 아니지만</w>
걱정 없이</w>
거같 아서
거같 네요
갠찮 네요</w>
개 이쁨</w>
개 월</w>
개 요</w>
같은 옷</w>
같은 걸로</w>
같아요 ~~^^</w>
같아요 ^^
같아요 !!
같 다</w>
같 구요~</w>
강추합니다 강추합니다
강추 해요</w>
갔 어요</w>
갔 다</w>
값 을</w>
감이 있네요</w>
감안 하고
감수 하고</w>
감 .</w>
가죽 이
가을 부터</w>
가오리 핏
가슴 은</w>
가슴 도</w>
가방 이네요</w>
가려 지고</w>
가나다라마 바
가까운 곳</w>
가격대비 짱</w>
가격값 해요</w>
가격 저렴하고</w>
가겨 대비</w>
가 치</w>
가 득</w>
가 녀
♥ ♥</w>
~! @
~ 너무</w>
x s
x g
k k
h j
f lk
f d
e y
dj j
^~ ^</w>
U D
> <
8 일
8 월
77 사이즈</w>
7 6</w>
6 월
50 자
3 2</w>
20 16
17 3</w>
15 3
132 132
11 0</w>
10 월</w>
1 회
1 월
1 번
1 년
1 55인데</w>
1 -
/6 8</w>
-- ;;</w>
) )
! .
힘들 거</w>
힘 없이</w>
힘 드네요.</w>
히 히
흔 치</w>
후회 중
후 에도</w>
활동 성이</w>
환불 이</w>
확실 히
화면상 이랑</w>
화면과 같아요</w>
화면 에서는</w>
화면 만큼</w>
화 요일에</w>
혼 용
허 나</w>
행복 하세요</w>
했 으니</w>
했 으나
했 어요~~</w>
햇 음</w>
해야할 것같아요</w>
해서 그런지</w>
해보이 는데</w>
해보여 요
해 줘야</w>
해 여~</w>
해 당</w>
해 .</w>
항공 점퍼</w>
할수 도
할듯 ...</w>
한철 용</w>
한여름 까지</w>
한번 도
한마 디</w>
한데 도</w>
한달 을</w>
한달 걸림</w>
한 단
하지않 음</w>
하의 랑</w>
하얀 색이</w>
하는 것도</w>
하나 씩
하나 ..</w>
하기 엔
하고싶 은데</w>
하고 좋아요</w>
하고 ,
하 던지</w>
하 다보면</w>
핑크 색이
핑크 색은</w>
핏이 좋아요</w>
핏이 이뻐요</w>
핏도 좋고
플러 스</w>
프리 사이즈인데</w>
프리 라</w>
품 은
풀 리네요</w>
푹신 푹신</w>
폼 도</w>
포인트 가
평 처럼</w>
평 에</w>
편한 것</w>
편하 다고
편하 기도
편이 구요.</w>
편 지
편 입니다.
페이 크</w>
페 인
펀 칭</w>
퍼프 소매
퍼프 가</w>
팔꿈 치</w>
팔 은
팔 랑
판매자님 의</w>
파우치 로</w>
파였 네요</w>
파시 길</w>
파 졌어요</w>
파 이긴</w>
파 네요</w>
티셔츠 도</w>
티 입니다</w>
특이 하고
특별 한</w>
트렌 디
튀 어서</w>
튀 고</w>
퉁 퉁
통통 해</w>
통 을</w>
톤다운 된
톡 으로</w>
토 요일
털 을</w>
터틀 넥</w>
터 졌어요</w>
택배 회사
타이트 합니다.</w>
키큰 분들은</w>
키크 신분들</w>
큽 니다.
클러 치
큰일 날
큰 편인데도</w>
크게 나왔어요</w>
크 다는
크 네요~~</w>
크 네요~
크 고..</w>
퀄리티 가
쿠 션</w>
코트 속에</w>
코디 해서
컬러 와</w>
컬러 감은</w>
커 용</w>
커 보이네요</w>
칼 로</w>
카 메
카 고
칙칙 해요</w>
칙칙 한
치마 는
취소 할까
추천 합니
추천 함
추 웠
최악 임</w>
최고 최고
체 구</w>
첫 구매인데</w>
천 의</w>
천 연
챙 겨</w>
찾 게</w>
참고하세 여</w>
참고 하셔
착용 해보니</w>
차려 입은</w>
찐 한</w>
쫌 만</w>
쫀 득
쪼 이는</w>
쪼 글
짱짱 맨</w>
짱 좋아요</w>
짱 이뻐요</w>
짧 으니</w>
짧 네용</w>
짧 네여</w>
짧 기는</w>
짐 을</w>
질 좋은</w>
진청 이</w>
진작 에</w>
지퍼 나</w>
지않 네요.</w>
지도 않은</w>
지금 입긴</w>
지갑 을</w>
지 났
즐거 운</w>
중국 산</w>
중 순
줄여 야</w>
줄어 듬</w>
줄어 들어서</w>
줄어 든</w>
줄 었어요</w>
줄 도</w>
주시 는</w>
주문 하세요
주 려구요</w>
주 글
죠 ~</w>
죄송 하다는</w>
좋을 거같아요~</w>
좋을 거같아요.</w>
좋은 것같
좋으 네요.
좋으 네요
좋았을 꺼</w>
좋았 어요~~</w>
좋았 겠다</w>
좋아좋아 좋아좋아
좋아요 ....</w>
좋아 하시면</w>
좋아 하시
좋아 하네요.</w>
좋아 아요
좋습니다 ~!</w>
좋습니다 !!!</w>
좋네요 ...</w>
좋 구요~
종 류</w>
조아요 ~~~</w>
조아요 ..</w>
조심 해야겠어요</w>
조심 스럽
제품 들</w>
제민천 하</w>
제 키
제 목
제 게</w>
정확 하게</w>
정 싸이즈</w>
접히 는</w>
접히 는
접 어도</w>
전혀 없고</w>
전체적 인
전 달
적나라 하게</w>
적극추천합니다 ....
적 정
적 어요</w>
저렴해보이 네요</w>
저렴하게 잘샀어요</w>
저렴 하여</w>
저렴 하다
저렴 이로</w>
재봉 이</w>
재구매 해요</w>
장 시간</w>
잡아주 지</w>
잡 기가</w>
잠 글
잘입을게 요!!</w>
잘입고 있어요.</w>
잘쓰 고</w>
잘받았습니다 ~~</w>
잘맞 습니다</w>
잘맞 고
잘 입어지
잘 라</w>
잘 늘어나서</w>
잘 나온
잘 가요</w>
작아 보여요</w>
작 으신분들은</w>
작 네여</w>
자주 는</w>
자꾸 만</w>
자 마</w>
자 리</w>
자 고</w>
있을 꺼같아요</w>
있을 거같아요
있는 부분이</w>
있겠 어요~</w>
있 더라고요</w>
있 고...</w>
잇 을</w>
입을께 요~~</w>
입으시는 분들은</w>
입으 셔야
입으 면서</w>
입었 을때도</w>
입었 어용</w>
입었 습니다.
입어질 거같아요</w>
입어야겠 네요.</w>
입어야 지
입어보 려구요</w>
입니 더</w>
입기 좋아요.</w>
입금 하고</w>
입고벗 을때</w>
입고벗 기</w>
입고나가 면</w>
입고 싶어요</w>
입 습니다..</w>
임 신</w>
임 다</w>
임 !</w>
일주일 이나</w>
일 정도</w>
일 년
인가 봐
인 이</w>
인 디</w>
이예 요~
이에 오</w>
이상 해요.</w>
이상 이
이쁜 지</w>
이쁘네용 ~</w>
이쁘고 .</w>
이쁘 데요</w>
이쁘 긴하네요</w>
이쁘 거나</w>
이뻣 을
이뻐여 ^^</w>
이뻐 욧
이뻐 오</w>
이번 에
이런 옷은</w>
이라기 보다</w>
이라 도
이 지만
이 였어요</w>
이 네요~
이 네요..
이 것보다</w>
이 가격</w>
이 가
의 류
음 ~~</w>
을때 가</w>
을 정도로</w>
은 거
유니크 하고</w>
유니 클로</w>
유 독</w>
웰 론
웬 만
원피스 로</w>
원플원 이라</w>
원플러 스</w>
원래 는</w>
원 이라</w>
움 을</w>
용 이
용 ~~
용 !!!</w>
욤 !</w>
요~~ !</w>
요 용</w>
외출 복으로</w>
왜 케
왔 어요...</w>
왔 어요!</w>
왔 습니다.
왔 네요
완전 편해요</w>
완전 편하고</w>
완전 만족합니다</w>
와인 색이</w>
와이 셔츠
옷 재질이</w>
옷 자체</w>
옷 이쁘네요</w>
옷 ..</w>
올라 와</w>
올 리네요</w>
올 겨울
오버 사이즈라</w>
오른 쪽이</w>
오래 입을
오 후</w>
오 빠
오 고
예전 부터</w>
예쁘 지도</w>
예뻤 는데</w>
예뻐요 ~!!</w>
옆 트임</w>
열 받
연락 없이</w>
연 출</w>
여행 용</w>
여행 갈때
여름에 도
여름 옷</w>
여름 부터</w>
여름 가디건</w>
여러 장</w>
여러 벌</w>
여러 번
여기서 만</w>
여 튼
에 요..
에 러
에 겐
엉성 해서</w>
엉망 입니다.</w>
엉덩이 쪽이</w>
엉 뚱
없는 걸로</w>
없 더라구요</w>
없 다면</w>
없 네요..
엄청 빠르고</w>
어쩔수 없지만</w>
어정쩡 한
어요 ~~^^</w>
어색 한</w>
어머니 가</w>
어려 운데</w>
어떻게 보면</w>
어깨 에
어 케</w>
어 짜
어 질
어 어</w>
어 리
어 딜
얇은 편인데</w>
얇은 편이고</w>
얇은 듯</w>
얇은 게</w>
얇아요 ..
얇 구</w>
약 하네요</w>
야할 듯요</w>
애매 하지만</w>
애나 멜
압 박
않 습니다
않 고.</w>
안타 까
안정 감</w>
안나 고
안 했
안 좋
안 입는
안 어울려요</w>
안 비치고</w>
안 들어가서</w>
안 닫
안 남
아직 입어보진</w>
아이보리 와</w>
아아 아</w>
아쉽 네요.
아쉬 워서</w>
아무 렇게
아무렇게 나</w>
아무 곳
아닌 데..</w>
아닌 것이</w>
아닌 거같고</w>
아니였 지만</w>
아니라 서
아니라 면</w>
아니 니까</w>
아니 고...</w>
아니 고..
아 쥬
아 여
아 끼
쓸만 합니다</w>
쓸 만해요</w>
쓰 려
쏘쏘 ~</w>
싼티나 요.</w>
싼티 납니다</w>
싸구려 티</w>
싸구려 같아요</w>
싸 길래</w>
싶 어요^^</w>
실물 이더
실망 시키
실망 .</w>
실 수</w>
신어 야겠어요</w>
신경써 야</w>
신 습니다</w>
시켯 더니</w>
시즌 에</w>
시간 은</w>
슬림 핏이라</w>
스팽글 도</w>
스판끼 있어서</w>
스판 이라서</w>
스팀 다리미로</w>
스티 커
스타일 이나</w>
스크레 치가</w>
스 프
쉽 지</w>
쉽 게
숩 니다</w>
숙 이면</w>
수선집 가서</w>
수선 해
수납 은</w>
수 있고</w>
수 요일에</w>
수 술</w>
쇼핑몰 에</w>
손편지 에</w>
손가 락
소매 부분은</w>
소매 는
소매 길이</w>
세요 ^^</w>
세요 !</w>
세련 되어</w>
세 미</w>
세 무
섬유 유연
섞 여서</w>
서 류
생각했던것 보다
생각했 는데
생각보다 ...</w>
생각 만큼
색상 과는</w>
색깔 이라</w>
색감 에</w>
새 거라</w>
상품 이네요</w>
상태 라</w>
상체 에</w>
상세 컷
상담 해주셔서</w>
상 이
샀는데 ...
샀 냐
살 지</w>
살 수</w>
살 꺼
산뜻 하게</w>
산거 라서</w>
사탕 도</w>
사준 건데</w>
사세요 !!</w>
사드렸 어요</w>
사고싶 은데</w>
사 셔
사 보고</w>
사 는게
빵빵 한</w>
빨래 해도</w>
빨랐 지만</w>
빨랐 고요</w>
빨랐 고,</w>
빠지 지만</w>
빠지 네요.</w>
빠르 네요!</w>
빠 집니다.</w>
비치 지만</w>
비싸 보이
비슷 합니다</w>
비교 해보고</w>
비 쌈
비 뚤
블루 종
블루 색상</w>
블랙 했는데</w>
블랙 구매했는데</w>
붙 은</w>
불편하 지는</w>
불편 해요..</w>
불편 .</w>
불 친절</w>
불 랙
부해보이 지않고</w>
부해보이 지만</w>
부족 으로</w>
부드럽 긴한데</w>
부드러워 서
부담스러 워요</w>
부 탁</w>
부 착
봤 어요.</w>
봐 서
봅 니다
봄, 가을에</w>
봄 에나</w>
봄 날에</w>
볼 은</w>
볼 게요</w>
본드 로</w>
본드 가</w>
복 불
보통 인
보이 면서</w>
보여 요~
보여 요^^</w>
보여 여</w>
보시 는
보들보들 해요</w>
보는거 와</w>
보는거 랑
보냈 다고</w>
보내주 시면</w>
보내주 셧
보내 달라고</w>
보내 달라
보 카
보 지도</w>
보 긴</w>
보 게</w>
별루 ..</w>
별로였 어요.</w>
별로 인것</w>
별로 인거</w>
별로 라서</w>
베리 굿</w>
번창하세 여</w>
버리 기</w>
버렸 습니다</w>
배송 해주
배송 빨리
배송 ...</w>
방 치
밝 지도</w>
발목 에</w>
발견 했는데</w>
받쳐 입으려고</w>
받쳐 서</w>
받았습니다 ~~</w>
받았 을때
반품할려 다가</w>
반품 했을
반품 하려고</w>
반품 안함</w>
반 드
반드 시</w>
반 갑
바지 입니다.</w>
바지 입고</w>
바스락 거리는</w>
바람 불
바람 도</w>
바 꿀
밑단 이
뭔 가요</w>
뭐 랄까
뭐 라</w>
뭐 ..
물어 보네요</w>
물 집이</w>
묶 는
무엇 보다
무리 없이</w>
무늬 는</w>
무난 해여</w>
무난 하구요</w>
무 료</w>
못 했네요</w>
목 선
모임 에</w>
몇 달
면 티에</w>
면 ...</w>
메 인
메 기</w>
멋 지네요</w>
멋 져
맵시 가</w>
매치 도</w>
매 장에</w>
맞아요 ^^</w>
맞 춘
맞 아용</w>
맞 네요^^</w>
맞 네요..</w>
맞 네요!</w>
망가 질
맘에들 아요</w>
많이 해서</w>
많이 크네요</w>
만족합니다만족합니다만족합니다만족합니다 만족합니다만족합니다만족합니다만족합니다
만족합니다 ..
만족합니 더</w>
만족스럽 습니다!</w>
만족 했습니다.</w>
막 들고</w>
마른 사람은</w>
마른 분이</w>
마감 도
마 이</w>
마 법
로 그
레터 링이</w>
레 알</w>
러블리 하고</w>
러 브
랗 게</w>
라지 사이즈</w>
라 지만</w>
라 벤
라 구요</w>
똥 배
또 한
떨어져 요.</w>
때 메</w>
딸 기
딴데 보다</w>
딱 좋아요~</w>
딱 좋아요!</w>
딱 조아요</w>
딱 붙는</w>
따뜻 했어요</w>
따뜻 해보이
듯 ~
들어 있고</w>
든 든
드리 니</w>
드 신
뒷 굼
두번째 구입
두께감 에</w>
두껍 습니다.</w>
두꺼운 게</w>
두 줄
두 산
두 둑</w>
될 까</w>
될 것같아요
된 다면</w>
되었 어요.</w>
되었 네요.</w>
되었 고</w>
되는 듯</w>
되 잇어서</w>
됐 지만</w>
동 해물
동 대
도톰 한데</w>
도 많고</w>
도 ..
덥 겠지만</w>
더라 고요
더 럽
댕 기
댕 강
대신 에</w>
대만족 !</w>
대 비해서</w>
답변 은</w>
달려 있고</w>
단추 에</w>
단추 만</w>
단독 세탁
다음 주에</w>
다양 해서</w>
다림 질이</w>
다리 라인</w>
다른 제품도</w>
다른 상품도</w>
다른 사람
다른 거같아요</w>
다 해도</w>
다 잘어울려요</w>
다 이
다 듬
다 니다</w>
다 거나</w>
니트 입니다</w>
니트 소재라</w>
니 요</w>
늦은 거
늘어 났어요</w>
는 지도</w>
느리 다고</w>
느낌 적인</w>
느낌 있어요</w>
느낌 ??</w>
느껴 져요.</w>
느 데</w>
높은 굽
높 지</w>
높 게</w>
놀랬 지만</w>
놀랬 는데</w>
네크 라인</w>
네 영
네 .</w>
넘 좋네요</w>
넘 어서
넓어 서
널널 해요</w>
널널 하고</w>
넉넉 한거</w>
넉넉 하게
너무 크
너무 이뻐요~</w>
너무 이뻐요!!</w>
너무 예쁩니다</w>
너무 만족해요</w>
너무 마음에들어요</w>
너무 느림</w>
너무 나요</w>
너 풀
냈 어요</w>
냄새 인지</w>
냄새 같은게</w>
내려 가서</w>
내 스타일
내 서</w>
남방 이나</w>
남방 이</w>
남 색도</w>
남 는데</w>
남 기네요</w>
날씬해보이 진</w>
날 림</w>
난감 하네요</w>
난 감</w>
낙낙 해요</w>
나쁘지않 은
나쁘지않 아요.</w>
나봐 요
나봐 여</w>
나갔 어요</w>
나 요...</w>
나 옵니다.</w>
나 면서</w>
나 들이
나 는건</w>
나 는거
나 네요...</w>
나 나
나 그
나 ..
끈 길이가</w>
꽉 껴
꽃샘 추위
꼼꼼 하지</w>
꼭 사세요</w>
꺼같 아용</w>
꺼 려
꺼 라고</w>
깨 요</w>
깜찍 하고</w>
깔끔 하진</w>
깔끔 하게
까지 는
까슬 한</w>
까먹 고</w>
까끌 거려요</w>
까끌 거려서</w>
까 다
길이 라서</w>
길 지않아</w>
길 거리
긴하지만 ..</w>
긴 하네요.</w>
기장 감은</w>
기본 티에</w>
기본 이고</w>
기다려 야
기 성
기 로
금액 도</w>
금 요일
그저 그런
그저 그래요..</w>
그레이 와</w>
그레이 색상</w>
그렇다 치고</w>
그럼 ..</w>
그런데 로
그런 지..</w>
그럭저럭 입니다.</w>
그러 진</w>
그러 면</w>
그랬 나</w>
그래 요.
그냥 입음</w>
그냥 그런
그냥 괜찮아요</w>
그것 말고는</w>
그 지
귀찬 아</w>
귀차 나</w>
궁금 하네요</w>
굿 .
굽높 이도</w>
굳 입니다</w>
구입 하세요</w>
구매했 으나</w>
구매할 걸</w>
구매한 건데
구매하 는게</w>
구매 자</w>
구김 안가는</w>
구 나
교환 이나</w>
교환 안하고</w>
교환 까지</w>
괞 찬
괜찮은 거같아요.</w>
괜찮은 거같네요</w>
괜찮아요 오</w>
괜찮아요 ~^^</w>
괜찮 습니다!</w>
괜찮 네요..
괜찮 구요.</w>
괜찬 항
괜찬 은데</w>
괜 탆
괜 챃
관 찮
과 해서</w>
과 도</w>
골 지가</w>
고민하 다가
고민중 이
고민 이네요</w>
겹 쳐</w>
결제 하고</w>
결국 은</w>
격식 있는</w>
겨울 내</w>
겠 어요~~</w>
검 정도
걸칠 수</w>
걸치 는</w>
걸리 적
걸렸 구요.</w>
걱정 했지만</w>
걱정 했었는데</w>
걱 정도</w>
거칠 어서</w>
거짓 말
거같아 욤</w>
거같 기도</w>
거 적
갠춘 해요</w>
같은 게
같아 여
같 음
같 았어요</w>
같 습니다..</w>
같 네요~
값어 치</w>
갑자 기
감이 있지만</w>
감싸 줘서</w>
감사합니다 ~~~</w>
감사합니다 ..</w>
감사 히
감사 드립니다
간 편히</w>
가죽 도
가죽 냄새는</w>
가을 엔</w>
가운 데
가슴 둘레가</w>
가볍고 좋아요</w>
가볍 습니다.</w>
가볍 고,</w>
가벼워 요~</w>
가방 입니다</w>
가방 이라</w>
가디건 이라</w>
가능 합니다.</w>
가까 움</w>
가격도착 하고</w>
가 지만</w>
가 요?</w>
가 없
가 ...
♥ ️</w>
♥ ️
ᆞ ᆞ</w>
~~~ ^^
x u
v er
t y
sk sk
s 사이즈
px ;</w>
on t
m 은</w>
m 사이즈가</w>
m m
l o
dy o
d v
cm ,</w>
c v
b b</w>
a m
^_ _
^^ .</w>
^- ^
M 사이즈가</w>
L 사이즈로</w>
FSD FSD
F I
; 8
:):):):) :):):):)
8 부</w>
7 부</w>
6 8</w>
6 7
50 키로</w>
5 월</w>
5 7
44 사이즈인데</w>
4 /
3 벌
2주 넘게
2~ 3
27 ~
230 인데</w>
230 ~
2 일만에</w>
2 년
2 가지</w>
176 에</w>
12 월
11 월</w>
....^^ ....^^
.. 너무
- 8
*_ *</w>
' -
👍🏻 👍🏻</w>
힘이 없어요</w>
희 망
흔 하지않아서</w>
흐물 거려요</w>
휴대 폰
후드 나</w>
후기 들</w>
회 색이라</w>
활용 성이</w>
환불 하고</w>
환 한</w>
환 하게</w>
확인 해보
화장 하고</w>
화이트 로
화면이랑 은</w>
화면상 으로</w>
호 호</w>
호 리
형 이</w>
헨리 넥
험 하게</w>
헐 랭
허리 쪽</w>
허리 부분에</w>
허리 나</w>
햐 서</w>
했던 거</w>
했 어야</w>
했 구요.</w>
했 거든요</w>
해주 셧
해주 셔야
해주 세요~</w>
해야 죠</w>
해서 요</w>
해서 ...</w>
해보이 네요.</w>
해보 였는데</w>
해보 였
핫 팬츠
합성피 혁
함 이
할수 있는</w>
할듯 합니다.</w>
할듯 ..
할 말이</w>
할 껄
한철 입기는</w>
한여름 에
한사이즈 크게</w>
한데 ...
한달 만에
한거 는</w>
한 복</w>
한 다는
한 날
한 것처럼</w>
한 것이</w>
한 가지
하이웨스트 에</w>
하셨 으면</w>
하셔야 할듯</w>
하비 인데</w>
하는 듯</w>
하네요 ,</w>
하나 요?</w>
하나 ,</w>
하 더라도</w>
하 는데..</w>
하 구요..</w>
핏 보다</w>
피 곤
풍성 해요</w>
풍 덩
품 절</w>
품 만</w>
풀려 있고</w>
포인트 주기</w>
포인트 되서</w>
포기 하고</w>
평소 에도</w>
평상 시
평범 한
평 보고</w>
편해요 ..
편하 기까지
편하 구요.</w>
편안 히</w>
편안 함</w>
편안 하게
편 합니당</w>
편 지도</w>
편 이나</w>
퍼 프</w>
패 치</w>
팔 던데</w>
판매자 분은</w>
판매 를</w>
파였 으면</w>
파세요 ~^^</w>
파 자마</w>
파 여</w>
파 셔
트 는</w>
튀어나와 있고</w>
통통 족
통굽 이라</w>
통 짜
톡톡 문의
템 으로</w>
테이프 가</w>
털 어도</w>
터 져서
태 는</w>
타입 이라</w>
키크 신</w>
키 크고</w>
큼직 하니</w>
큰 사이즈로</w>
큰 기대
크기 는
크 신분은</w>
퀄리티 입니다</w>
코 튼</w>
켤 레</w>
컷팅 이</w>
컷 으면</w>
컬러 에</w>
커 요~
캐쥬얼 한</w>
카키 색도</w>
치수 보다</w>
치수 는</w>
치마 바지라</w>
치마 로</w>
치 곤
츄 럴
충분 히
충 격
출산 후</w>
출근 했는데</w>
추천 드립니다
추워지 기전에</w>
추워지 기</w>
최고 임</w>
최 애
총알 배송이
촌스럽 지않고</w>
촉 감이
초 딩
쳤 는데</w>
쳐 다
찾으신 다면</w>
참조 하세요</w>
참고하시 라고</w>
참 을
차라 리
찢어 짐</w>
쫄 리
쫀쫀 함</w>
짱짱 !</w>
짱 인듯</w>
짱 이예요</w>
짧 으
짧 고요</w>
짧 고..</w>
짧 고..
짜증 나고</w>
집에 있는</w>
집 앞에
집 니다
짐 이
진짜 좋아요</w>
진 자</w>
지연 된다고</w>
지않았 지만</w>
지만.. 그래도</w>
지만 ....
지 켜
지 경
증 말</w>
줬 음</w>
줬 습니다</w>
줬 더니</w>
중 앙
줄이 야
줄어 드
줄 여</w>
줄 무늬가</w>
주의 해서</w>
주의 하세요</w>
주문할 게요</w>
주문 합니다</w>
주문 하시는게</w>
주문 하면
주 셔서
죠 ...</w>
죄송 하다고</w>
죄송 하다
좋은 거같아요~</w>
좋은 거같네요</w>
좋은 거같고</w>
좋으 네용</w>
좋았을 걸
좋아요 아주</w>
좋아요 ♡</w>
좋아요 ~~~~
좋아 합니다.</w>
좋아 욥</w>
좋아 보여서</w>
좋네요 ~!</w>
좋겠 다는</w>
좋 코</w>
좋 이요</w>
좋 으니</w>
좋 습
좋 도</w>
좋 네욤</w>
좋 네영</w>
종아리 부분이</w>
종아 리는</w>
좀 크지만</w>
좀 짧아요</w>
좀 나지만</w>
조아요 ~
조아여 조아</w>
조금만 더
조금 이라도</w>
져 있네요</w>
젤 리
제품 이네요.</w>
제품 도
제가 원하던</w>
제가 원하던
제 발
제 니
제 껀</w>
정사이즈 인데</w>
정말 정말
정말 ..</w>
정 이</w>
젊 은
전체적 으론</w>
전체 적</w>
적당 해요~</w>
저렴 히
저 정도</w>
저 려
저 렇게
저 렇
재질이 면</w>
재질이 ...</w>
재질 임</w>
재질 인
재구매 햇어요</w>
재 킷
재 구매하려
재 가</w>
장식 도</w>
장 롱
장 님
잠그 는</w>
잘입을께 요~^^</w>
잘입었 어요
잘입었 습니다.</w>
잘입고 있어요
잘입겠 습니다!</w>
잘어울리 는
잘어울리 고
잘어울 린
잘산 거같아요
잘받았어요 잘쓸게요</w>
잘받았습니다 ~
잘맞 습니다.</w>
잘 해주시
잘 하고</w>
잘 려
잘 들
작을 줄</w>
작아요 ...</w>
작 네요...</w>
자 동
자 기</w>
있을 것같아요.</w>
있었 으면
있어 야할</w>
있는 건지</w>
있 습니당</w>
있 네요~~</w>
입을수있을 듯</w>
입을수 있어</w>
입을수 있고</w>
입을만해요 입을만해요
입을께 용</w>
입을게 요!!</w>
입을 정도로</w>
입을 래
입은 듯한</w>
입어보 고싶
입기 힘들
입고싶 은</w>
입고 있어요.</w>
입고 다닙
입고 다닐</w>
입고 나갈
입 장에서</w>
입 도록</w>
읽 고</w>
일주일 도</w>
일주일 넘게
일자 핏이라</w>
일어 남</w>
일반 적으로</w>
일교 차가</w>
일 에
인간 적으로</w>
인가 요?
인 지..</w>
인 정</w>
인 어
이틀 만에
이용 하겠습니다</w>
이었 습니다</w>
이쁨 !</w>
이쁜 거같아요
이쁘 데
이쁘 구요
이뻤 는데</w>
이뻐 욥</w>
이브 고</w>
이런 디자인</w>
이라 고는</w>
이너웨어 로</w>
이너로 만</w>
이너 입고</w>
이너 웨어</w>
이거 보다</w>
이 후</w>
이 였는데</w>
이 어도</w>
이 안
이 바지만</w>
이 만원
이 름</w>
이 를</w>
이 길래</w>
의 자
음 에</w>
은 색</w>
으 려
위 에서</w>
원단 자체가</w>
원단 이에요</w>
원 햇
원 하시는</w>
워 요..</w>
울 샴
우 고</w>
요청 했는데</w>
요즘 처럼</w>
요즘 날씨에
요새 는</w>
요 ~~~~</w>
외투 를</w>
왤 케</w>
왔다 갔다
왔 는데
왔 네요...</w>
왔 구요
옷핀 으로</w>
옷이 좀
옷들 이랑</w>
옷걸 이</w>
옷감 의</w>
옷 두</w>
옷 같음</w>
옷 감이
올라 와요</w>
올라 온</w>
올라 가요</w>
올라 가네요</w>
올 봄</w>
올 려요</w>
올 겨울은</w>
오브제 스트</w>
오버핏이 지만</w>
오버핏 이에요</w>
오래걸 어도</w>
오래 입을</w>
오 픈</w>
오 천원</w>
오 긴
예쁩니다 ~
예쁘고 좋아요</w>
예뻐요 예뻐</w>
예뻐요 !!
옆구 리가</w>
영 하
영 ...</w>
연보라 색</w>
연 핑크</w>
연 핑크
여행 시</w>
여행 가방으로</w>
여유 있는
여리여리 해요</w>
여리여리 하니</w>
여름에 입기</w>
여름 이나</w>
여름 동안</w>
여름 까지도</w>
여러 군데
여 요.</w>
여 닫
에코백 은</w>
에요 ...
에 .</w>
엉성 해요</w>
엉덩이 쪽</w>
엉덩이 에</w>
엇 음</w>
없을 거</w>
없었 구요</w>
없 죠</w>
없 어요..
없 습니다.
엄청 편해요</w>
엄청 얇아요</w>
엄청 느림</w>
엄마 라</w>
언 능</w>
언 급
어쩔수 없는
어쩌나 했는데</w>
어짜 피</w>
어지 간
어울리 는거</w>
어울리 네요~</w>
어울 립니다.
어색 하고</w>
어벙 한</w>
어마무 시
어깨 나</w>
어 오
어 나
양말 이랑</w>
양말 을</w>
얇은 것</w>
얇 진</w>
얇 지않아</w>
얇 으니</w>
얇 기
약 함</w>
약 품</w>
약 품
야 하는데</w>
앞코 도</w>
앞 쪽은</w>
알았 는데..</w>
알 차게</w>
알 겠네요</w>
않아요 ~~</w>
않아요 ..
안성 맞춤
안되 면</w>
안 해주고</w>
안 합니다.</w>
안 하고
안 입었어요</w>
안 입어도</w>
안 입어</w>
안 입는데</w>
안 이뻐요.</w>
안 이뻐서</w>
안 어울릴
안 비치
안 받
안 맞네요</w>
안 들어가요</w>
안 늘어나고</w>
악세 사
아프 지만</w>
아침 저녁</w>
아주 예뻐요</w>
아이보리 에</w>
아이보리 보다</w>
아이보리 라서</w>
아쉬웠 어요.</w>
아쉬움 .</w>
아빠 옷
아무 데
아무데 나
아담 한</w>
아닐 까</w>
아닌데 ...</w>
아닌가 요?
아니 더라구요</w>
아까 워서
아 마
씩 이나</w>
쓰 이
쓰 려구요</w>
쓰 다보면</w>
쓰 겠습니다</w>
쏘쏘 ..</w>
썼 는데</w>
싼티나 는
싼마 이</w>
싸구려 티
싸 쥬</w>
싶 엇는데</w>
싶 고</w>
십 시
심플 해요</w>
실제로 보면</w>
실밥 다
실망 했습니다</w>
실망 했습니다.</w>
실 크</w>
신을 게요~</w>
신을 게요.</w>
신으 시
신발 이네요</w>
신경쓰 일</w>
신 지는</w>
신 습니다.</w>
신 문
신 구</w>
시키 세요</w>
시크 한</w>
시원 해보여서</w>
시원 할듯</w>
시원 하긴</w>
시원 피스
시 려
시 네요</w>
슬림 해보이
슬림 한
슬리퍼 라</w>
스판 도
스트레 스
스트 링</w>
스타일 이에요.</w>
스웨 터</w>
스럽 습니다</w>
스 에</w>
스 도</w>
스 님
숭 숭</w>
수선 해</w>
수선 하면</w>
수고 하세용</w>
수 트
수 있게</w>
송 장</w>
손목 에</w>
손 세탁</w>
속 안에</w>
소재 인줄</w>
소재 며</w>
소비 자</w>
셔츠 입니다</w>
세탁 해</w>
세요 ~~</w>
세미 부츠컷
세 가지
설명 이</w>
서 보면</w>
생기 지만</w>
생기 지</w>
생각했던거 보다
생각보다 너무
생각 해</w>
생각 중</w>
생각 없이</w>
생가 보다
생 긴</w>
샌 들</w>
색이 예뻐요</w>
색상 이라서</w>
색깔도 이쁘고</w>
색감 ,</w>
새 옷인데</w>
새 신발
상품 이랑</w>
상큼 한</w>
상대 적으로</w>
상관 은</w>
샀 었
샀 어여</w>
살 좀</w>
살 은</w>
살 수
사진 에
사이즈 에요</w>
사이즈 며</w>
사이즈 도좋고</w>
사실 분들은</w>
사시 길</w>
사 항</w>
사 지
사 줬어요</w>
사 유
사 악
사 는걸</w>
사 네요</w>
사 기엔</w>
사 구</w>
뾰족 한</w>
빼 야</w>
빠르고 ~</w>
빠 졋
빈 약
비싸 보이진</w>
비슷 해요.</w>
비슷 하네요</w>
비교 해
비 에</w>
비 싸</w>
블루 랑</w>
블랙 하고</w>
브랜드 에서</w>
브라운 에</w>
브 릭
브 로
뷔스티 에는</w>
붙 여서</w>
붕 뜨
붕 떠서</w>
불편하 지않
불편하 지도</w>
불편하 실
불편하 네요
불량 인지</w>
불량 인데</w>
불 룩
불 가</w>
분들 이나</w>
분 이면</w>
부탁 해서</w>
부분 이라</w>
부분 때문에</w>
부분 도
부들 거리고</w>
부드럽 지는</w>
부드럽 구요</w>
부드럽 고,</w>
부담 없이
부담 스럽고</w>
부 자연스러
봤 음</w>
봤 을때
봐 요
봄에 입기
봄가을 에
봄 철에</w>
봄 부터</w>
봄 봄</w>
볼 도</w>
보통 이에여</w>
보일 수도
보이는 것</w>
보이 면</w>
보여 지는</w>
보송 보송
보람 이
보는 것</w>
보냈 는데</w>
보내셨 네요</w>
보내 실때</w>
보내 면</w>
보고 샀는데</w>
보 게
별루 ...</w>
별로 에요~</w>
별로 네요.
별로 네요
별로 ...
별 다른</w>
변경 해서</w>
변 경</w>
벨벳 이라</w>
베이지 색상
베이지 보다</w>
번창하세요 ~~~</w>
밴딩 으로</w>
밴드 는</w>
백 프로</w>
백 에</w>
백 두산
배송이 ...</w>
배송도 빠르구</w>
배송도 너무
배송기간 도</w>
배송 좀
배송 오자마자</w>
배송 상태
배송 된</w>
배송 된
배송 개
방법 이</w>
발송 이</w>
발 에
받았습니다 ~
받았 는데요</w>
받 지도</w>
반품 처리
반짝 이가</w>
반신반의 하며</w>
반 팔이</w>
반 치수</w>
반 바지랑</w>
반 값
박시 함</w>
박시 한데</w>
바지 보다는</w>
바지 랑
바지 든</w>
바지 도
바람막 이
바람 불면</w>
바닥 이
바느 질은</w>
바 라면</w>
바 닷
바 꼈
밀 착
믿 기
뭐 하나</w>
물건 은
물건 에</w>
물 품은</w>
물 결
묻어 있어서</w>
묻어 서
문자 라도</w>
묶 어야</w>
무척 이나</w>
무난 해요..</w>
무난 합니다~</w>
무 언
무 시
무 배</w>
못입 겟
못 할것</w>
못 한
못 하네요.</w>
몰랐 네요</w>
목 티</w>
모양 으로</w>
모델 핏이랑</w>
모 가</w>
멋스러 운</w>
멋 이</w>
맨투맨 이랑</w>
매끄럽 지</w>
맞을 거</w>
맞 춤</w>
맞 나요?</w>
망설 이지</w>
맘에들어 용
맘에드 러요</w>
맘에드 네요
맘에 쏙</w>
맘 대로</w>
말할 것도</w>
말랑말랑 해서</w>
말랑 해서</w>
말 할</w>
만족해요 ..</w>
만족합니다 ...</w>
만족스러워 요
만족 할</w>
만 이</w>
막상 받아보니</w>
마른 분들이</w>
마 세요.</w>
마 련
마 뚜루</w>
릅 니다</w>
롱 스커트
로퍼 를</w>
레이어드 해
레이어드 용</w>
레이 온
레드 도</w>
레깅스 위에</w>
레깅스 와</w>
라쿤 털도</w>
라인 이랑</w>
라룸 에서</w>
라기 보다</w>
라 ...</w>
뚱뚱 해보이고</w>
뚜 꺼
떼 서</w>
때 쯤</w>
때 부터</w>
딱맞 아요
딱맞 는데</w>
딱맞 네요.</w>
딱 그가격
따숩 네요</w>
따뜻해 지
따뜻할 것같아요</w>
따뜻하 지는</w>
따뜻하 긴
따뜻 해요!!</w>
따뜻 합니다
따뜻 한게</w>
따뜻 한건</w>
따뜻 하지만</w>
디쟌 이</w>
디쟌 은
디잔 은</w>
디자인은 이뻐요</w>
디자인 하고</w>
디자인 자체는</w>
디자인 .
등 등
듬 성
들고 다녀
들 이랑</w>
들 리
들 고,</w>
드리 려고</w>
드러 요</w>
드라이 클
드 네요..
드 가</w>
뒷 모습이</w>
뒷 기장이</w>
뒤 지
두께 도
두께 나</w>
두꺼 우면</w>
두깨 감도</w>
두 어
두 사이즈</w>
됫 는데</w>
될 까
될 것같아요~</w>
되어 있어요.</w>
되 야</w>
되 는지</w>
돼 지
돼 요.</w>
동안 은</w>
동 글
도톰 해서
도톰 하구</w>
도 움
도 없
데일리 가방으로</w>
데 리고</w>
던 건데</w>
던 거라</w>
더울 수도</w>
더더 더</w>
더군 다
더군다 나</w>
더 이쁠
댓 글</w>
댄 디
대 해서</w>
대 한
대 세
대 는</w>
대 고</w>
답 해주셔서</w>
답 니다~</w>
달라 도</w>
단정 해보이
단독 으로
단단 한</w>
다자인 은</w>
다른 제품</w>
다른 옷에</w>
다른 옷</w>
다른 색은</w>
다르 긴한데</w>
다르 게
다닐 때
다니 기는</w>
다니 겠
다녓 어요</w>
다고 했는데</w>
다 님
니 ..</w>
늦었 습니다</w>
늦게 옴</w>
늘어날 것같
는데 로</w>
느림 ..</w>
느리 고요</w>
느려 요.
느낌이 랄까</w>
느낌 이랑</w>
느낌 .
느껴지 네요.</w>
느껴 져
느 므</w>
느 랴요</w>
느 낄</w>
누 군
누 구</w>
높 을</w>
높 을
높 아</w>
놀랬 어요.</w>
놀랬 네요</w>
넥 이라</w>
네여 ...
네여 !</w>
넣었 더니</w>
넣 어두
넣 기가</w>
넘 짧아요</w>
넘 .</w>
널널 하게</w>
넉넉 하지만</w>
너무 커요..</w>
너무 이뻐요.</w>
너무 이
너무 얇고</w>
너무 느렸어요</w>
너 요</w>
냈 는데</w>
냄새 랑</w>
냄 세</w>
내용 물이</w>
내려 가고</w>
내 복</w>
납 작
남겼 는데</w>
남 네요.</w>
날씬 해보일
날 짜</w>
날 림이</w>
날 도</w>
나이 들어</w>
나왔 다고</w>
나오 진</w>
나시 만</w>
나시 도</w>
나쁘지않 아요~</w>
나쁘지않 습니다</w>
나 지는</w>
나 이가</w>
나 옵
나 보네요</w>
나 만
나 다
나 네요~</w>
나 게
나 감</w>
낑 기
끈 부분이</w>
꼼꼼 한</w>
꺼내 자마자</w>
꺼 같지만</w>
꺼 같은데</w>
깔끔 해요~</w>
깔 이</w>
까 칠</w>
깊 이</w>
길이도 적당하고</w>
길이 의</w>
긴 편은</w>
긴 걸</w>
기장 이좀
기분 상
기본티 에요</w>
기본 입니다</w>
기본 으로
기본 스타일이라</w>
기대 이
기다리 면서</w>
기다리 긴</w>
기다려 서
기다 릴</w>
기는 하지만</w>
기 에도</w>
기 계
근데 ..
근 래</w>
그저 그
그뤠 잇</w>
그렇 다</w>
그럴 수도</w>
그랬 음</w>
그거 말곤</w>
그 녕</w>
귀여 우면서</w>
귀걸 이
굿 초이스</w>
굿 입니당</w>
굿 입니다!</w>
굿 이요</w>
굿 ~~~</w>
굿 ~~~
구입 햇어요</w>
구입 해</w>
구멍 도</w>
구매했 어요..
구매했 던</w>
구매할 게
구매하 여</w>
구매하 구</w>
구매 하시
구두 도</w>
구김 없이</w>
구겨 진
구겨 지는
구 하기</w>
구 조
구 오</w>
구 여~</w>
구 래도</w>
교환 했습니다.</w>
교환 하는데</w>
교환 으로</w>
교환 신청</w>
괜츈 해요</w>
괜찮을 까</w>
괜찮은데 ..
괜찮은 거같아요
괜찮았 어요
괜찮 네요...</w>
괜찮 네요!!</w>
괜찮 구요~</w>
괜찮 겠죠</w>
괜찮 겠어요</w>
괜찬 을
괘안 아요</w>
공 지도</w>
곰 팡
골반 도</w>
고민하 지말고</w>
고마 워
고급스러워 보이
고급 집니다</w>
고객 님</w>
고 요..</w>
고 무</w>
고 르고</w>
고 동
고 !</w>
경량 패딩</w>
결 정</w>
결 재
겨자 색
겨드랑 이가</w>
겠 어요..</w>
것 이라</w>
검정 색을</w>
검 품</w>
걸어두 고</w>
걷 고</w>
건조 기</w>
거리 긴</w>
거든 요.
거 예요.</w>
거 란</w>
걍 입어요</w>
갠찬 은
갠차나 여</w>
개 념
개 가</w>
같은 느낌</w>
같아 용~</w>
같 구요,</w>
강추 에요</w>
강 력</w>
갑 !</w>
감은 있지만</w>
감안 하면</w>
감싸 주
감싸 는</w>
감사해요 ~^^</w>
감 탄
감 에</w>
가죽 에</w>
가슴 둘레</w>
가성비 최고</w>
가성비 굿</w>
가방 만</w>
가디건 만</w>
가디건 과</w>
가끔 씩</w>
가격만큼 인거</w>
가격만큼 인</w>
가격만큼 .</w>
가격대비 조아요</w>
가격대비 는
가격대 의</w>
가격 만한</w>
가 와서</w>
가 슬
가 며</w>
가 만
가 려서</w>
가 가</w>
♡ ♡♡♡</w>
~!~!~!~! ~!~!~!~!
y d
x y
x b
w b
v o
s dj
r u
r n
m 입는데</w>
l a
k  
g u
e he
e ="
a o
^^ ~~</w>
XL 로</w>
S o</w>
O O
: ₩
95~ 100
5 만원</w>
4 만원</w>
4 개</w>
4 1
32 입는데</w>
3 .</w>
3 ,
235 ~
21 일에</w>
2017 .
182 /7
18 18
16 일에</w>
10 부
/5 0</w>
... !</w>
,.,.,.,. ,.,.,.,.
( 키</w>
힙 은</w>
힙 니다</w>
힘 들어서</w>
희 소
흠 잡
흔치 않고</w>
흐물 거리는</w>
흐 린
흐 르
휴양 지에서</w>
휴가 가서</w>
훌륭 하네요</w>
후회 합니다</w>
후회 없이</w>
후질 근
후드 티</w>
후드 에</w>
후 리
효 과는</w>
회색 빛
활용 해서</w>
환불 은</w>
환 해보이고</w>
확인 하고
확인 좀
화장 실</w>
화이트 가
화면이랑 같아요</w>
화면그대로 입니다</w>
화면 하고
화면 에는</w>
형 으로</w>
혀 요</w>
헷 갈
헐렁 한
허벅지 까지</w>
허리 라인
허리 띠</w>
했어요 !!</w>
했 어요..
했 네요
햇 어요
햇 습니다</w>
해요 !!!</w>
해외 여행</w>
해서 요.</w>
해 진</w>
해 줬어요</w>
해 줘
해 져
해 여.</w>
해 놔서</w>
합리 적
합니당 ~</w>
할인 된
할수 있을
할듯 하네요</w>
할 꺼같아요</w>
한파 에도</w>
한사이즈 업
한겨울 은</w>
한 통</w>
한 땀
한 단</w>
학 년</w>
하지않 게</w>
하였 으나</w>
하얀 색
하시는 분은</w>
하나 면</w>
하고싶 어요</w>
하 지는
하 는데도</w>
하 는데,</w>
핑크 인데</w>
핑크 색을</w>
핑크 빛
핑크 도
핑 쿠
핏도 괜찮고</w>
핏 하고</w>
핏 인줄</w>
핏 이쁘고</w>
프린트 도</w>
프 렌
품 이너무
풀렸 어요</w>
풀 림
풀 리는</w>
푹신 푹신하고</w>
표현 이</w>
포장 상태
포 멀
평이 좋아서</w>
편해요 !
편할 것같아요</w>
편하게 입을
편하 면</w>
편하 더라구요</w>
편이 니</w>
편이 구</w>
편안 해요.</w>
편안 한
편 함.</w>
편 임</w>
편 의
편 안</w>
패딩 에</w>
패 션</w>
팔이 짧아요</w>
팔뚝 살이</w>
팔 과</w>
판매자 의</w>
파여 있어서</w>
파란 색
파 이고</w>
파 셔요</w>
티셔츠 네요</w>
튼튼 한
튼 튼</w>
특이 한데</w>
특이 하네요</w>
트임 이
트임 부분이</w>
튀어 나오고</w>
툭 툭</w>
통통 하신분들은</w>
통 해서</w>
통 도
톤 의</w>
톡톡 해요</w>
톡톡 하네요</w>
털이 많이
털 로</w>
터 로</w>
탓 인지</w>
타이트 한데</w>
타이트 하긴</w>
타 싸이트
키크 신분들
키작 으신
키 168인데</w>
클로슈 에서</w>
큰 편이에요</w>
큰 듯해요</w>
큰 것같아요</w>
큰 건</w>
크 림</w>
크 다보니</w>
크 네요...
크 긴하네요</w>
크 기에</w>
큐빅 이</w>
퀼리 티</w>
퀄 러
퀄 도</w>
코 드</w>
코 듀
코듀 로
케 쥬얼
컬러 에요</w>
컬러 :</w>
캐주얼 에도</w>
카키 색을</w>
카라 도</w>
칭 구
친절 하신</w>
치렁 치렁
치 만
치 고
출고 가</w>
추천 해여</w>
추천 .</w>
추운날 은</w>
추운 날씨에</w>
추석 연휴</w>
추 워</w>
최고 에요
최 소한</w>
초등 학생
초 코
초 겨울</w>
체형 은</w>
체형 도</w>
체 육
체 리
청바지 랑도</w>
첫 번째
첨 부터</w>
천 이네요</w>
찾던 중에</w>
창 이</w>
착오 가</w>
차분 하니</w>
차 림
찡 기
찐 한
쫙 쫙</w>
쫌 더
쪽 지도</w>
쪽 이랑</w>
쪽 에
쪼 매</w>
짱짱 합니다</w>
짱 입니다
짱 임</w>
짱 이쁨</w>
짱 !!!</w>
짧아 보이고</w>
짧 지않아서</w>
짧 음.</w>
짧 앗
짧 아용</w>
짧 네요...</w>
짤 라
질감 이나</w>
질 좋아요</w>
진짜 편해요</w>
진짜 이쁨</w>
진짜 너무
진않 을
진않 은
진않 구요</w>
진심 으로</w>
진 함</w>
진 하지</w>
진 않았어요</w>
진 않았
진 다
직 장에서</w>
지인 도</w>
지않 구</w>
지도 않구요</w>
지금 입기에는</w>
지 요.</w>
지 나가
지 긴</w>
지 ....</w>
줫 어요</w>
중간 쯤
줄 은
줄 였어요</w>
줄 였
준 다
죽 여
주셨 어요</w>
주문했는데 ..</w>
주문했는데 ..
주문했 어요.
주문하 자마자</w>
주문 할까</w>
주문 한거</w>
주문 하려구요</w>
주문 량이</w>
주 려
죠아 용
죠 .
좔 좔
좌 우
좋음 !</w>
좋을듯 합니다.</w>
좋을 텐데
좋을 듯.</w>
좋을 거같아요!</w>
좋은 옷
좋은 게</w>
좋았을텐데 ...</w>
좋았 어용</w>
좋았 어요!!</w>
좋았 던</w>
좋았 다</w>
좋았 겠어요</w>
좋아용 .</w>
좋아요~~ ~^^</w>
좋아요~~ !</w>
좋아요 오옹</w>
좋아요 감사합니다</w>
좋아아요 좋아</w>
좋아 하실
좋아 져서</w>
좋아 염</w>
좋아 라</w>
좋네요 ...
좋네요 ,</w>
좋겠 어요!</w>
좋겠 네요~</w>
좋 와요</w>
좋 다는
종아리 까지</w>
좁 게
좀 짧은
졸 라
조절 도</w>
조아요 아주</w>
조 이지</w>
조 이면</w>
져 있어요</w>
져 있는</w>
제품 인</w>
제외 하고</w>
제 키는</w>
제 키가
제 외</w>
제 스탈
제 몸
정장 에</w>
정말 이지</w>
정말 이쁘네요</w>
정도 네요.</w>
접어 야</w>
접 힌
절 때</w>
