너무 17764
좋아요 15001
좀 14071
잘 12966
생각보다 9084
그냥 8818
이뻐요 7907
많이 7657
더 6827
딱 6382
조금 5820
만족합니다 5675
예뻐요 5653
가격대비 5439
배송도 5174
같아요 5003
맘에 4890
다 4856
것 4789
배송이 4585
. 4494
이 4285
정말 4240
배송 4102
안@@ 4071
입기 3792
그래도 3718
도 3631
이@@ 3544
마음에 3537
입고 3537
완전 3456
배송은 3392
옷은 3375
근데 3267
약간 3267
넘 3264
괜찮아요 3253
진짜 3083
옷 3056
편하게 3000
너무@@ 2938
좋네요 2934
엄청 2905
.. 2901
샀는데 2870
에 2862
편하고 2845
아주 2845
좋고 2826
빠르고 2781
제가 2748
입으면 2600
사이즈 2566
해서 2524
이쁘고 2512
살짝 2467
옷이 2461
하고 2459
한 2441
... 2413
있어서 2399
~ 2384
.@@ 2317
핏이 2307
사이즈가 2296
은 2266
수 2252
다@@ 2167
들어요 2152
잘@@ 2130
배송@@ 2097
이쁘네요 2096
..@@ 2060
! 2052
입을 2027
굿 2009
을 2006
^^ 1989
안에 1986
길이가 1976
핏도 1968
감사합니다 1952
, 1933
예쁘고 1919
하지만 1915
다른 1900
가@@ 1895
했는데 1856
가 1836
색이 1793
도@@ 1779
는 1761
고 1757
만 1751
옷@@ 1747
나@@ 1737
좋아요. 1717
재질도 1701
그리고 1700
맘에들어요 1694
사이즈도 1693
인데 1686
색상도 1682
좀@@ 1682
구매했는데 1654
만족 1644
만족합니다. 1640
합니다 1634
재질이 1632
않고 1629
좋습니다 1625
같아요. 1621
고@@ 1619
...@@ 1616
또 1613
음 1607
좋은 1600
입어도 1595
한@@ 1587
요 1583
거 1581
디자인은 1581
네요 1574
로 1569
보다 1552
다만 1548
가격에 1545
더@@ 1517
하네요 1495
~@@ 1488
가격도 1475
색상이 1473
저는 1461
해요 1455
냄새가 1455
잘받았습니다 1447
색도 1434
길이도 1433
편해요 1424
가격이 1411
부분이 1393
바지 1382
~~ 1379
하나 1379
게 1378
같이 1370
지@@ 1366
지 1359
있는 1355
가볍고 1351
입니다 1346
듯 1346
!! 1340
일단 1331
핏은 1327
디자인도 1324
에@@ 1323
지만 1314
는@@ 1312
크게 1307
이라 1270
디자인 1267
보통 1261
네요. 1258
많이@@ 1253
딱@@ 1251
사진이랑 1222
합니다. 1216
같은 1213
아직 1213
별로 1211
옷도 1211
아@@ 1206
주문했는데 1194
있어요 1184
는데 1183
색상 1180
구매 1180
여름에 1171
넘@@ 1161
를 1157
오@@ 1152
좋아요~ 1151
요@@ 1149
으로 1143
하@@ 1141
소재가 1138
잘받았어요 1124
조아요 1123
한데 1120
사이즈@@ 1115
사@@ 1115
커서 1108
어@@ 1108
사이즈는 1106
구@@ 1103
그냥그래요 1102
따뜻하고 1102
의 1099
.... 1099
그냥@@ 1098
좋습니다. 1087
얇아서 1086
,@@ 1085
전 1085
괜찮네요 1081
? 1081
자주 1071
나 1068
입니다. 1067
느낌이 1067
추천 1061
예쁘네요 1057
때 1055
보고 1053
만@@ 1053
에서 1052
좋아서 1044
바지@@ 1042
이쁜데 1038
지금 1036
그@@ 1032
가성비 1028
만족해요 1028
완전@@ 1026
구요 1024
기@@ 1020
거@@ 1015
기장이 1010
막 1006
은@@ 1004
입으려고 1002
색상은 1000
저렴하게 996
못@@ 995
핏 992
그래요 982
라 977
바로 973
조금@@ 973
재질은 971
할 967
까지 962
하게 961
사진과 960
엄청@@ 958
보@@ 956
다른@@ 951
없어서 947
아니고 943
키가 941
좋은데 936
요즘 934
저렴한 932
!!! 932
오래 928
이쁘게 924
일@@ 924
정도 921
시@@ 919
않아요 917
가격 912
예쁘게 908
색은 908
을@@ 904
되@@ 903
구 901
소재도 896
하는 895
블랙 895
무난하게 895
안 894
그런지 891
허리가 891
귀찮아서 886
긴@@ 885
있고 878
면 877
이뻐서 877
이쁩니다 873
~~@@ 872
로@@ 870
입@@ 868
입으니 868
상품 867
니트@@ 867
입을수 867
부드럽고 864
그럭저럭 863
긴 862
그래서 859
아니라 858
매우 853
좋아요@@ 851
이건 851
않아서 848
처럼 844
두@@ 844
진@@ 841
있@@ 838
적당하고 835
해@@ 833
면@@ 833
입어야 832
없@@ 830
만족@@ 827
하니 826
이나 823
게@@ 822
걍 821
생각했던 821
얇고 819
용 813
예뻐서 809
라@@ 809
봄에 806
한번 804
느낌 802
들@@ 801
색@@ 799
들고 797
색 797
커요 795
아 793
괜찮고 791
인@@ 790
그런데 788
여 786
구매@@ 785
나름 783
해 779
아주@@ 777
인 771
좋@@ 771
신고 768
~~~ 767
네요.. 767
대@@ 764
지는 764
샀어요 760
있지만 759
없이 759
짧아요 758
색깔도 757
진 756
색상@@ 756
내@@ 755
잘입을게요 754
제 753
같네요 751
이랑 748
함 748
니 747
상품@@ 745
좋아용 744
핏@@ 744
비해 743
요. 742
서@@ 741
다시 741
나쁘지 739
예쁜데 739
가격@@ 733
좋아요! 732
그 731
과 729
않@@ 727
좋아@@ 725
신발 725
가방 723
있어 723
블랙@@ 721
저@@ 721
팔@@ 720
제품 720
여@@ 718
생각@@ 718
예뻐요. 717
입는데 715
랑 712
네요~ 711
듭니다 710
신@@ 710
하면 710
교환@@ 710
어요 709
사진보다 708
질@@ 707
살@@ 706
굿굿 706
있네요 705
깔끔하고 701
!@@ 701
길어서 701
생각보다@@ 700
니트 700
요~ 699
추천합니다 697
사서 696
소재@@ 695
이네요 695
부@@ 692
길@@ 690
이쁘@@ 690
좋아요~~ 686
너무너무 685
주@@ 682
와서 681
주문@@ 678
그대로 678
해요. 677
입고@@ 676
습니다. 674
모두 674
(@@ 674
뭐 673
같@@ 673
걱정했는데 672
크고 671
네요@@ 667
그렇게 667
진짜@@ 666
와 666
맞@@ 665
할@@ 664
저렴하고 664
이쁨 662
느낌@@ 662
스@@ 661
옷이@@ 660
정말@@ 659
베이지 659
이뻐요~ 658
가볍게 656
디자인이 656
습니다 656
얇아요 656
입기에 656
아쉽네요 653
조@@ 652
가방@@ 650
좋은@@ 647
크네요 646
예뻐요~ 645
상품은 645
여기저기 644
티@@ 643
괜찮은데 642
정도@@ 641
반품@@ 638
큰@@ 637
으면 635
역시 635
리@@ 634
자@@ 633
이뻐요. 632
이뻐용 631
?@@ 628
줄 628
핑크@@ 628
때문에 628
사고 627
거의 627
좋네요. 626
털이 625
색깔이 625
원단이 625
제@@ 623
이상@@ 622
사진 621
재질 621
겨울에 620
큰 620
수@@ 619
짧아서 619
크@@ 618
질도 617
다고 617
기 617
있는데 617
기본@@ 617
재질@@ 616
저렴해서 616
색감도 616
네여 616
입을@@ 616
건 614
참 614
하고@@ 613
심@@ 612
이에요 612
구입@@ 610
허리@@ 610
구매했어요 609
입기@@ 608
이뻐요@@ 606
....@@ 606
빠른배송 606
별로@@ 604
이거 604
팔이 603
있는@@ 602
얇은 600
:) 599
비@@ 598
발이 596
허리 596
품이 595
괜찮@@ 595
살짝@@ 594
두 594
어깨가 594
보이는 594
파세요 593
잘입을께요 592
쫌 591
하지 590
아니@@ 590
입었는데 590
베이지@@ 588
없고 587
키 587
좀더 587
보니 587
느려요 587
적당히 587
디자인@@ 586
가격대비@@ 585
제품@@ 585
말@@ 585
거같아요 584
색이@@ 583
배송빠르고 581
했@@ 580
^^@@ 579
감사합니다. 579
핏이@@ 579
에도 577
지도 577
같습니다. 577
신발@@ 576
키@@ 575
하는데 575
받았습니다 575
이고 575
뭔가 574
반@@ 573
어요. 572
만큼 572
좋을 571
분들은 571
예쁘@@ 568
하네요. 567
작@@ 566
발@@ 566
실@@ 565
이런 565
요.. 563
화면이랑 563
가디건 563
평소 562
나서 562
잇@@ 561
어 560
~^^ 560
야 560
같아요~ 560
에는 559
우@@ 558
날@@ 558
아니지만 558
보다는 557
약간@@ 557
보통입니다 557
옷을 557
야@@ 556
이렇게 556
이너로 556
같아서 555
드@@ 555
길이는 555
들어@@ 554
알았는데 554
편@@ 554
라서 552
서 552
것같아요 551
그냥저냥 550
보풀이 549
기장도 549
느낌은 548
듯@@ 547
입기엔 547
전체적으로 546
빨리 545
고요 544
짧@@ 541
고, 539
감이 538
오 538
막@@ 538
했어요 536
울@@ 536
계속 536
작게 536
샀@@ 535
어요@@ 534
좋아 534
네요.@@ 532
괜찮아요. 531
원단도 531
입어요 531
것도 529
짱 529
작은@@ 528
그레이 527
라고 525
기모@@ 524
받아보니 523
소재는 523
는데@@ 522
짧고 522
원래 518
좋음 517
데일리로 516
굉장히 516
집에서 516
왔@@ 515
있을 514
보통@@ 512
괜찮습니다 512
예쁩니다 512
정사이즈 512
꼭 511
같고 511
구김이 511
해도 511
개@@ 510
처음 510
듭니다. 510
질이 510
바지는 510
부분 509
어깨@@ 509
올@@ 508
1@@ 505
임 505
저렴@@ 503
단추가 503
통이 503
훨씬 502
작아서 502
한치수 501
빠른 500
목@@ 500
니@@ 498
예쁜 497
아이보리 497
받았어요 495
화면보다 495
싸게 495
소매가 495
s@@ 494
봄@@ 494
보이@@ 494
좋아요좋아요 493
맞아요 493
고민@@ 492
입는 492
위에 491
얇@@ 490
빨라서 490
추천@@ 490
같아요@@ 490
마@@ 489
한사이즈 489
남@@ 488
싶@@ 488
여름@@ 488
구매하고 487
바지가 487
용@@ 486
기본 486
네용 485
는게 483
5@@ 483
화이트 482
바@@ 481
~! 481
별로에요 481
오늘 479
거나 478
음@@ 478
배송이@@ 478
입어보니 477
이라@@ 476
검정@@ 476
가격만큼 475
보이고 475
가을에 475
이쁜@@ 474
빨라요 474
편해서 474
굳 473
많이파세요 473
입기에는 473
괜찮은 471
같은@@ 470
요.@@ 469
없는 468
기대@@ 468
이가격에 467
색감이 466
시원하고 466
작아요 464
구입했는데 464
치마@@ 464
길이감도 464
걸@@ 462
이런@@ 462
) 462
한게 462
다가 462
소매@@ 462
봄 462
으로@@ 461
제품은 460
좋구요 460
편하@@ 459
3@@ 459
옷에 459
~~~@@ 458
티 458
산 457
무@@ 456
-@@ 456
무난@@ 456
느낌이@@ 455
에요 454
길고 454
다들 453
짱@@ 452
좋아여 452
똑같아요 452
원@@ 452
했지만 452
소재 451
2@@ 450
제일 450
줄@@ 449
재구매 449
아이보리@@ 449
라인이 448
~~^^ 447
4@@ 447
것@@ 447
반품 447
길이 447
셔츠 447
생각보단 444
화면과 444
해서@@ 443
하나@@ 442
보여요 442
냄새@@ 441
듯해요 441
네요..@@ 440
같은데 439
날 438
겠@@ 435
치@@ 435
세탁@@ 435
옷은@@ 435
빼고는 434
들어서 434
않네요 433
같습니다 433
단추@@ 433
자체는 432
예뻐요! 431
미@@ 431
정사이즈@@ 431
까@@ 430
전혀 430
장@@ 430
구요. 430
흰색@@ 429
신발은 429
괜찮아요~ 428
목이 428
m@@ 428
보단 427
스타일@@ 427
속@@ 427
좋아요^^ 426
그런@@ 426
따뜻해요 426
어서 425
달라요 425
입었을때 425
쓰@@ 424
다는 424
일 422
그레이@@ 422
기도 422
어요~ 422
들어요. 421
파@@ 421
니까 420
냄새 420
사진@@ 419
이라서 419
맞고 418
전@@ 418
셔츠@@ 418
연@@ 417
시켰는데 417
입을게요 417
정@@ 416
55@@ 416
원하던 415
질 415
길이@@ 414
색깔 412
걸 412
겨울@@ 411
여름 411
배@@ 410
여기서 410
왜 410
건@@ 410
입었@@ 410
잘입고 410
크기도 409
으@@ 409
후기 408
더라구요 407
상@@ 407
코디@@ 407
편이라 407
따뜻@@ 407
많아서 406
들 404
좋은거 403
마니 403
무난해요 403
중@@ 402
는거 402
재@@ 402
그대로@@ 402
또@@ 401
물@@ 401
6@@ 400
더니 400
요! 400
붙@@ 400
받았습니다. 399
,, 399
;; 399
드네요 399
않지만 399
스판@@ 399
오래@@ 398
!!@@ 398
감@@ 398
것같@@ 398
입는@@ 398
커@@ 396
맘에듭니다 395
적@@ 395
예뻐요@@ 395
~~~~ 394
지만@@ 394
꺼@@ 393
퀄리티 393
늦@@ 393
하는@@ 393
블라우스 393
자주@@ 392
못 392
시원@@ 392
받았@@ 391
우선 391
작은 390
기는 390
요..@@ 390
왔어요 390
앞@@ 389
데 389
구요@@ 388
되어 388
무엇보다 388
느렸지만 388
발볼이 388
네@@ 387
치마 387
나요 386
청바지 386
끈이 385
이라고 385
원단@@ 385
날씨에 385
여서 384
될@@ 384
쫀쫀@@ 383
거같@@ 382
너무이뻐요 381
알@@ 381
수선@@ 381
네요... 379
입기는 379
까지@@ 378
굿@@ 377
한번@@ 377
늘어나@@ 375
매@@ 375
짧은@@ 375
가죽@@ 374
과@@ 374
66@@ 374
타이트@@ 374
정도로 373
삿는데 373
산@@ 373
있습니다 373
이뻐요! 372
받고 372
쏘쏘 372
엉덩이 372
아쉬워요 371
배송도빠르고 371
소매 371
되서 370
었@@ 370
귀여워요 369
배송빨라요 369
롱@@ 369
몸에 369
러@@ 368
없어요 368
네 368
금방 368
이뻐요~~ 367
고.. 367
깔끔@@ 367
얇은@@ 367
건지 367
어깨 367
않은 366
구매했@@ 366
스타일 366
단추 366
싸@@ 365
넘나 365
화이트@@ 365
최고@@ 364
짧은 364
적당@@ 364
팔 364
이쁜 363
이쁩니다. 363
니다 363
재질이@@ 363
그렇@@ 363
털@@ 362
없네요 362
중 362
두껍고 362
이예요 361
려@@ 361
8@@ 361
꺼 361
네요~@@ 361
모@@ 361
있을@@ 361
♡ 360
대비 360
!!!! 360
있어요. 360
처음@@ 359
랑@@ 359
새@@ 359
잘못@@ 359
두꺼워서 359
입니다.@@ 359
다른색도 359
길어요 359
요... 358
보면 358
받@@ 358
걱정@@ 358
괜찮은@@ 358
별로네요 358
보여서 358
와@@ 357
아쉽@@ 357
실망@@ 357
/@@ 357
크게@@ 357
뭐@@ 356
배송은@@ 356
편하네요 356
나오@@ 356
입어야@@ 356
요~@@ 355
대로 355
질은 355
차@@ 354
단@@ 354
피@@ 354
가격만큼@@ 354
전에 353
좋았@@ 352
아요 352
부분@@ 351
어요.@@ 351
보풀@@ 351
가방이 350
주문 350
되게 350
두꺼운 350
않아 350
목 350
예뻐용 349
자꾸 349
컬러 349
는지 349
늦었지만 348
h@@ 348
적당한 348
7@@ 348
느리고 348
싼맛에 348
쫀쫀하고 348
감사@@ 347
한철 347
네요^^ 347
햇@@ 347
생각보다는 346
싼@@ 346
아니네요 346
사용@@ 345
f@@ 345
짱짱@@ 345
지않고 345
제가@@ 344
코트@@ 344
요~~ 343
겨울 343
밖에 342
괜찮은거 342
천이 342
느림 342
발도 342
긴하지만 341
고급스럽고 341
하구 341
덜@@ 341
갈@@ 340
있습니다. 340
착용@@ 340
보내@@ 339
음.. 339
저 339
물건 338
세@@ 338
예@@ 338
었는데 338
기장@@ 338
데@@ 337
의@@ 337
들어가@@ 337
이지만 337
코트 337
손@@ 336
습니다.@@ 336
듯요 336
될 336
밝은 335
어요.. 335
들이 335
좋구 335
부터 335
목부분이 335
예요 334
카키@@ 334
늦게 334
사진처럼 334
넉넉@@ 334
도톰하고 334
부분은 333
받았는데 333
한거 333
해요@@ 333
인데도 333
가을@@ 333
마음에들어요 332
원단 332
두개 332
끼@@ 332
다리가 332
겠어요 331
참고하세요 331
후 331
인지 331
해요~ 331
가디건@@ 331
두번째 330
다르@@ 330
그렇고 330
예쁜@@ 330
좋아요!! 329
를@@ 329
느리@@ 329
다음에 329
색깔@@ 329
애@@ 329
처음에 328
제대로 328
그러@@ 327
다니@@ 327
어용 327
끈@@ 327
많@@ 327
좋았어요 327
넣어@@ 326
귀엽고 326
상품도 326
이뻐여 326
사세요 326
신을@@ 326
다면 325
먼지가 325
다닐@@ 324
까 324
빼곤 324
네이비 324
때@@ 323
특히 323
같아요! 323
있음 323
뒷@@ 323
안되@@ 323
나네요 323
다니기 322
화면 322
애매@@ 322
9@@ 321
던 320
절대 320
별루@@ 320
레깅스 320
물건@@ 319
예쁩니다. 319
흰색 319
입음 319
비싼@@ 318
통@@ 318
는건 318
천@@ 317
하면서 316
며 315
있으면 315
그닥 315
배송도@@ 315
예뻐요~~ 315
엔 314
재구매@@ 314
어두운 314
빼고 314
레깅스@@ 314
해야@@ 313
소@@ 313
하구요 313
네요! 313
색깔은 313
실밥이 313
그런 312
아님 312
아닌@@ 312
필요@@ 311
아주좋아요 311
불량@@ 311
영 311
된 311
같아 311
박시@@ 311
조금만 310
j@@ 310
자체가 310
것보다 310
네요~~ 309
적극 309
구매해서 309
추@@ 309
몇번 309
신발이 309
마니@@ 308
신축성이 308
무릎@@ 308
구매하@@ 307
져서 307
확실히 307
다고@@ 307
이거@@ 307
않아요. 306
마감이 306
어요! 306
아닌데 306
넓어서 305
이쁘네요. 305
맞네요 305
이쁘다고 304
분@@ 304
이뿌@@ 304
흰@@ 304
편인데 304
기장은 304
타@@ 303
빠지@@ 302
냄새는 302
너무좋아요 302
다리@@ 302
나와서 302
컬러@@ 302
디@@ 301
입니다@@ 301
실제로 301
넉넉하고 300
괜찮습니다. 300
되고 299
던@@ 299
유@@ 299
있었@@ 299
두개@@ 298
기분@@ 298
위@@ 298
같네요. 298
글@@ 298
빨리@@ 297
편하게@@ 297
가격은 297
티가 297
불편하@@ 297
부분에 297
쓸@@ 296
하게@@ 296
아쉽지만 296
좋을@@ 296
검정 295
항상 295
빠르게 295
대박@@ 295
음. 295
입을께요 295
긴한데 294
함@@ 294
불편@@ 294
넓@@ 294
d@@ 294
아니라서 293
퀄리티@@ 293
무난하고 293
지않@@ 293
온@@ 293
두께도 293
써@@ 292
안나@@ 292
좋아요~@@ 292
청@@ 292
암튼 292
합니다.@@ 291
환불@@ 291
나가@@ 291
대 291
딱맞@@ 291
따뜻하게 291
입으려구요 291
면서 290
히@@ 290
요^^ 290
지퍼가 290
걸렸@@ 290
된@@ 289
올 289
들어요~ 289
만족합니다@@ 289
쪽이 289
신으면 289
도톰@@ 289
받자마자 288
히 288
단 288
두껍@@ 288
선물@@ 287
이뻐@@ 287
)@@ 287
이제 287
어여 287
구입 287
져@@ 287
g@@ 287
번창하세요 286
티셔츠 286
습니다@@ 285
는거@@ 285
불@@ 285
t@@ 285
후회@@ 285
불편해요 285
수도 285
네이비@@ 285
강추 284
반품하기 284
허리는 284
빼면 283
같아요.@@ 283
맞는 283
입긴 283
노@@ 282
삿@@ 282
오버핏@@ 282
예쁨 281
면이 281
좋아요.@@ 281
화면@@ 281
있었는데 281
임@@ 280
주름이 280
싸고 280
입으니까 280
달@@ 279
최고 279
리 279
같이@@ 279
후기@@ 279
후@@ 279
하긴 278
냄새도 278
친절하게 278
짧네요 278
시원하게 278
주고 277
/ 277
꽤 277
무난합니다 277
강추@@ 276
매우@@ 276
만족합니다~ 276
좋네요~ 276
만족합니당 276
시 276
싼 276
입기도 276
합니다@@ 275
을때 275
내가 275
받아서 275
두꺼운@@ 275
연락@@ 275
날씨가 275
날씬해 275
하시@@ 274
거라 274
솔직히 274
근데@@ 274
원단은 274
모델@@ 274
볼@@ 273
뒤에 273
주문하고 273
어떻게 273
잘받았습니다. 272
해야 272
발 272
가성비@@ 271
저렴한@@ 271
입어@@ 271
입을만 271
참@@ 270
하네요@@ 270
싶어요 270
기분이 269
왔네요 269
듯. 269
둘다 269
아니에요 269
; 269
따@@ 269
스커트 269
업@@ 268
보는 268
중에 268
l@@ 268
신는데 268
입을만해요 268
입어보고 268
지퍼@@ 267
보통이에요 267
고민하다가 267
주문해서 267
차이가 267
나고 267
넉넉하게 267
청바지에 267
기장 267
이쁘네요@@ 266
하나만 265
싶네요 265
느@@ 265
덜 265
였@@ 265
방@@ 265
빠르@@ 265
고. 265
안에@@ 265
나는 264
이쁠@@ 264
겟@@ 264
터@@ 264
부분도 263
좋을듯 263
핑크 263
높@@ 263
가능@@ 263
기가 263
화@@ 263
저한테는 263
선물로 262
오히려 262
주머니가 262
흠 262
;@@ 262
나왔@@ 262
좋고@@ 261
까봐 261
색으로 261
가벼워서 261
예쁘네요. 261
않았지만 260
포장@@ 260
따로 260
하기 260
예뻐@@ 260
나온@@ 260
청바지@@ 260
S@@ 260
시원한 260
려고 259
무난한 259
없어 259
취소@@ 259
인줄 259
하세요 259
구요~ 258
이네요. 258
으나 258
자 258
라인@@ 258
아닌 257
했는데@@ 257
공@@ 257
했어요. 257
다시@@ 257
되는 257
밝@@ 257
- 257
정사이즈로 257
입은 257
입어야겠어요 257
입어보@@ 257
원하는 256
너@@ 256
추천해요 256
막상 256
이게 256
용으로 255
구매평 255
간@@ 254
정도는 254
지금@@ 254
않았@@ 254
살이 254
컬러도 253
하루만에 253
문제@@ 253
인데@@ 253
듯.. 253
재질이라 253
잘입을@@ 253
다르네요 252
적극추천 252
퍼@@ 252
신고@@ 252
바로@@ 251
오고 251
이면 251
추천합니다. 251
확인@@ 251
난@@ 251
박음질이 251
구매할@@ 251
답답@@ 251
자켓@@ 251
해주셔서 250
좋겠어요 250
지만, 250
안감이 250
있어@@ 250
분들 250
두께@@ 250
편한@@ 249
이쁘고@@ 249
선택@@ 249
100@@ 249
구여 249
양@@ 249
괜찮네요. 249
L@@ 249
좋네요@@ 248
는데, 248
묻어@@ 248
b@@ 248
들었@@ 248
것같네요 248
했더니 248
햇는데 248
a@@ 248
살 248
품질@@ 247
u@@ 247
착@@ 247
수고하세요 247
슬림@@ 247
고..@@ 247
부들부들 247
M@@ 247
도톰해서 247
생각 246
기대 246
i@@ 246
왜@@ 246
당@@ 246
해여 246
티셔츠@@ 246
길이감이 246
느낌도 245
보이네요 245
트@@ 245
지고 245
택배@@ 245
실물이 245
조아@@ 245
약@@ 245
편이@@ 245
지는@@ 244
할때 244
들어요@@ 244
바지에 244
오버핏 244
판매@@ 243
지가 243
드는데 243
좋을것 243
죠 243
번 243
27@@ 243
큼 242
이에요. 242
이쁘네요~ 242
실밥@@ 242
인듯 242
소재라 242
미리 242
누@@ 241
클@@ 241
찾다가 241
느렸@@ 241
손이 241
네요...@@ 241
스 241
넉넉해서 241
느렸어요 241
가을 241
복@@ 240
괜찮아요@@ 240
털 240
친절@@ 240
아이@@ 240
뒤@@ 240
그게 240
편하고@@ 240
넘게 240
처리@@ 239
잘맞@@ 239
장 239
일에 239
비싸@@ 239
버@@ 239
골반@@ 239
안하고 239
e@@ 239
좋습니다@@ 238
거같아요. 238
도착@@ 238
주머니 238
하네요~ 238
심하게 238
컬러가 238
들어 237
보이는@@ 237
좋은것 237
별루 237
n@@ 237
려 237
교환 236
그저그래요 236
구입했@@ 236
초@@ 236
기모가 236
이뻐요^^ 235
무겁@@ 235
수선해서 235
싸서 235
모르겠@@ 235
느려서 235
그럭저럭@@ 235
굽이 235
별@@ 234
좋으네요 234
사고싶@@ 234
기대를 234
구김@@ 234
핏도@@ 234
블라우스@@ 234
떨어지@@ 233
비슷@@ 233
빨랐@@ 233
린넨@@ 233
여기 233
나시@@ 233
색감은 232
포인트@@ 232
힘@@ 232
똑같@@ 232
편안@@ 232
비치@@ 232
검정색 231
없는@@ 231
옷에서 231
없어@@ 230
딱이네요 230
집@@ 230
k@@ 230
본@@ 230
무슨 230
인거 230
달라@@ 230
있을것 230
발목@@ 230
작고 229
했네요 229
v@@ 229
싸구려@@ 229
루@@ 229
으니 229
져 229
적당해서 229
p@@ 229
해보이@@ 229
빠른배송@@ 228
좋겠@@ 228
y@@ 228
좋을거 228
밝은@@ 228
예뻐요^^ 228
내요 228
운@@ 228
잇어서 228
는데.. 228
여름에도 228
제품도 227
이정도면 227
~~~~@@ 227
주문했어요 227
고요. 227
늦게@@ 227
그리 227
것같아요. 227
쫌@@ 227
저도 226
이뻐요!! 226
색상이@@ 226
굿굿@@ 226
봤는데 226
색이라 226
잘받았@@ 226
스커트@@ 226
라인도 226
날씬해보이고 226
빼@@ 225
잘산@@ 225
거같네요 225
색감 225
w@@ 225
할듯 225
걸려서 225
패딩@@ 225
색감@@ 224
여기가 224
느낌이라 224
지금은 224
두께감이 224
블랙으로 223
싼티 223
그냥저냥@@ 223
하여 223
주머니@@ 223
등@@ 223
한달@@ 223
따듯@@ 223
26@@ 223
입은@@ 223
털도 222
포인트 222
쏙 222
좋으@@ 222
깔끔하게 222
깔끔하니 222
이쁘긴한데 222
작네요 222
문의@@ 222
입어서 222
별로예요 221
앞으로 221
먼저 221
돈@@ 221
진않@@ 221
올이 221
이상 221
이너@@ 221
o@@ 221
하진 221
속에 221
더울@@ 221
고... 220
헐렁@@ 220
긴해요 220
240@@ 220
입기좋아요 220
찾던 219
감사해요 219
했습니다. 219
아서 219
비추@@ 219
무난 219
신기 219
입어보진 219
가지고 218
요!! 218
묻@@ 218
블랙도 218
지만.. 218
고민하다 218
브라운@@ 218
품도 218
발송@@ 218
전화@@ 218
쪽 217
10@@ 217
그린@@ 217
허@@ 217
어울리@@ 217
메@@ 217
대박 217
좋아해서 217
주문했@@ 217
어요... 217
신축성도 217
걸치기 217
감사합니다@@ 216
끝@@ 216
빨랐어요 216
거같아요@@ 216
싼티@@ 216
생각했는데 216
가서 216
구두@@ 216
꽉 216
나지만 215
그래도@@ 215
하지도 215
쪽에 215
박음질 215
있을거 215
더워@@ 215
만족입니다 215
강@@ 215
급@@ 215
못입을@@ 215
입겠@@ 215
실 214
생각한 214
귀찮아 214
밑@@ 214
넉넉한 214
괜찮아@@ 214
떨어지는 214
얇지만 214
딱맞고 214
각@@ 213
모양이 213
분 213
입었어요 213
있네요. 212
브라운 212
어요~@@ 212
가방은 212
나쁘지않아요 212
실밥 212
기다렸@@ 212
잘맞고 212
덥@@ 212
두께감도 212
입으@@ 212
크기가 211
았@@ 211
모양@@ 211
구매했어요. 211
분은 211
어요~~ 211
ᆢ 211
레이어드 211
엄마@@ 210
여행@@ 210
한거@@ 210
가격이@@ 210
니다. 210
걍@@ 210
넓은 210
그랬@@ 209
샀는데@@ 209
는데도 209
듯한 209
해용 209
고민했는데 209
됐@@ 209
다는@@ 209
가슴@@ 209
마른@@ 209
만족스러워요 208
편해요. 208
회색@@ 208
괜찮을@@ 208
입으면@@ 208
맘에들고 207
사이즈가@@ 207
넘넘 207
죠@@ 207
해요.. 207
급하게 206
사진하고 206
받쳐@@ 206
옆@@ 206
사진에서 206
성@@ 206
넣고 205
힘들@@ 205
생@@ 205
사이즈를 205
구요.@@ 205
하니@@ 205
습니당 205
워@@ 205
?? 205
안나고 205
점@@ 205
예뻐요!! 205
해요! 205
함. 205
영@@ 205
해보@@ 205
상품이 205
다리 205
되어@@ 204
r@@ 204
조아요@@ 204
백@@ 204
사 204
겉@@ 204
싶었는데 204
괜찮아서 204
빨@@ 204
그래@@ 204
쪼@@ 204
맘에드네요 203
선@@ 203
에요. 203
맘에들어요@@ 203
~!! 203
사실 203
싸구려 203
세탁 203
있어요@@ 202
길래 202
ᆢ@@ 202
생각했던것보다 202
난 202
어두운@@ 202
160@@ 202
입을려고 202
포장도 201
멋@@ 201
너무예뻐요 201
갈때 201
나와@@ 201
제품이 201
길 201
길이가@@ 201
괜찬@@ 201
자켓 201
튼튼@@ 200
빠르네요 200
뜨@@ 200
사람@@ 200
비추 200
저냥 200
신축성 200
사진으로 199
만족합니다! 199
짱짱 199
루즈@@ 199
블랙이 199
아니면 199
욤 199
여유@@ 199
워낙 199
같음 199
다. 199
답@@ 199
그닥@@ 199
허벅지 199
박음질@@ 199
간절기에 199
조끼 199
편합니다 198
어울리고 198
: 198
기분 198
좁@@ 198
몇번@@ 198
평이 198
했으면 198
드는 197
마음에@@ 197
넣@@ 197
부드럽@@ 197
부드러운 197
두께가 197
지도@@ 197
블랙은 197
디자인이나 197
것처럼 197
르@@ 197
묶@@ 197
맞아서 197
보풀 197
스판이 197
적극추천@@ 196
c@@ 196
쪽@@ 196
구입했어요 196
!!!@@ 196
뜯어@@ 196
감은 196
편 196
색깔별로 196
실이 196
사진이 196
77@@ 196
입을만@@ 196
몇@@ 195
기에 195
있어서@@ 195
다소 195
크지만 195
어도 195
어디든 195
가볍@@ 195
역시나 195
두툼@@ 195
운 194
열@@ 194
딱이@@ 194
마감@@ 194
하셔서 194
여기@@ 194
움 194
무지 194
분들이 194
신발도 194
해주시고 193
듯합니다 193
같아@@ 193
네요~~@@ 193
끈 193
잘샀어요 193
품@@ 193
산건데 193
같지만 193
밑단이 193
살까 192
들고@@ 192
겠네요 192
주름@@ 192
왔는데 192
습니다~ 192
내려@@ 192
다르게 192
머@@ 192
래@@ 192
사야@@ 192
이정도 192
보통입니다. 192
는데..@@ 192
아요@@ 192
분이 192
편안하게 192
비침이 192
대신 191
이뻐요~@@ 191
편이고 191
가장 191
레@@ 191
가는 191
인것 190
알고 190
가죽이 190
판매자 190
일주일 190
다음날 190
짱짱하고 190
퀄리티가 190
고급스럽@@ 190
정장@@ 190
어요^^ 190
꺼같아요 190
저렴한가격에 190
샀어요. 190
하루 190
일반 190
요...@@ 190
발볼@@ 190
따뜻하@@ 190
라인 190
했습니다 189
대만족@@ 189
듯하네요 189
겠지만 189
졌@@ 189
신어@@ 189
밴딩@@ 189
따뜻해서 189
큰데 188
싼가격에 188
하나더 188
싸게@@ 188
에서@@ 188
매치@@ 188
구요, 188
^ 188
빨랐고 187
뻣뻣@@ 187
짐 187
잡@@ 187
하기@@ 187
젤 187
합니다~ 187
괜찮음 187
구김도 187
마른 187
통통@@ 187
조끼@@ 187
해요.@@ 186
하다 186
되네요 186
그렇다고 186
이건@@ 186
이에요@@ 186
레이어드@@ 186
금@@ 185
보여요. 185
사이즈로 185
굳굳 185
넘나@@ 185
풀@@ 185
예쁠@@ 185
밑에 185
큽니다 185
신을 185
니다@@ 184
부들부들@@ 184
이쁨@@ 184
필요해서 184
44@@ 184
나시 184
스판끼가 184
찾@@ 183
것같아요@@ 183
실망 183
평@@ 183
빨면 183
싼티나@@ 183
구매한 183
처@@ 183
보니까 183
달라서 183
늦었@@ 183
105@@ 183
입는게 183
언니@@ 182
좋겠네요 182
구매했는데@@ 182
겨@@ 182
바느질@@ 182
할것 182
지도않고 182
봤@@ 182
더라구요. 182
던데 182
입니당 182
연청@@ 182
어울려요 182
평소에 182
만큼@@ 182
235@@ 182
입을수@@ 182
입을것 182
귀엽@@ 181
심해요 181
하다고 181
짐@@ 181
요~~@@ 181
입니다~ 181
잘안@@ 181
다른곳보다 181
어요..@@ 181
맞는데 181
스키니@@ 181
이좀@@ 180
맘에들어@@ 180
이용@@ 180
믿고 180
데일리@@ 180
눈@@ 180
심해서 180
화사@@ 180
키가@@ 180
코트안에 180
입습니다 180
해주@@ 179
고급지고 179
맞게 179
나쁘진 179
쏘쏘@@ 179
예쁘네요~ 179
보일@@ 179
같구요 179
아무리 179
한철@@ 179
구멍이 179
이가 178
들어요! 178
보다@@ 178
부드러워서 178
상당히 178
치고 178
너무너무@@ 178
다녀@@ 178
만족해요@@ 178
깔별로 178
괜찮네요~ 177
딱좋아요 177
블루@@ 177
득템@@ 177
구매평@@ 177
조아용 177
라는 177
이었@@ 177
하지만@@ 177
색에 177
나쁘지않@@ 177
길어@@ 177
여성스럽고 177
굽도 177
루즈핏@@ 177
어정쩡@@ 177
여리여리 177
다닐 176
좋아요.. 176
스탈@@ 176
좋은거같아요 176
남자@@ 176
포인트로 176
합니당 176
거같고 176
생각하고 176
편한 176
에게 175
거리@@ 175
박스@@ 175
그치만 175
걸리@@ 175
비슷한 175
겠어요. 175
려구요 175
담@@ 175
유행@@ 175
빠@@ 175
나온 175
입을수있을@@ 175
엉덩이@@ 175
핏은@@ 175
예쁘다고 174
했어요@@ 174
많은 174
왕@@ 174
아이템@@ 174
만에 174
은데 174
받은@@ 174
28@@ 174
없었@@ 174
기다리@@ 174
인듯@@ 173
보고@@ 173
갑@@ 173
비닐@@ 173
만족스럽@@ 173
이뿌고 173
늦어서 173
어둡@@ 173
늘어날@@ 173
두꺼워요 173
타이트 173
밑위가 173
반팔@@ 173
조아여 172
개인적으로 172
건데 172
안감@@ 172
편은 172
기다린 172
처리가 172
앞에 172
위로 172
0 172
늘어나서 172
짧아@@ 172
잘맞아요 172
여리여리@@ 172
오버핏이라 172
날씬@@ 172
습니다! 171
평소@@ 171
보여@@ 171
어울리는 171
톡톡@@ 171
부해보이@@ 171
엄마가 171
길었으면 171
,,@@ 171
벗@@ 171
잘못 171
엇@@ 171
산거 171
번@@ 171
입을때 171
니트가 171
걸렸어요 170
다니고 170
부담없이 170
까지는 170
그냥그냥 170
하나도 170
없음 170
신축성@@ 170
라도 169
좋아요~~~ 169
만족합니다.@@ 169
않습니다. 169
색도@@ 169
품질 169
사면 169
예쁘네요@@ 169
괜춘@@ 169
진한 169
느낌이에요 169
동생@@ 168
것이 168
이쁘게@@ 168
흐@@ 168
벨트@@ 168
박@@ 168
걸린@@ 168
돌아@@ 168
이번에 168
없지만 168
생각이 168
고민 168
매일 168
되어서 168
좋습니다~ 168
괜찮은것 168
코@@ 168
다음에도 168
신어도 168
느리네요 168
찾고 167
맨@@ 167
동일@@ 167
남 167
그나마 167
좋아하는 167
아까워서 167
되면 167
별로임 167
치마가 167
다른색상도 166
음... 166
껴@@ 166
지연@@ 166
는것 166
이뿌네요 166
좋았을@@ 166
아직@@ 166
그런가 166
굽@@ 166
먼지@@ 165
니깐 165
만족스럽습니다 165
가죽 165
이뻐용@@ 165
추워서 165
구멍@@ 165
기본으로 165
사람은 165
잘입겠습니다 165
키로 165
모델 165
검은색 164
구매했습니다. 164
말고 164
만원@@ 164
되었@@ 164
그건 164
판매자님 164
지네요 164
느려@@ 164
습니다.. 164
좋을듯@@ 164
걸렸지만 164
아쉽네요. 164
느린@@ 164
바느질이 164
딱이에요 164
레이스@@ 164
용~ 164
될듯@@ 164
모르겠지만 164
풍성@@ 164
날씬해보이@@ 164
날씬해보여요 164
ㆍ 163
하다@@ 163
참고@@ 163
될듯 163
리는 163
30@@ 163
2 163
도좋고 163
,,, 163
촉감도 163
보임 163
만족합니다^^ 162
호@@ 162
차이@@ 162
가방도 162
비해서 162
편해요~ 162
이구요 162
여행가서 162
이쁩니다@@ 162
s 162
요즘@@ 162
일자@@ 162
색이랑 161
직접 161
문자@@ 161
편하구 161
니당 161
신경쓰@@ 161
워서 161
빛@@ 161
조금더 161
빠르고@@ 161
이번@@ 161
:@@ 161
나름@@ 161
거같아서 161
기네요 161
cm@@ 161
치마랑 161
구요.. 160
에요@@ 160
울 160
보들보들 160
할거 160
신 160
dj@@ 160
기도@@ 160
만들어@@ 160
찍@@ 160
신기@@ 160
내 160
못하고 160
않은데 160
춥@@ 160
얇네요 160
허벅지@@ 160
맨투맨@@ 160
떨어져서 159
들고다니기 159
한것 159
하 159
첨@@ 159
정 159
코디하기 159
사진과@@ 159
2주@@ 159
모델이 159
입다가 159
치마에 159
입을거 159
크기@@ 158
똑같고 158
들은 158
구매했습니다 158
어색@@ 158
함께 158
착하고 158
봐@@ 158
상품평@@ 158
잘샀@@ 158
러 158
든 158
저한테 158
요, 158
원피스@@ 158
도톰하니 158
길이감 158
같아요.. 158
받쳐입기 158
잘입고@@ 158
입게 158
대로@@ 157
점 157
품절@@ 157
같아요~@@ 157
하다가 157
무난하니 157
좋습니다.@@ 157
은근 157
색을 157
상품평이 157
괜춘 157
베이지색 157
레이어드해서 157
입을듯 157
예뻐요~@@ 156
예요. 156
좋아요~^^ 156
감 156
사이@@ 156
빠져서 156
특이@@ 156
주셔서 156
먹@@ 156
문@@ 156
스타일은 156
짧아요. 156
입기에도 156
바지랑 156
되요 155
하네요.. 155
x@@ 155
감동@@ 155
하시고 155
괜찮은거같아요 155
한데@@ 155
놓고 155
옷도@@ 155
올라@@ 155
쫀쫀하니 155
못입@@ 155
기모 155
허접@@ 154
안쪽 154
개 154
데일리 154
시간@@ 154
수가 154
쳐@@ 154
상 154
몸@@ 154
귀찮@@ 154
더라구요@@ 154
말고는 154
도는 154
크네요. 154
슬랙스 154
따뜻하네요 154
별로입니다 154
오늘@@ 154
조아요조아요 153
버리@@ 153
체크@@ 153
운동@@ 153
려서 153
사진에 153
편해요@@ 153
받아@@ 153
바느질 153
세탁해서 153
놓@@ 153
카라@@ 153
전혀@@ 153
발이@@ 153
발볼 153
245@@ 153
치마는 153
있겠@@ 152
천도 152
든@@ 152
때는 152
하겠@@ 152
냄새가@@ 152
낫@@ 152
두번@@ 152
레이스 152
다리도 152
온 151
퀄리티는 151
들어가서 151
한테 151
보이지 151
않았는데 151
났@@ 151
하긴한데 151
바지도 151
*@@ 150
지퍼 150
빠른@@ 150
;;; 150
어떤 150
망@@ 150
이라도 150
세요 150
라지@@ 150
당황@@ 150
170@@ 150
감이@@ 150
아프@@ 149
삼@@ 149
두루두루 149
곳@@ 149
하고, 149
동@@ 149
디 149
하루@@ 149
올려@@ 149
붙는 149
두께감@@ 149
날이 149
군@@ 149
진한@@ 149
라고@@ 149
레드@@ 148
접@@ 148
만족해요~ 148
친구@@ 148
린@@ 148
걸로 148
하기도 148
아닌듯 148
생각했던@@ 148
으면@@ 148
처럼@@ 148
분홍@@ 148
어느정도 148
1 148
스타일이라 148
듭니다@@ 148
이쁘구 148
느낌? 148
화면에서 148
치 148
싸이즈 148
을듯 148
하신@@ 148
입으려@@ 148
허벅지가 148
엔@@ 147
헤@@ 147
벌써 147
뜯@@ 147
할듯@@ 147
z@@ 147
와인@@ 147
사람들이 147
하지않@@ 147
엉망@@ 147
편합니다. 147
하얀@@ 147
같은게 147
한듯 147
상품평 147
타 147
마다 147
늘어@@ 147
말 147
이예@@ 147
늦어요 147
입어야겠@@ 147
으로도 146
싸이즈@@ 146
튼튼하고 146
어떤@@ 146
더운@@ 146
좀더@@ 146
너무나 146
남편이 146
모양은 146
좋습니다! 146
여자@@ 146
앗@@ 146
구두 146
아래@@ 146
조심@@ 145
하고요 145
맘에들어서 145
거리는 145
초록@@ 145
5 145
않는 145
네요~^^ 145
잡아주@@ 145
구요! 145
겁나 145
넓은@@ 145
포인트가 145
절@@ 145
선 145
작년에 145
짧지만 145
컬러는 145
한번도 145
다름 145
그저 145
랑은 145
맞아요. 145
핏이나 145
팔도 145
려고@@ 144
다보니 144
사람이 144
있어요~ 144
줄알았는데 144
토@@ 144
맘에드@@ 144
결국 144
옴 144
대충 144
고...@@ 144
같기도 144
보내주@@ 144
요~~~ 144
않네요. 144
맘에들어요~ 144
입고다니@@ 144
고급스러워@@ 144
촉감이 144
덮@@ 144
품은 144
단독으로 144
염 143
이쁘긴 143
구용 143
트 143
괜찮았@@ 143
좋아요좋아 143
충분히 143
퀄리티도 143
사이즈도@@ 143
좋네요^^ 143
구매햇는데 143
시키@@ 143
알았@@ 143
상태가 143
마감처리가 143
이번 143
기대했는데 143
넓고 143
지않아요 143
평범@@ 143
꼬@@ 143
모자@@ 143
두툼하고 143
입어도@@ 143
슬랙스@@ 143
거같은데 143
밑단 143
남방@@ 143
걸어@@ 142
나중에 142
들어요^^ 142
다행@@ 142
그래두 142
계@@ 142
시고 142
갔@@ 142
기다려서 142
사진그대로@@ 142
바닥이 142
거랑 142
첨에 142
달라붙@@ 142
^@@ 142
해보이고 142
긴하네요 141
부분이@@ 141
15@@ 141
본 141
3 141
싶어서 141
잘어울리@@ 141
요? 141
니까@@ 141
스몰@@ 141
이뻐요.@@ 141
내내 141
일주일@@ 141
느낌의 141
소매도 141
날씨 141
종아리 141
친절하시고 140
구요~@@ 140
품질도 140
고급스러워 140
워요 140
같아요~~ 140
임. 140
다고해서 140
세일@@ 140
두가지 140
괜찮을 140
보이는데 140
골@@ 140
부담@@ 140
나봐요 140
없을@@ 140
원피스에 140
잔@@ 140
부츠@@ 140
신으@@ 140
넥@@ 140
하늘하늘 140
더워서 140
허리도 140
또한 139
넉넉하니 139
만한 139
여러@@ 139
란@@ 139
짜증@@ 139
만족해요. 139
이것저것 139
이에요~ 139
딱이고 139
에비해 139
이쁘구요 139
벌@@ 139
왓@@ 139
쨍@@ 139
165@@ 139
18@@ 139
늦은@@ 139
볼이 139
부드러워요 138
그거 138
예상@@ 138
잠@@ 138
좋아하는데 138
루 138
만족하고 138
보통이예요 138
좋을것같아요 138
고,@@ 138
좋을거같아요 138
유 138
실제 138
네요!! 138
털이@@ 138
이것만 138
신랑이 138
두꺼워@@ 138
걸쳐@@ 138
맘@@ 138
생기@@ 138
2주 138
돈 138
슬@@ 137
적으로 137
깔끔한 137
여행갈때 137
돌@@ 137
대만족 137
재질이나 137
는데... 137
시간이 137
있으니 137
티는 137
레이스가 137
다가@@ 137
하니까 137
쪽은 137
해보여요 136
되는@@ 136
스럽@@ 136
물건은 136
네용@@ 136
사진보다는 136
무난해서 136
큰거 136
맞는@@ 136
께@@ 136
요~^^ 136
돼@@ 136
이뽀요 136
지않아서 136
식@@ 136
고급스러워요 136
후기가 136
니다.@@ 136
사진은 136
전체적인 136
m 136
따듯하고 136
검은@@ 136
진청@@ 136
팔이@@ 136
무지@@ 135
카@@ 135
잘받앗어요 135
구매했어요@@ 135
적당해요 135
로는 135
특이하고 135
안되서 135
거같아@@ 135
사길 135
까칠@@ 135
진않아요 135
어디@@ 135
그러네요 135
양말@@ 135
패딩 135
보내주셔서 134
데요 134
게요 134
붙어@@ 134
있었으면 134
없는데 134
주시고 134
천 134
그렇네요 134
ㆍ@@ 134
받았네요 134
이뽀@@ 134
^^* 134
납니다 134
똑같은 134
올리@@ 134
그래요. 134
처리 134
아무래도 134
고무@@ 134
일어나@@ 134
깔@@ 134
듯... 134
까끌@@ 134
한번입고 134
잘입@@ 134
추울@@ 134
명@@ 133
시켰@@ 133
넣어서 133
빨라@@ 133
노랑@@ 133
덕분에 133
예정@@ 133
카키 133
아예 133
어울릴@@ 133
부들부들하고 133
거리고 133
받은 133
아무데나 133
갑자기 133
겁나@@ 133
드 133
구입하고 133
힙@@ 133
4 133
넓어@@ 133
쇼핑@@ 132
실물@@ 132
싼티가 132
같아용 132
선물 132
워 132
활용@@ 132
어요!! 132
여름엔 132
그러나 132
찾아@@ 132
아요. 132
이예요. 132
그저@@ 132
다해서 132
별 132
최악@@ 132
따뜻한 132
낮@@ 132
편안하고 132
배가 132
2개@@ 132
않음 132
'@@ 132
하나는 132
섹시@@ 132
도안@@ 131
백 131
민트@@ 131
파세요~ 131
놀@@ 131
가려@@ 131
쉽게 131
것과 131
분들@@ 131
상세@@ 131
하는게 131
뿐@@ 131
일단@@ 131
싼게 131
무조건 131
흔하지 131
재질도@@ 131
색상으로 131
큽니다. 131
왔어요. 131
여.. 131
길이도@@ 131
다녔@@ 130
까진 130
할수@@ 130
굳@@ 130
힘이 130
빠름 130
아무@@ 130
셔서 130
작아@@ 130
정도의 130
완젼 130
베이지가 130
파세요@@ 130
이쁜데@@ 130
보라@@ 130
쨍한 130
벙벙@@ 130
입습니다. 130
입어 130
25@@ 130
들기 129
심플@@ 129
예쁘고@@ 129
로도 129
판@@ 129
괜찮아요! 129
확인 129
청바지랑 129
긴하는데 129
근@@ 129
마감 129
좋아용@@ 129
음..@@ 129
주문한 129
작게@@ 129
계속@@ 129
잇어요 129
핑크가 129
아여 129
네여@@ 129
엄@@ 129
배송이너무@@ 129
아서@@ 129
잘입고있어요 129
입겠습니다 129
입으려고@@ 129
싫@@ 128
버렸@@ 128
고정@@ 128
드네요. 128
겟어요 128
커요. 128
감사합니다~ 128
맘에들어용 128
쉬@@ 128
딱딱@@ 128
인가 128
엄마 128
깔끔해요 128
뭔가@@ 128
스타일이 128
배송지연@@ 128
아주아주 128
사람 128
습@@ 128
눈에 128
네요;; 128
앞으로도 128
화려@@ 128
였는데 128
신경 128
삿어요 128
여~ 128
것만 128
보풀도 128
230@@ 128
트임이 128
활동@@ 128
이상해요 128
보는@@ 127
답니다 127
서.. 127
~~!! 127
거의@@ 127
답변@@ 127
갈 127
~~! 127
빳빳@@ 127
통 127
맨투맨 127
디자인은@@ 127
면도 127
냐@@ 127
좋 127
차콜@@ 127
거같아여 127
추워@@ 127
기다린@@ 127
그럼 127
샀다가 127
고무줄@@ 127
못입고 127
따뜻합니다 127
외출@@ 126
며@@ 126
이요 126
지않아 126
처음엔 126
첨엔 126
같아요^^ 126
않게 126
입니다! 126
보통이@@ 126
29@@ 126
부담스럽@@ 126
짧음 126
소매부분이 126
오버핏으로 126
입어봤는데 126
두껍지 126
가슴이 126
입어요. 126
잘입을게@@ 126
등 125
진주@@ 125
차라리 125
하네여 125
프@@ 125
길게 125
가격으로 125
잘어울려요 125
좋네용 125
좋아요~~@@ 125
예뻐여 125
생각하면 125
웠@@ 125
할인@@ 125
긴한데@@ 125
비침@@ 125
바지를 125
로퍼 125
남자친구 124
만족스럽습니다. 124
중간@@ 124
예쁨@@ 124
튀@@ 124
좋으나 124
관@@ 124
하지않고 124
저는@@ 124
비 124
싸이즈가 124
확@@ 124
단점@@ 124
염@@ 124
는데요 124
옹 124
갠찬@@ 124
발목 124
목부분 124
소라@@ 124
막입기 124
역시@@ 123
딸@@ 123
디자인이라 123
사줬는데 123
컸@@ 123
곳이 123
리고 123
이뻐 123
딱입니다 123
똑같이 123
태@@ 123
습니다^^ 123
잘어울릴@@ 123
어디에나 123
이긴 123
되어있어서 123
똑@@ 123
가격대@@ 123
투@@ 123
곳 123
않아요@@ 123
싼티나요 123
들었어요 123
해요~~ 123
해주시@@ 123
고급스러운 123
무겁고 123
해요~@@ 123
했음 123
무난합니다. 123
0@@ 123
날씨@@ 123
무거워요 123
시원한@@ 123
물론 123
아니네요. 123
입겠습니다. 123
스판 123
스판기가 123
골반이 123
귀여워@@ 122
넣어 122
포@@ 122
죠? 122
기엔 122
이쁜거 122
하구@@ 122
그대로에요 122
오자마자 122
상태@@ 122
세탁하면 122
폭이 122
합@@ 122
여튼 122
3주@@ 122
좋네요! 122
잘어울리고 122
져요 122
많이파세요@@ 122
박시한 122
생각한@@ 122
코디해서 122
긴했지만 122
심 122
dk@@ 122
밴드@@ 122
꽃@@ 122
모두@@ 121
감사합니다^^ 121
난리@@ 121
품 121
꼼꼼히 121
블루 121
줬@@ 121
구입해서 121
때도 121
않은@@ 121
것같고 121
거같아요~ 121
고급지@@ 121
48@@ 121
여름까지 121
고는 121
이해@@ 121
하지는 121
신어보니 121
옷감이 121
파여서 121
엉덩이가 121
무릎 121
물건도 120
않을까 120
구매평이 120
는대 120
늦고 120
받아보고 120
심플하고 120
다녀요 120
고싶@@ 120
~~~^^ 120
들도 120
치고는 120
하긴@@ 120
조절@@ 120
끈도 120
인거같아요 120
만큼은 120
았어요 120
두툼해서 120
보기@@ 120
겠죠@@ 120
있습니다@@ 120
톡톡하고 120
출근@@ 120
린넨 120
이에@@ 120
몸이 120
입었을 120
후드@@ 120
가죽도 119
깊@@ 119
❤️ 119
많고 119
스타일도 119
모양도 119
모르겠네요 119
빛이 119
간 119
저에겐 119
사진이랑@@ 119
편함 119
이랑@@ 119
블@@ 119
됐는데 119
에서는 119
다르고 119
주시@@ 119
cm 119
은거 119
신었@@ 119
신축성은 119
누가 119
부츠컷@@ 119
입어야할@@ 119
최악 119
하려@@ 118
잘산거같아요 118
오는 118
한듯@@ 118
보기보다 118
흠@@ 118
시켜@@ 118
상태 118
안쪽에 118
둘@@ 118
많은데 118
하자@@ 118
즈@@ 118
짧아 118
비교@@ 118
주문했는데@@ 118
좋고, 118
훨씬@@ 118
받았어요. 118
단지 118
보는거랑 118
테@@ 118
탄탄@@ 118
탈@@ 118
장난@@ 118
별로고 118
움@@ 118
으로는 118
잡아줘서 118
95@@ 118
배송만 118
이쁘네여 118
신으니 118
앞코가 118
입을게@@ 118
상의 118
허리가@@ 118
수납@@ 117
값@@ 117
생각했@@ 117
만족! 117
불안@@ 117
많은@@ 117
구겨@@ 117
코디 117
굿! 117
구매확정@@ 117
께요 117
좋네여 117
거려서 117
빠져@@ 117
잘받앗@@ 117
수도@@ 117
이유가 117
먼지 117
프리@@ 117
라인은 117
갠찮@@ 117
원피스 117
마무리가 117
하면@@ 117
힐@@ 117
흰색은 117
티에 117
통도 117
뚱뚱@@ 117
밑단@@ 117
구요..@@ 116
이쁘다@@ 116
감도 116
됩니다 116
리본@@ 116
나을@@ 116
한건 116
좋아여@@ 116
해주셨@@ 116
이너무@@ 116
아쉬움이 116
사이즈보다 116
베란다에 116
어렵@@ 116
그리@@ 116
불편하고 116
안되고 116
금방@@ 116
무 116
프릴@@ 116
아니예요 116
어서@@ 116
심하고 116
단정@@ 116
이며 116
겨울에도 116
될것 116
저한텐 116
여유있게 116
풀리면 116
까슬@@ 116
치수 116
걸림 116
타이트하게 116
적당한@@ 115
네요.... 115
언니 115
하며 115
;;@@ 115
아쉬운 115
연락도 115
그거@@ 115
대체적으로 115
노란@@ 115
꼭@@ 115
불만@@ 115
일반@@ 115
괜찮아요~~ 115
확 115
사진그대로 115
감사합니당 115
검정색@@ 115
부족@@ 115
이나@@ 115
셔@@ 115
길이감@@ 115
낙낙@@ 115
입었더니 115
M사이즈 115
짧아요@@ 115
옷이네요 115
L 115
팬츠@@ 115
펑퍼짐@@ 115
모델핏은 115
하려고 114
빨랐구요 114
어용@@ 114
할까 114
있게 114
주셨@@ 114
해보여서 114
빠릅니다 114
다른건 114
신으려고 114
품질이 114
잘산거 114
준@@ 114
톤@@ 114
얇은데 114
편한데 114
나온거 114
스트라이프 114
추천합니다@@ 113
얇아@@ 113
산거@@ 113
파세요. 113
쏙@@ 113
드렸@@ 113
이쁘네용 113
많아 113
하네요.@@ 113
보자마자 113
체@@ 113
캐주얼@@ 113
째 113
좋았을텐데 113
빵빵@@ 113
보입니다. 113
구매한@@ 113
블랙이랑 113
구매햇@@ 113
나는@@ 113
아니라@@ 113
추가@@ 113
이걸 113
늘@@ 113
연한 113
꺼같@@ 113
세탁해도 113
그렇지만 113
애매한 113
아닙니다 113
이쁠듯 113
얼굴이 113
루즈핏 113
두께감 113
m사이즈 113
맘에@@ 112
들어가고 112
귀여운 112
보였는데 112
들고다니@@ 112
필수@@ 112
허술@@ 112
구매하고싶@@ 112
풀려서 112
50@@ 112
괜찮네요@@ 112
검수 112
카멜@@ 112
나는데 112
정리@@ 112
듯해요. 112
더욱 112
젤@@ 112
판매자@@ 112
것같아서 112
어야@@ 112
감안@@ 112
구매하세요 112
모르겠어요 112
건지@@ 112
불구하고 112
한달 112
없어요. 112
팔부분이 112
맞아요@@ 112
추워져서 112
스커트에 112
옷이에요 112
몸무게 112
옷의 112
길이감은 112
핏이랑 112
로퍼@@ 112
이어서 111
벌어@@ 111
불편하네요 111
편히 111
잡히@@ 111
예뻐용@@ 111
브랜드@@ 111
합니다! 111
참고로 111
했었는데 111
나요. 111
떠@@ 111
고급@@ 111
될거같아요 111
할까@@ 111
청바지나 111
입고다닐@@ 111
롱 111
어벙벙@@ 111
체형@@ 111
참고 111
는데. 111
라쿤@@ 111
딴@@ 110
접어@@ 110
미니@@ 110
가방을 110
있다면 110
A@@ 110
원했는데 110
욥 110
베이지는 110
화면하고 110
놔@@ 110
심하네요 110
거는 110
택배 110
조 110
알려@@ 110
검수@@ 110
예요@@ 110
젛@@ 110
여. 110
됩니다. 110
편인데도 110
해야할@@ 110
6 110
세탁을 110
입으려고요 110
색상도@@ 109
안된@@ 109
거같아용 109
물어@@ 109
환@@ 109
속 109
빠졌@@ 109
주문해@@ 109
하시면 109
어느 109
약간의 109
생각했던거보다 109
입니다.. 109
뻔 109
이미 109
20@@ 109
베이지도 109
납니다. 109
좋은데@@ 109
가요 109
뻔@@ 109
프릴이 109
됨 109
빛 109
입지 109
딱맞아요 109
사이즈인데 109
맞을@@ 109
스판끼 109
핑크색 108
색이에요 108
컷@@ 108
있고@@ 108
그만큼 108
어제 108
드렸는데 108
뻑뻑@@ 108
니다~ 108
빨강@@ 108
았는데 108
수준@@ 108
디자인과 108
저렴해 108
외@@ 108
거에요 108
하나더@@ 108
좋아요!!! 108
놨@@ 108
배송에 108
??@@ 108
재질에 108
편이에요 108
3일@@ 108
짜@@ 108
봐서 108
지만..@@ 108
였어요 108
푸@@ 108
린 108
빠져요 108
위 108
굿입니다 108
두께는 108
225@@ 108
맞네요. 108
받쳐 108
쌀쌀@@ 108
kg 108
쫀쫀해서 108
시스루@@ 108
긴팔@@ 108
옷자체는 108
♥ 107
니다.. 107
넣으면 107
않을@@ 107
번창하세요@@ 107
문제가 107
저에게 107
가지@@ 107
여리@@ 107
배송도빠르고@@ 107
펴@@ 107
렸@@ 107
깔끔 107
어울릴 107
보이진 107
어느@@ 107
요새 107
건가@@ 107
변@@ 107
XL 107
예쁘긴한데 107
나쁘@@ 107
활용도가 107
더니@@ 107
품질은 107
저렴하니 107
늘어나는 107
하셨@@ 107
배 107
오래걸렸@@ 107
235 107
세탁후 107
줄어@@ 107
민망@@ 107
속옷@@ 107
부츠컷 107
종아리@@ 107
달리 106
속이 106
두고 106
수납도 106
적 106
예뻐요.@@ 106
원래@@ 106
졌어요 106
림@@ 106
사이즈에 106
보냈@@ 106
에서도 106
쯤 106
한느낌@@ 106
마냥 106
어깨에 106
좀.. 106
잠깐 106
이였@@ 106
가까운 106
뭐가 106
나올@@ 106
드러@@ 106
풀리@@ 106
정사이즈보다 106
기본티@@ 106
모델처럼 106
뚱뚱해보이@@ 106
베스트@@ 106
시원해요 106
제작@@ 105
좋다고 105
일이 105
고급져@@ 105
작은데 105
마니파세요 105
이틀@@ 105
안사@@ 105
져서@@ 105
아쉬운@@ 105
주머니도 105
봣@@ 105
않습니다 105
국@@ 105
입니다^^ 105
깔끔해서 105
같은거 105
브@@ 105
부탁@@ 105
한참 105
여름에@@ 105
성 105
어울려서 105
느리지만 105
무리@@ 105
및 105
반짝@@ 105
인가@@ 105
것같은데 105
글 105
드라이@@ 105
면은 105
이니 105
추가 105
에요~ 105
마감도 105
이쁘긴@@ 105
~^^@@ 105
아파요 105
화사하고 105
덩치가 105
안감 105
라지 105
색은@@ 105
털은 105
운동화 105
작게나온@@ 105
반품귀찮아서 105
하고.. 105
별로.. 105
168@@ 105
F@@ 105
앉@@ 105
엉@@ 104
안했는데 104
친구가 104
적극추천합니다 104
해주세요 104
d 104
좋았습니다 104
수선 104
가벼워요 104
했는데, 104
지만... 104
설명@@ 104
신경써@@ 104
같아여 104
받앗@@ 104
구겨져서 104
특이해서 104
더라고요 104
엉성@@ 104
용! 104
나니 104
있구요 104
아니구 104
짧은감이 104
만족이@@ 104
보들보들@@ 104
하는거 104
붙어서 104
퍼 104
아니었@@ 104
거같습니다 104
이너 104
어쩔수 104
두껍네요 104
커버@@ 104
자체@@ 104
다행히 104
타이트해서 104
소라색 104
입어봤@@ 104
입을려구요 104
M 104
예쁩니다@@ 103
맘에들@@ 103
실제@@ 103
찾고있었는데 103
편해요! 103
폭@@ 103
나갈때 103
좋앗@@ 103
말이 103
문의 103
딱히 103
착용감도 103
잘받앗습니다 103
부실@@ 103
당 103
보여 103
패@@ 103
격@@ 103
샤@@ 103
색상이랑 103
사고@@ 103
주 103
중간에 103
했고 103
역@@ 103
원단이@@ 103
봐도 103
받음 103
인지@@ 103
첫@@ 103
그런가@@ 103
미듐@@ 103
250@@ 103
쫄@@ 103
오버핏이@@ 103
상체가 103
팔뚝@@ 103
별루네요 103
핏이라 103
셔츠랑 103
L사이즈 103
샀어요@@ 102
좋다@@ 102
신경@@ 102
표@@ 102
남편 102
철@@ 102
틀@@ 102
빨래@@ 102
상태도 102
인터넷 102
얼@@ 102
주문했더니 102
캐쥬얼@@ 102
죽@@ 102
세요@@ 102
있어도 102
단점은 102
검@@ 102
복 102
있다 102
아이보리는 102
맘에듭니다@@ 102
니트는 102
늘어나고 102
해요..@@ 102
톡톡하니 102
애매해요 102
실패@@ 102
살아@@ 102
종아리가 102
이뻤@@ 102
입다보면 102
앙고라@@ 102
살걸 102
편하긴 102
작지만 101
매고 101
동생이 101
이쁘네요^^ 101
동안 101
비싼 101
친절히 101
@@@ 101
좋았습니다. 101
옆에 101
진않지만 101
직@@ 101
좋은듯 101
에나 101
더운 101
그렇지 101
가격만큼의 101
지금부터 101
이쁩니당 101
괜찮았어요 101
000원@@ 101
했네요. 101
씩 101
흰색이 101
괜찮은듯 101
광택@@ 101
봄에@@ 101
봄가을에 101
입기가 101
지갑@@ 100
친구 100
잘쓸@@ 100
점이 100
있으@@ 100
들어요~~ 100
쥬@@ 100
저렴하게@@ 100
있는거 100
것같아요~ 100
땐 100
유용하게 100
긴하지만@@ 100
굿굿굿 100
가격도@@ 100
해야하나 100
어차피 100
릴@@ 100
색상과 100
래요 100
없네요. 100
화면에 100
얇아요. 100
걸렸네요 100
하구요. 100
입 100
앞 100
스판끼@@ 100
230 100
딱맞네요 100
합니다.. 100
입엇@@ 100
D@@ 100
따뜻하고@@ 100
입을만합니다 100
입고싶@@ 100
비쳐요 100
칼라@@ 99
좋습니당 99
꽉@@ 99
고민중@@ 99
메고 99
미 99
%@@ 99
활용도 99
필@@ 99
마음에듭니다 99
편입니다 99
바닥@@ 99
안쪽@@ 99
겠죠 99
제일@@ 99
제품을 99
정말좋아요 99
다음@@ 99
철 99
여~~ 99
저렴한데 99
이쁘지만 99
반품은 99
편하구요 99
기다렸는데 99
양말 99
이제@@ 99
아닌거 99
파랑@@ 99
머 99
안맞@@ 99
타이트해요 99
걷@@ 99
날씬한 99
입을려@@ 99
55사이즈 99
잘입을께@@ 99
배송느려요 99
엠@@ 99
좋아하네요 98
크기는 98
셨@@ 98
가방으로 98
40@@ 98
리가 98
이다 98
톤다운된 98
들어용 98
수납공간도 98
전부 98
기대는 98
아쉬움 98
찢어@@ 98
지.. 98
어깨도 98
그랬어요 98
속상@@ 98
예쁘게@@ 98
2개 98
지나@@ 98
어디서 98
해야겠@@ 98
거같아 98
땜에 98
훌륭@@ 98
길어 98
가고 98
구매후 98
신랑@@ 98
늘 98
240 98
스타킹@@ 98
팔은 98
단추도 98
전반적으로 97
물이 97
독특@@ 97
사랑@@ 97
챙겨@@ 97
답변도 97
마르@@ 97
분들도 97
금액@@ 97
좋네요.@@ 97
만족해요! 97
보입니다 97
네요, 97
작음 97
지인@@ 97
운동화@@ 97
시간 97
보람이 97
절대@@ 97
다녔어요 97
가깝@@ 97
언@@ 97
빠지고 97
에요! 97
락@@ 97
다르지만 97
스웨이드 97
회색 97
완@@ 97
어두워요 97
선이 97
야겠@@ 97
발등@@ 97
신었는데 97
얇지도 97
루즈하게 97
!!!!@@ 96
진심 96
촉감@@ 96
45@@ 96
않아요~ 96
보내주셨@@ 96
괜찮은것같아요 96
여성@@ 96
월@@ 96
입구@@ 96
좁아서 96
구매할 96
엿@@ 96
이뻐요~~~ 96
접어서 96
되어있@@ 96
상품을 96
착용감이 96
때마다 96
보세@@ 96
인터넷으로 96
같습니다@@ 96
안내@@ 96
텐데 96
그런대로 96
맘에들어 96
사려@@ 96
샀네요 96
파는 96
쇼핑몰@@ 96
걸치고 96
했어요~ 96
워요. 96
좋은것같아요 96
걸치@@ 96
놀랐@@ 96
밤@@ 96
fj@@ 96
버릴@@ 96
잘입었@@ 96
골지@@ 96
쫀쫀한 96
예뻤@@ 96
소매는 96
간편하게 95
품절이라 95
포장 95
것같아 95
좋구요@@ 95
네여~ 95
맘에듬 95
커서@@ 95
베@@ 95
^^; 95
물건을 95
용~~ 95
애용@@ 95
얇지 95
야할@@ 95
되는데 95
스트라이프@@ 95
e 95
신었을때 95
잘신을@@ 95
잘맞네요 95
입자마자 95
뚱@@ 95
같은데@@ 95
잘입을게요~ 95
잘입겠@@ 95
지금입기 95
그냥입어요 95
모델핏@@ 95
중청@@ 95
것은 94
구김 94
민@@ 94
배송빠르@@ 94
산것 94
말씀@@ 94
대충@@ 94
만족합니다~~ 94
화이트는 94
후에 94
사람들@@ 94
친절하고 94
♡@@ 94
세요. 94
는게@@ 94
달려@@ 94
가지 94
보단@@ 94
줄여@@ 94
찾았@@ 94
특성상 94
넉넉해요 94
남편@@ 94
것도@@ 94
조금은 94
이에요! 94
풀려@@ 94
좋지는 94
입구 94
화면그대로@@ 94
연한@@ 94
별로였@@ 94
볼 94
8 94
될거 94
아무튼 94
브이넥 94
잘입어질@@ 94
올라가@@ 94
어깨부분이 94
이에여 93
감사합니다! 93
광@@ 93
처음에는 93
구매했네요 93
괜찮아용 93
수있을@@ 93
맘에들어요. 93
다른거 93
가벼운 93
12@@ 93
합니다^^ 93
감사 93
지저분@@ 93
에코백@@ 93
인줄@@ 93
무난히 93
맘에드는데 93
삼 93
했던 93
#@@ 93
것같은 93
저렇게 93
아니어서 93
줘야@@ 93
두번 93
안나오@@ 93
사는 93
올해 93
비지떡@@ 93
뚱뚱해 93
색상을 93
파였@@ 93
도톰한 93
32@@ 93
하이웨스트@@ 93
남방 93
스판도 93
어지@@ 92
닫@@ 92
햇어요 92
들고다닐@@ 92
때가 92
원하던@@ 92
얼마나 92
무거운@@ 92
잡아주는 92
잡아@@ 92
새 92
모델분이 92
따라 92
않았어요 92
편할@@ 92
오네요 92
주는 92
떨어지네요 92
최@@ 92
출@@ 92
반품하고 92
쪽으로 92
반품도 92
사고싶네요 92
크긴한데 92
치곤 92
세트로 92
인터넷에서 92
었어요 92
어디에 92
탁@@ 92
반 92
,,,@@ 92
아직도 92
지... 92
될것같아요 92
주름 92
아랫@@ 92
발목이 92
스판이라 92
봄가을@@ 92
요즘같은 92
옷입니다 92
주문한@@ 92
내복@@ 92
그냥그냥@@ 92
가디건은 92
소리@@ 91
현@@ 91
좋았어요. 91
할수 91
남친@@ 91
지않네요 91
좋네요~~ 91
기대이상@@ 91
채@@ 91
이도 91
봐야@@ 91
완벽@@ 91
이여서 91
색상이나 91
디자인도@@ 91
무난하네요 91
에도@@ 91
것같습니다 91
연출@@ 91
가격에비해 91
짱짱하니 91
첨 91
욤@@ 91
제질@@ 91
가볍게@@ 91
받았을때 91
둘 91
물 91
아쉽습니다 91
흰색이라 91
회사@@ 91
본드@@ 91
아용 91
맘에듭니다. 91
예쁘지만 91
우 91
트임@@ 91
핏에 91
가슴 91
163@@ 91
입거나 91
느립니다 91
너무커요 91
솜@@ 91
있긴한데 90
것을 90
질도@@ 90
지지 90
보내주시@@ 90
나면 90
박음질도 90
인터넷@@ 90
머리@@ 90
고객@@ 90
야겠어요 90
집에 90
괜찮아여 90
거든요 90
이상한@@ 90
으론 90
상담@@ 90
이뻐요이뻐요 90
시면 90
이는 90
무척 90
아도 90
달라 90
샀더니 90
재구매했어요 90
택@@ 90
색상별로 90
색이네요 90
느낌이네요 90
류@@ 90
&@@ 90
몇 90
길었@@ 90
이가격@@ 90
원피스랑 90
소재가@@ 90
요.... 90
잘입을께요~ 90
옷감@@ 90
티를 90
입어야할듯 90
시스루 90
/7@@ 90
하세요. 89
주문햇는데 89
생겼@@ 89
받을@@ 89
이.. 89
하세요@@ 89
남자 89
좀만 89
강추합니다 89
욧 89
책@@ 89
저렴 89
기는@@ 89
있는게 89
왔고 89
줘서 89
남기@@ 89
애매해서 89
sk@@ 89
소재로 89
더워져서 89
가격대비는 89
+@@ 89
밝아요 89
양말신고 89
옷입니다. 89
브이넥@@ 89
비침 89
허리에 89
별루에요 89
다림질@@ 89
입을께@@ 89
셔츠는 89
주머니에 88
먼가 88
순간 88
바꾸@@ 88
같지 88
느끼@@ 88
kg@@ 88
독특하고 88
편이네요 88
잘어울려@@ 88
산거라 88
진않네요 88
조아요조아 88
좋지만 88
원 88
잇고 88
음.@@ 88
엇는데 88
밖에@@ 88
탄탄하고 88
하면서도 88
좋음@@ 88
사도 88
사고싶어요 88
이라고@@ 88
어중간@@ 88
이쁠거 88
빠르구요 88
착 88
가성비가 88
느낌이고 88
마 88
난감@@ 88
매치해서 88
키로@@ 88
잘라@@ 88
세탁하고 88
걸을때 88
입기로 88
몸매@@ 88
7 88
셔츠에 88
발에 88
생각만큼 87
환불 87
지퍼도 87
얼마@@ 87
늦은 87
해도@@ 87
해요^^ 87
에만 87
여러모로 87
색상이라 87
기도하고 87
넘어@@ 87
가볍고@@ 87
업 87
어울려@@ 87
계절@@ 87
해요... 87
배송빠르고@@ 87
비슷한@@ 87
곧 87
애매하네요 87
빳빳한 87
매치하기 87
길지만 87
커보이@@ 87
T@@ 87
달 87
가는@@ 87
두번째@@ 87
사실@@ 87
기다리다 87
짱짱해서 87
널널@@ 87
껴서 87
듯합니다. 87
띄@@ 87
나오고 87
일어날@@ 87
따가@@ 87
입을거같아요 87
입게@@ 87
65@@ 87
지금입기@@ 87
사무실에서 87
선물했는데 86
느껴지@@ 86
좋아요~~^^ 86
빠른배송감사합니다 86
찌@@ 86
냐고 86
빨간@@ 86
사이즈라 86
각 86
크지도 86
것같아요! 86
룩@@ 86
반품하려다 86
이정도@@ 86
예요~ 86
나갔@@ 86
주문했어요. 86
괜차나요 86
함이 86
얇아 86
편입니다. 86
믿@@ 86
칙칙@@ 86
까지도 86
에코백 86
그래여 86
하기엔 86
가성비는 86
이쁘네요~~ 86
지않게 86
160인데 86
찐@@ 86
생각중@@ 86
검은색@@ 86
좋구@@ 86
타이트한 86
편이 86
기대가 86
웃@@ 86
그냥그래@@ 86
입고있어요 86
바지나 86
스커트랑 86
배송비@@ 86
잘입었어요 86
옷으로 86
드라이 86
을텐데 86
핏을 86
집에서@@ 86
커플로 85
구매해@@ 85
서..@@ 85
을때@@ 85
물건이 85
봉@@ 85
받아보@@ 85
뒀@@ 85
같습니다.@@ 85
천은 85
친절하시@@ 85
어디 85
예뻐요~^^ 85
같아요!! 85
짧은거 85
결정@@ 85
땡@@ 85
생각보단@@ 85
귀찮고 85
휴가@@ 85
불편 85
랴@@ 85
하네용 85
느낌으로 85
어두@@ 85
어려@@ 85
양쪽 85
대한 85
있다@@ 85
xl@@ 85
날에 85
카키색 85
삐@@ 85
는데...@@ 85
아쉽 85
쫀쫀해요 85
옷이라 85
올겨울 85
시원해서 85
풍성하고 85
밴딩 85
넉넉히 84
님@@ 84
비싸게 84
맘에들어요! 84
귀엽네요 84
찾았는데 84
이것도 84
변경@@ 84
걱정 84
늦어@@ 84
던데@@ 84
없습니다 84
점은 84
갠@@ 84
듯이 84
어울리네요 84
작을@@ 84
이뻐요~^^ 84
드리@@ 84
분도 84
것보단 84
실물은 84
넘이뻐요 84
아플@@ 84
청바지에도 84
으니까 84
XL@@ 84
배송비 84
여성여성@@ 84
맛에 84
아니여서 84
과는 84
최고에요 84
자수@@ 84
이에요.@@ 84
무튼 84
보 84
아니에요. 84
단추를 84
빠른편이@@ 84
보풀은 84
회@@ 84
착화감도 84
않고@@ 84
이너로@@ 84
핏감 84
좋지 84
스러@@ 84
어깨선이 84
팬츠 84
입으시@@ 84
느려요. 84
무릎이 84
부츠 84
하네요^^ 83
하는데@@ 83
좋아요..@@ 83
가끔 83
겠습니다. 83
스트@@ 83
👍 83
돼서 83
받았습니다@@ 83
저렴해보이@@ 83
동생 83
살껄 83
여름에는 83
다른데 83
던지 83
착해서 83
왔네요. 83
땀@@ 83
입니당@@ 83
아니구요 83
이뻐여@@ 83
괜찬아요 83
질감도 83
9 83
없습니다. 83
어쩔 83
흔@@ 83
광택이 83
김@@ 83
휴@@ 83
종@@ 83
청 83
계절에 83
여유가 83
늦었어요 83
핑크는 83
살까@@ 83
하거나 83
앙@@ 83
있겠어요 83
싸보이@@ 83
폼@@ 83
한여름에 83
디테일@@ 83
하시는 83
/5@@ 83
H@@ 83
나왔어요 83
그냥그래여 83
두께 83
아요~ 83
깔창@@ 83
부들@@ 83
하늘@@ 83
55 83
통이@@ 83
티랑 83
일만에 83
하구요@@ 82
들어갈@@ 82
무늬가 82
발견@@ 82
느낌입니다 82
해보여@@ 82
떨어지고 82
인생@@ 82
에선 82
멋스럽@@ 82
통은 82
샀어요~ 82
저에게는 82
밋밋@@ 82
아쉽습니다. 82
연 82
려요 82
가지고@@ 82
이렇게@@ 82
덩치@@ 82
♡♡ 82
잇는@@ 82
겨서 82
그럴@@ 82
괜@@ 82
규 82
디자인이랑 82
잡아주고 82
있으신 82
편하네요. 82
다만@@ 82
위에@@ 82
플@@ 82
맞춰@@ 82
오래걸렸지만 82
아닙니다. 82
센치@@ 82
느낌입니다. 82
신어서 82
발등이 82
따뜻해요. 82
따뜻 82
스판끼도 82
이쁜옷 82
군요 82
겨드랑이 82
기장이@@ 82
셔츠가 82
판매자분도 81
금 81
도록 81
대체로 81
실용적@@ 81
여행 81
지요 81
하고싶@@ 81
송@@ 81
밀@@ 81
만족합니당@@ 81
줄이 81
이쁘진 81
네이버@@ 81
걸쳐도 81
이상한 81
스타일로 81
며칠@@ 81
연휴@@ 81
뽀@@ 81
그것@@ 81
해지@@ 81
sj@@ 81
찬@@ 81
툭 81
닿@@ 81
팔길이가 81
으신@@ 81
거같아요! 81
좋게 81
기를 81
별로네요. 81
34@@ 81
ᆞ@@ 81
그냥.. 81
dh@@ 81
화면처럼 81
점퍼@@ 81
밑창이 81
실내@@ 81
스타킹 81
음...@@ 81
55인데 81
흰 81
^^;; 81
질이@@ 81
못입겠@@ 81
허리부분이 81
옷을@@ 81
나오네요 81
기모는 81
이뻐요.. 80
요건 80
카드@@ 80
판매자분 80
응@@ 80
디자인에 80
간단하게 80
레드 80
문제 80
놀랐어요 80
적인 80
예쁠 80
벗겨@@ 80
자크@@ 80
아무 80
착용감 80
할거같아요 80
대요 80
미리@@ 80
모양 80
크긴 80
어쩌나 80
조아 80
색이고 80
제대로@@ 80
16@@ 80
적당합니다 80
생각했던거랑 80
싶은데 80
맛@@ 80
^_^ 80
세련@@ 80
소화@@ 80
뇨 80
겠습니다 80
얼른 80
제거@@ 80
며칠 80
그가격@@ 80
떼@@ 80
나요? 80
괜찮구요 80
추운@@ 80
십@@ 80
오렌지@@ 80
치마나 80
이주@@ 80
차콜 80
셔야 80
짧은데 80
발은 80
얼굴@@ 80
안입어@@ 80
기본티로 80
소매부분 80
오버@@ 80
단품으로 80
가방에 79
은데@@ 79
이쁘다고@@ 79
불편한 79
가벼@@ 79
어요~~@@ 79
만에@@ 79
케@@ 79
지면 79
무거운 79
윗@@ 79
봐요 79
해요!! 79
께 79
블랙이라 79
각이 79
형@@ 79
싶은 79
마음@@ 79
언니가 79
듭니다~ 79
나왔네요 79
만족함 79
고급진 79
혹시나 79
더라면 79
인데, 79
만원 79
구매할게요 79
네요^^@@ 79
아래 79
오래걸리@@ 79
는듯 79
나서@@ 79
아이보리가 79
주문할@@ 79
그런건지 79
체구가 79
모르@@ 79
는것도 79
보낸@@ 79
158@@ 79
구매했어요~ 79
듭니다.@@ 79
언제 79
보였@@ 79
하신 79
귀찮아서@@ 79
따뜻하니 79
손목@@ 79
못입을 79
타잇@@ 79
상의@@ 79
입으니@@ 79
기모도 79
앙고라 79
뷔스티에 79
비쳐서 79
릴 79
속옷 79
구김은 79
입긴@@ 79
가디건이 79
데.. 78
이뻐요!!! 78
만족스럽네요 78
흠.. 78
쓰고 78
di@@ 78
놀랬@@ 78
어여@@ 78
른@@ 78
편이지만 78
되네요. 78
좋긴한데 78
워싱@@ 78
했는데도 78
넓어 78
구매를 78
다들@@ 78
디자인이@@ 78
누빔@@ 78
칭찬@@ 78
브랜드 78
템@@ 78
옷에@@ 78
의사 78
주문한지 78
좋았는데 78
용^^ 78
q@@ 78
잘어울@@ 78
화면보다는 78
교환하기 78
소재라서 78
맞습니다. 78
품이@@ 78
싶었@@ 78
습니당@@ 78
눌@@ 78
을거 78
커요@@ 78
배송빠르네요 78
앏@@ 78
무늬@@ 78
일부러 78
살이@@ 78
그런지@@ 78
입어야할듯@@ 78
도톰해요 78
입었네요 78
루즈한 78
짧지도 78
안이뻐요 78
감안하고 78
자마자 78
입어질@@ 78
오래걸렸어요 78
단추는 78
됬@@ 77
버려서 77
다닐때 77
마무리@@ 77
줬는데 77
빠질@@ 77
그린 77
필요했는데 77
치가 77
한개@@ 77
했는데.. 77
잡혀@@ 77
쪼금 77
만들@@ 77
나네요. 77
느라 77
:-) 77
엄청나게 77
사진을 77
빠름@@ 77
배송엄청@@ 77
손이@@ 77
한가지 77
아쉬웠@@ 77
어요...@@ 77
했지만@@ 77
네영 77
덧@@ 77
;;;; 77
저번에 77
따뜻할@@ 77
결제@@ 77
하늘하늘@@ 77
라면 77
빨랏@@ 77
167@@ 77
들지만 77
11@@ 77
신다보면 77
보플@@ 77
보통이네요 77
불량 77
비치는 77
입지도 77
겨울엔 77
나옴 77
66사이즈 77
입네요 77
가네요 77
27입는데 77
배송빠름 76
!^^ 76
입구가 76
귀@@ 76
직접@@ 76
싸니까 76
부드러워@@ 76
겠죠? 76
할게요 76
친절하셔서 76
가좀@@ 76
충분@@ 76
량@@ 76
무슨@@ 76
같아요..@@ 76
고~ 76
공 76
만족해@@ 76
찜@@ 76
을것 76
시작@@ 76
좋구요. 76
사려고 76
하실@@ 76
만족스러워@@ 76
설@@ 76
듯..@@ 76
무난무난 76
불편한@@ 76
집 76
않을 76
의외로 76
언제@@ 76
같네요@@ 76
좋진 76
꺼내@@ 76
인디핑크@@ 76
관리@@ 76
sh@@ 76
알겠@@ 76
예쁘진 76
족@@ 76
가격대 76
셔야@@ 76
밖@@ 76
49@@ 76
안살@@ 76
재질은@@ 76
3주 76
예전에 76
해야하나@@ 76
이에용 76
중요@@ 76
앞이 76
입으니깐 76
카라가 76
터져@@ 76
배송빠릅니다 76
베스트 76
걸려@@ 76
스판은 76
큰거@@ 75
작아요. 75
남자친구가 75
산뜻@@ 75
좋은제품 75
너무이쁘고 75
구입했어요. 75
불편함 75
후기에 75
그것도 75
나봐@@ 75
자연스럽게 75
똑딱이 75
해외@@ 75
혹시 75
이상하게 75
만족이요 75
총@@ 75
곳에 75
이뻐요~~@@ 75
하지@@ 75
가격에@@ 75
항@@ 75
티도 75
괜찮습니다@@ 75
사진상@@ 75
유니크@@ 75
알아@@ 75
아쉬운건 75
있었지만 75
째@@ 75
주세요 75
크 75
느낌을 75
습니@@ 75
사봤는데 75
비슷해요 75
튀어@@ 75
들어요~@@ 75
잘한@@ 75
것같아@@ 75
검은 75
좋어요 75
름@@ 75
fk@@ 75
사는게 75
꽉끼@@ 75
한치수@@ 75
붕@@ 75
고무줄이 75
피부@@ 75
빨고 75
살을 75
입으시면 75
입고나가@@ 75
별로에요. 75
루즈핏이라 75
입을게요. 75
두께감은 75
부해보여요 75
옷감도 75
밴딩이라 75
크기 74
선물용으로 74
작아요@@ 74
링@@ 74
못했지만 74
혀@@ 74
쿠@@ 74
행@@ 74
꼼꼼하게 74
만족입니다. 74
유용@@ 74
봤어요 74
옷에도 74
다른곳에서 74
구여@@ 74
구요~~ 74
크지 74
샀습니다 74
뭘 74
불편하지 74
더라@@ 74
빨리왔@@ 74
아이템 74
예쁘긴 74
고르@@ 74
배송진짜@@ 74
경@@ 74
* 74
세 74
했었@@ 74
바닥에 74
창@@ 74
긴했는데 74
응대@@ 74
댓글@@ 74
잇을@@ 74
하셔야 74
간절기@@ 74
촘촘@@ 74
이번엔 74
스웨이드@@ 74
있네요@@ 74
재질도좋고 74
따뜻한@@ 74
구매할까 74
보이긴 74
탓@@ 74
내년@@ 74
~!@@ 74
사세요@@ 74
보이게 74
아쉬워요. 74
부담스러@@ 74
럽@@ 74
문자 74
다르네요. 74
그리구 74
헐@@ 74
바람 74
늘어날 74
55사이즈@@ 74
그렇게@@ 74
입고다니기 74
입으려구요. 74
슬림하게 74
박시해서 74
얇아요@@ 74
추울때 74
더워요 74
하하 74
달라요. 74
Y@@ 74
180@@ 74
숏@@ 74
대서 73
친@@ 73
엄마도 73
으시@@ 73
어둡고 73
심함 73
깜짝 73
무난한@@ 73
나갈@@ 73
하기에 73
사진찍@@ 73
겁@@ 73
베이지로 73
사진만큼 73
디테일이 73
빠르구 73
흰색도 73
있는데@@ 73
몇일 73
미끄러@@ 73
확인하고 73
임에도 73
틀리@@ 73
녹@@ 73
봤을때 73
색인데 73
크림@@ 73
좋았을 73
투박@@ 73
구입한@@ 73
같긴 73
보인@@ 73
특@@ 73
색이라서 73
검정도 73
깔끔합니다 73
넓어요 73
지를 73
빨았더니 73
길면 73
일날 73
고요@@ 73
68@@ 73
참고하세요. 73
너무커서 73
기모라 73
10일@@ 73
매번 73
굽 73
기본이라 73
나팔@@ 73
보풀이@@ 73
따뜻합니다. 73
폴라@@ 73
작성@@ 73
딱맞아서 73
입기에@@ 73
안해@@ 73
얇음 73
/6@@ 73
fi@@ 73
160 73
78@@ 73
쓰려고 72
이용할@@ 72
있다가 72
해야겠어요 72
적당하고@@ 72
꾸@@ 72
다니면 72
불편하지만 72
여행가@@ 72
판매자분이 72
괜찮을듯 72
없구요 72
좋고요 72
띠@@ 72
매우만족합니다 72
스팽글@@ 72
옷이랑 72
같아요... 72
앙 72
원했던 72
늦네요 72
래 72
좋아요... 72
아님@@ 72
떨어져@@ 72
이것@@ 72
싶어 72
좋음. 72
..? 72
지않은 72
t 72
재 72
이런거 72
데도 72
연보라@@ 72
가격값@@ 72
47@@ 72
겹@@ 72
그것만 72
거같은 72
촌@@ 72
구김이@@ 72
찾고@@ 72
립니다 72
만족만족 72
아래로 72
길어요. 72
깨끗@@ 72
의사@@ 72
다른데보다 72
조아요조아요조아요 72
뻣뻣한 72
주문하@@ 72
잘신을게요 72
이게@@ 72
밴드가 72
160에 72
173@@ 72
넥 72
E@@ 72
솜이 72
연청 72
하네요..@@ 71
하네요... 71
3개@@ 71
기준 71
매력@@ 71
출고@@ 71
크로스@@ 71
생각했던것 71
한다고 71
다닐수 71
얼마 71
규@@ 71
이쁜것 71
얘@@ 71
어요~^^ 71
괜히 71
괜찮을거 71
요~~^^ 71
없이@@ 71
몰랐@@ 71
예뻐 71
심하게@@ 71
좋겠어요. 71
빠지네요 71
나긴 71
뒤로 71
주말@@ 71
제질도 71
똑같은@@ 71
가운데 71
후회 71
만족해서 71
신랑 71
합니당@@ 71
애 71
려면 71
괜츈@@ 71
아니고@@ 71
곳에서 71
있었음 71
니트라 71
약해서 71
있다고 71
뚫@@ 71
짧게 71
받아 71
다른곳@@ 71
겟네요 71
그랫@@ 71
그런거 71
모르겟@@ 71
생길@@ 71
니트랑 71
아까워 71
만든@@ 71
245 71
파여@@ 71
소 71
두꺼워 71
하체@@ 71
키에 71
I@@ 71
폴리@@ 71
바지로 71
이로 70
맘에들어요^^ 70
뉴@@ 70
둥@@ 70
느껴@@ 70
거칠@@ 70
톤 70
연결@@ 70
gj@@ 70
는지@@ 70
징@@ 70
왔지만 70
느낌. 70
룩 70
보다가 70
재봉@@ 70
더군요 70
촉감은 70
칠@@ 70
네오 70
기전에 70
아까@@ 70
노 70
안이 70
기에는 70
재고@@ 70
추천! 70
부드러운@@ 70
년@@ 70
훨 70
사지마세요 70
화면그대로 70
몇개@@ 70
적당 70
작아 70
붙고 70
신경써서 70
매일@@ 70
썩 70
널@@ 70
내년에 70
구매자@@ 70
얇긴한데 70
지나서 70
오면 70
여성스럽@@ 70
dn@@ 70
크게나온@@ 70
몸매가 70
속옷이 70
그다지 70
입다보니 70
나와 70
80@@ 70
아깝@@ 70
골반 70
입는데@@ 70
K@@ 70
따뜻해지면 70
코트가 70
남겨@@ 69
귀여운@@ 69
기대했던@@ 69
떨어질@@ 69
퍼플@@ 69
예버요 69
성공@@ 69
니다! 69
주신 69
보이지만 69
딱좋네요 69
좋은상품 69
축@@ 69
에스@@ 69
쿠션@@ 69
세련되@@ 69
뿌@@ 69
네여. 69
오는@@ 69
완젼@@ 69
듭니다! 69
이제야 69
옹@@ 69
파시@@ 69
찢어질@@ 69
평 69
다닙니다 69
겨울내내 69
잘어울려서 69
이있어서 69
기로 69
짤@@ 69
똥@@ 69
미흡@@ 69
고려@@ 69
안되는 69
쯤@@ 69
후기보고 69
있긴 69
눈데 69
검정색도 69
밝아서 69
받았네요. 69
저녁에 69
여리여리한 69
다려@@ 69
짜리 69
길어보이고 69
잘입을게요@@ 69
두껍지도 69
타이트하고 69
지만. 69
찮@@ 69
일어@@ 69
외투@@ 69
스판기 69
옷인데 69
날씬한@@ 69
입을게요~ 69
178@@ 69
더워지면 69
커 69
입겠어요 69
가위로 69
오래걸려서 69
벨트 69
오른쪽 69
바지가@@ 69
가까운@@ 68
실버@@ 68
오염@@ 68
니당@@ 68
똑같아요. 68
색감이나 68
작은거 68
부 68
면에서 68
을까 68
들어요!! 68
직원@@ 68
들어가 68
시킨@@ 68
을땐 68
님 68
느낌인데 68
주고@@ 68
샀습니다. 68
열심히 68
배송빨라@@ 68
김 68
긴하나 68
주름도 68
번창@@ 68
없는게 68
암@@ 68
다른데@@ 68
삐뚤@@ 68
리네요 68
싶어요. 68
팔에 68
포근@@ 68
재질이에요 68
얄@@ 68
줬어요 68
잠그@@ 68
최고입니다 68
여도 68
개인@@ 68
아줌마@@ 68
상품평보고 68
거나@@ 68
시켯는데 68
반품하기@@ 68
느렷@@ 68
나갔는데 68
164@@ 68
라운드@@ 68
괜찮은데@@ 68
162@@ 68
않구요 68
한참@@ 68
발목까지 68
타이트하네요 68
보일 68
간절기 68
핏이에요 68
105 68
못입어요 68
55입는데 68
안되어@@ 68
하시는@@ 68
벌 68
교환도 68
평범한 68
싼맛에@@ 68
다른색으로 67
하나만@@ 67
기때문에 67
1+1@@ 67
부들부들하니 67
실용@@ 67
상품은@@ 67
빠릅니다. 67
구매했는데, 67
파시고 67
덕@@ 67
<@@ 67
해보이는 67
겨우 67
받으@@ 67
파란@@ 67
왓어요 67
자국@@ 67
구입했는데@@ 67
깔끔하네요 67
것같습니다. 67
보시@@ 67
이네요@@ 67
크고@@ 67
바느질도 67
몰@@ 67
생각햇던@@ 67
보다는@@ 67
끈을 67
좋을듯해요 67
잘받았습니다@@ 67
예뿌@@ 67
거같애요 67
인것같아요 67
존예@@ 67
많아요 67
심한@@ 67
도없고 67
다시는 67
없을 67
조심히 67
그런거@@ 67
도착했@@ 67
걸렸는데 67
힌@@ 67
쇼핑몰 67
사이트@@ 67
욕@@ 67
오오@@ 67
빨았@@ 67
보이네요. 67
주의@@ 67
와서@@ 67
짧지 67
나쁘지는 67
있습니다.@@ 67
이쁜거같아요 67
한사이즈@@ 67
튿어@@ 67
나왔는데 67
덮는 67
신어보@@ 67
좁은@@ 67
잘신을께요 67
여요 67
걸렸고 67
너 67
인기@@ 67
말라@@ 67
한겨울@@ 67
스타일리쉬@@ 67
화이트도 67
빨았는데 67
카라 67
누런@@ 67
데님@@ 67
하체가 67
밴딩이 67
27 67
^^~ 66
립@@ 66
다니 66
해용@@ 66
목에 66
이쁘네요! 66
겨울에는 66
써요 66
예쁘네요~~ 66
생각했던거 66
요청@@ 66
높은 66
가격대에 66
마감처리@@ 66
여러개 66
보기엔 66
밖으로 66
다운@@ 66
달아@@ 66
갠찮아요 66
핫@@ 66
굵@@ 66
게용 66
있었어요 66
화면과@@ 66
산지 66
쉽@@ 66
한겨울에 66
여러 66
여름내내 66
사진과는 66
느낌이예요 66
이미지@@ 66
넘넘@@ 66
무배@@ 66
좋네요~@@ 66
한쪽@@ 66
아픈@@ 66
하네요~~ 66
봐야 66
알겠지만 66
으 66
얇아서@@ 66
당연히 66
괜츈 66
약속@@ 66
칼@@ 66
이쁠 66
보기 66
뭉@@ 66
않는@@ 66
하시길 66
착화감 66
주문햇@@ 66
구두는 66
교복@@ 66
입었습니다 66
구매햇어요 66
휴 66
두툼하니 66
뱃살@@ 66
샵@@ 66
키로인데 66
안가@@ 66
입어보지는 66
쉬폰@@ 66
저녁@@ 66
봅니다 66
밑위@@ 66
입는거@@ 66
오리털@@ 66
신어야@@ 66
골드@@ 65
추천해@@ 65
해보여요. 65
이에 65
떨어졌@@ 65
질감이 65
내가@@ 65
갖고 65
네요~~~ 65
가벼워@@ 65
단점이 65
정장 65
해보니 65
어쩌@@ 65
좋아해요 65
이뻣@@ 65
아쉬워@@ 65
어쩔수없@@ 65
맞았@@ 65
싫어서 65
져있어서 65
잇네요 65
자꾸@@ 65
좋겟@@ 65
사진보단 65
만족하@@ 65
생각하시면 65
가격보다 65
없어서@@ 65
동네 65
득템 65
했을@@ 65
같네요~ 65
보는것보다 65
화이트가 65
부담스럽지 65
하길래 65
어벙@@ 65
있으나 65
어두워@@ 65
른 65
부터@@ 65
좋다 65
는걸 65
결혼식@@ 65
타이트한@@ 65
따숩@@ 65
입어봐야@@ 65
sd@@ 65
비침도 65
핏감@@ 65
이쁘나 65
막입기@@ 65
청자켓@@ 65
마감처리 65
다림질 65
너무너무너무 64
따로@@ 64
포장이 64
색깔도@@ 64
하고..@@ 64
만한@@ 64
모 64
그래요.. 64
걸렸구요 64
예쁘네요^^ 64
편이라서 64
예뻐요~~~ 64
찾던@@ 64
원하는@@ 64
제품에 64
사장님@@ 64
코 64
색이나 64
던거 64
겉에 64
배송느림 64
놀랬어요 64
안나서 64
한달만에 64
오픈@@ 64
완전이뻐요 64
렁@@ 64
~~^^@@ 64
^-^ 64
검정으로 64
들면 64
뚜@@ 64
여기저기@@ 64
운데 64
게다가 64
파우치@@ 64
알앗는데 64
게요~ 64
좋았구요 64
하다는 64
같애@@ 64
저런@@ 64
소리 64
알고@@ 64
바람@@ 64
끌@@ 64
이쁠거같아요 64
걸치기@@ 64
밝고 64
톡톡한 64
린넨이라 64
적당하게 64
되지 64
기가@@ 64
같애요 64
진주 64
구매할께요 64
좋을꺼 64
추석@@ 64
쭉 64
괜차나@@ 64
거라고 64
아우터@@ 64
사진빨@@ 64
쪼이@@ 64
아직은 64
와이드@@ 64
부분을 64
보니@@ 64
배송너무@@ 64
편하다고 64
날씬해보여@@ 64
따숩고 64
겨드랑이@@ 64
피부가 64
슬렉스@@ 64
입으세요 64
쫀쫀 64
입을꺼 64
부해보이지 64
전체@@ 64
있는편이라 64
한테는 64
까지만 64
어깨가@@ 64
시원하니 64
패턴@@ 63
하네요! 63
정도에요 63
했던@@ 63
더라도 63
인데.. 63
왕 63
봤지만 63
해져서 63
( 63
주말에 63
잘받았어요. 63
을까@@ 63
했으나 63
받고@@ 63
좋은건 63
만족합니@@ 63
빨라요. 63
!!^^ 63
질감@@ 63
듯~ 63
네욤 63
나오는 63
이쁘다 63
조아여@@ 63
오프라인@@ 63
쫙 63
빼서 63
다를@@ 63
완전좋아요 63
무게감이 63
상큼@@ 63
반품비@@ 63
이지 63
란 63
38@@ 63
73@@ 63
이쁩니다~ 63
댕@@ 63
추천이@@ 63
습니다!! 63
뽕@@ 63
천원@@ 63
체크 63
높은@@ 63
밑으로 63
상관@@ 63
놓은@@ 63
데, 63
떠서 63
답변 63
싶을 63
따갑@@ 63
쇼핑몰에서 63
하더라구요 63
화사하니 63
록@@ 63
길이나 63
기다린만큼 63
옴@@ 63
db@@ 63
있어요! 63
상태로 63
신을게요 63
신어요 63
싶네요. 63
핏감이 63
져있@@ 63
보드랍고 63
팔부분 63
예쁜옷 63
어떻게@@ 63
한여름엔 63
입었습니다. 63
코트는 63
잘입겠습니다. 63
옷만 63
하비@@ 63
톡톡해서 63
레깅스에 63
모델분@@ 63
안입고 63
정전기가 63
입으려 63
밑에@@ 63
느림@@ 63
별로... 63
템 62
요?@@ 62
한쪽 62
보들보들하고 62
뻐@@ 62
만족해용 62
다녔는데 62
만족스러운 62
좋아요~! 62
할것같아요 62
정도? 62
됩@@ 62
하진않@@ 62
dy@@ 62
되겠@@ 62
색상에 62
모든 62
어어@@ 62
아기@@ 62
스타일이@@ 62
줄알았@@ 62
색과 62
오오 62
그대로네요 62
있을듯 62
어깨는 62
때문인지 62
적당하니 62
같구요. 62
받았어요~ 62
시켰더니 62
소재에 62
끈이@@ 62
센스@@ 62
똑같네요 62
요거 62
한데, 62
근 62
손 62
교환했는데 62
흐물@@ 62
흐물흐물@@ 62
39@@ 62
디자인으로 62
적극추천합니다. 62
입으시는 62
분위기 62
나온듯 62
구매합니다 62
잇는 62
아쉬움@@ 62
빠진@@ 62
예쁜거 62
희@@ 62
코디하기도 62
득@@ 62
졸@@ 62
사장님 62
으나@@ 62
즐겨@@ 62
니다... 62
넉넉한@@ 62
요!!! 62
뻣뻣하고 62
스타일이에요 62
리면 62
불량이 62
심지어 62
거같음 62
나와요 62
다른데서 62
길지 62
껄 62
기대했@@ 62
만드@@ 62
지마@@ 62
신발을 62
|@@ 62
신을수 62
나왓@@ 62
172@@ 62
까실@@ 62
붙는@@ 62
입다 62
닿는 62
바람이 62
옷은이뻐요 62
글쎄@@ 62
살려@@ 62
와요 62
털빠짐 62
반품안@@ 62
할머니@@ 62
느렸어요. 62
리얼@@ 62
걸리고 62
박시하고 62
잠옷으로 62
집에서만 62
이어@@ 61
거려요 61
섞인 61
재질이랑 61
스런 61
놀러@@ 61
곤@@ 61
아닌것 61
능@@ 61
갑니다 61
괜찮을것 61
호 61
재질이네요 61
되었는데 61
안감도 61
원단이라 61
스럽네요 61
서는 61
좋습니다^^ 61
후기처럼 61
드네요@@ 61
참고하세요@@ 61
하나가 61
시에 61
않아@@ 61
박시하게 61
만족합니다!! 61
만족만족@@ 61
자체도 61
냅@@ 61
88@@ 61
소리가 61
었으면 61
부분만 61
붙어요 61
그레이는 61
2만원@@ 61
겨울에@@ 61
친구들이 61
세련되고 61
하였@@ 61
참고하세요~ 61
예쁘다@@ 61
이라는 61
입니@@ 61
실밥처리가 61
날짜@@ 61
구매평보고 61
않으면 61
원단에 61
마무리 61
어찌@@ 61
17@@ 61
안어울리@@ 61
간지@@ 61
생각햇던 61
드릴@@ 61
줄이@@ 61
35@@ 61
신으려@@ 61
목폴라@@ 61
아빠@@ 61
올라오@@ 61
고.@@ 61
입어야겠네요 61
날리@@ 61
66인데 61
같긴한데 61
입었어요. 61
은듯 61
입을거@@ 61
찰랑@@ 61
붕 61
상체 61
착한가격에 61
하이웨스트 61
따뜻하긴 61
삐져@@ 61
왼쪽 61
줄여서 61
맞습니다 61
별로예요. 61
상품이@@ 60
지갑 60
재구매의사@@ 60
바라@@ 60
이틀만에 60
많이파세요~ 60
가벼운@@ 60
장식@@ 60
주변에서 60
색깔이@@ 60
좋았어요@@ 60
흔한 60
가격을 60
오프라인에서 60
봣는데 60
괜찮아요.. 60
보시면 60
만족. 60
모르겠는데 60
게요! 60
모델분 60
무난하게@@ 60
끝에 60
이라면 60
다른분들 60
멋스러@@ 60
어두워서 60
부들부들해서 60
끈은 60
있음@@ 60
무거워@@ 60
여성스러@@ 60
듬 60
견@@ 60
할때@@ 60
있지만@@ 60
늦어 60
해여@@ 60
안나요 60
우선@@ 60
배송을 60
가격대비좋아요 60
없지않아 60
사지마@@ 60
문제는 60
되있어서 60
다크@@ 60
와이@@ 60
느 60
구매한건데 60
니트에 60
뜻@@ 60
고급져 60
크긴@@ 60
치는 60
적당히@@ 60
종류@@ 60
샀으면 60
생각했던거@@ 60
구매하려@@ 60
차 60
90@@ 60
비추입니다 60
이쁩니다! 60
부직포@@ 60
서비스@@ 60
G@@ 60
듬@@ 60
사이 60
보플이 60
화 60
만족만족만족 60
새로 60
핏감도 60
목도 60
여름용@@ 60
짧을@@ 60
느렸고 60
두깨@@ 60
모델핏 60
프리사이즈라 60
선선@@ 60
핏으로 60
옆구리@@ 60
더울 60
주신@@ 60
하이 60
키작은 60
팔뚝이 60
치마도 60
생각이@@ 60
못입을듯 60
구매후기 60
털빠짐이 59
주려고 59
ᆞ 59
하길 59
빡빡@@ 59
납@@ 59
얘기@@ 59
빈티지@@ 59
그레이가 59
게요. 59
났는데 59
작지도 59
받았어요@@ 59
입니다~@@ 59
대만족입니다 59
용!! 59
에용 59
거같은@@ 59
죠. 59
맘 59
짱입니다 59
정성@@ 59
아파@@ 59
좋아요좋아요좋아요 59
야상@@ 59
탄@@ 59
욥@@ 59
르고 59
잘받았어요~ 59
랍@@ 59
66 59
나봐요. 59
흘러내@@ 59
없고@@ 59
만큼의 59
휘@@ 59
공지@@ 59
자국이 59
이상은 59
뒤 59
될듯해요 59
듯해요@@ 59
하니깐 59
습니다~~ 59
조금씩 59
봄까지 59
추천합니당 59
2주만에 59
림 59
여름용 59
하긴하지만 59
빠른데 59
금액대비 59
재질이고 59
용. 59
하셔야@@ 59
단추가@@ 59
기대안했는데 59
불편할@@ 59
느낌.. 59
먼저@@ 59
si@@ 59
같고@@ 59
잘산것같아요 59
네여.. 59
생각해서 59
즈 59
구요... 59
이뻐서@@ 59
그래요@@ 59
사람들은 59
기름@@ 59
55반@@ 59
몸통@@ 59
사놓고 59
니트를 59
이너를 59
부해 59
입지만 59
늦음 59
입으라고 59
찢@@ 59
실내에서 59
팔통이 59
그래서@@ 59
오버핏이 59
속치마가 59
말곤 58
똑딱이가 58
파세요^^ 58
잘쓸게요 58
샀는데, 58
불가@@ 58
딱이예요 58
이예요~ 58
프 58
께요~ 58
권@@ 58
첫 58
크네요@@ 58
괜찮 58
다는게 58
하나씩 58
짙은 58
??? 58
보온@@ 58
가격이라 58
숄더@@ 58
결@@ 58
빠른배송감사@@ 58
심플해서 58
그대로예요 58
짝@@ 58
보여요@@ 58
이러@@ 58
두가지@@ 58
천원 58
오랜만에 58
프리미엄 58
신청@@ 58
것보다는 58
돈이 58
못하겠@@ 58
답니다. 58
사이트 58
사이즈는@@ 58
수있어서 58
다면@@ 58
구매평에 58
충@@ 58
을때도 58
시크@@ 58
갈색@@ 58
반품비 58
못했@@ 58
색상은@@ 58
가... 58
빼고@@ 58
느낌은@@ 58
시원해보이고 58
건가 58
손빨래@@ 58
사이즈나 58
까요 58
에여 58
괜찮지만 58
비칠@@ 58
니다..@@ 58
구매인데 58
있는지 58
입니다~~ 58
판매자님@@ 58
나가서 58
취향@@ 58
오래걸림 58
24@@ 58
23@@ 58
오래걸@@ 58
길지도 58
잘맞아요@@ 58
뮬@@ 58
아니였@@ 58
프리사이즈@@ 58
아직안입어@@ 58
뽑@@ 58
세탁하니 58
코디된 58
맡겼@@ 58
안가고 58
겨 58
화사한 58
한여름@@ 58
리본이 58
가오리@@ 58
하이@@ 58
연락 58
임.. 58
9부@@ 58
넣고@@ 57
쓰기 57
니다^^ 57
들어요.@@ 57
들어가는 57
하네요~@@ 57
쟁@@ 57
안되어 57
(?)@@ 57
걸릴@@ 57
구매하게 57
성도 57
무거@@ 57
다좋은데 57
모든@@ 57
맬@@ 57
수있는 57
아쉬@@ 57
생겨서 57
모르고 57
상담도 57
3일 57
굿!! 57
보여요~ 57
빡@@ 57
몇일@@ 57
묻어서 57
왔구요 57
화면으로 57
료 57
조아요~~ 57
길었음 57
구매확정 57
있지 57
순@@ 57
게요@@ 57
고있어요 57
살까말까 57
바랍니다. 57
독특해서 57
길어서@@ 57
고해서 57
때문@@ 57
세요~ 57
났어요 57
상품평에 57
블라우스랑 57
서도 57
장점@@ 57
좁은 57
구냥 57
우면 57
없으면 57
있겠네요 57
인데요 57
소장@@ 57
so 57
예정입니다 57
베이지색@@ 57
좋은상품@@ 57
혀 57
갠춘@@ 57
긴거 57
_@@ 57
샀냐고 57
수고@@ 57
하루종일 57
배기@@ 57
슬리퍼@@ 57
이네요.. 57
소라색@@ 57
큰감이 57
믿고@@ 57
귀차나서 57
악@@ 57
초여름@@ 57
박시한@@ 57
s사이즈 57
66입는데 57
긴합니다 57
덥고 57
날씬해보이는 57
잘입고다닐@@ 57
분명 57
숨@@ 57
튀어나와@@ 57
ej@@ 57
입은거 57
없다고 57
울어요 57
별로입니다. 57
75@@ 57
이상함 57
면이라 57
불편해서 56
깜@@ 56
자리@@ 56
그것 56
불편합니다 56
똑딱이@@ 56
다녀도 56
3만원@@ 56
건지.. 56
아담@@ 56
스탈 56
재구매했@@ 56
다니는 56
버클@@ 56
좋아하@@ 56
었는데@@ 56
수납공간이 56
같다고 56
있을거같아요 56
쟈@@ 56
주황@@ 56
다양@@ 56
편하네요~ 56
배송두 56
했다가 56
되어있고 56
담에 56
옆으로 56
어깨끈이 56
단단@@ 56
착한@@ 56
좀... 56
긋@@ 56
문안@@ 56
그레이도 56
깔끔하고@@ 56
사서@@ 56
옷에나 56
19@@ 56
거려@@ 56
극@@ 56
스팽글이 56
괜찮긴한데 56
핑크도 56
하지만, 56
심한 56
안들어@@ 56
상태는 56
잠깐@@ 56
슬랙스에 56
3개 56
센@@ 56
괜찮아요.@@ 56
했을때 56
순 56
것같구요 56
팔길이도 56
너무이쁘네요 56
이옷 56
정말정말 56
떡@@ 56
같아요~~@@ 56
굿~ 56
바지에도 56
건데@@ 56
급 56
요일 56
몰라도 56
아닙@@ 56
내려오@@ 56
녀@@ 56
찢어져서 56
신은@@ 56
족 56
입혀@@ 56
쌀쌀한 56
고무줄 56
목부분@@ 56
길이랑 56
늘어나지 56
더라고요. 56
체격@@ 56
세탁기 56
f 56
이옷은 56
h 56
환절기에 56
비치네요 56
모델분처럼 56
깃@@ 56
내려가@@ 56
옷감은 56
벨트가 56
허리를 56
느려 56
집앞에 56
스몰 56
레깅스는 56
파세요~~ 55
다른색도@@ 55
아이 55
아들이 55
간단히 55
스러운 55
사고싶었는데 55
짜리@@ 55
잘쓰@@ 55
예쁘네요! 55
료@@ 55
슴@@ 55
짐이 55
판매자님이 55
아주조아요 55
파세@@ 55
보내셨@@ 55
저렴해요 55
하지않아서 55
진청 55
잇지만 55
세미@@ 55
맨날 55
빠른배송에 55
아아@@ 55
말려@@ 55
해보고 55
예뻐요!!! 55
말이@@ 55
택배가 55
푹신@@ 55
친절한 55
러블리@@ 55
예뻐요~~@@ 55
캐주얼하게 55
입니다..@@ 55
크긴하지만 55
편하고좋아요 55
추천이요 55
그렇습니다 55
런@@ 55
딱좋고 55
장만@@ 55
U@@ 55
리뷰@@ 55
싸고@@ 55
거슬@@ 55
으실@@ 55
샀었는데 55
아이보리도 55
여성스러운 55
~♡ 55
so@@ 55
내년 55
시원해 55
넉넉하네요 55
나쁘지않고 55
떨어져요 55
소재도@@ 55
벨벳@@ 55
다른색@@ 55
정도면 55
해보이네요 55
과하지 55
괜찮아요^^ 55
여성스러워요 55
그정도 55
고급스럽진 55
죄송@@ 55
나온것 55
46@@ 55
부드러@@ 55
"@@ 55
랄@@ 55
183@@ 55
이쁩니다.@@ 55
짜임@@ 55
나오면 55
좋았을텐데@@ 55
얇긴 55
랑도 55
맡겨@@ 55
항상@@ 55
반품귀찮아 55
뾰족@@ 55
치수@@ 55
나은@@ 55
따뜻해요@@ 55
저렴히 55
가격대비만족 55
걸려 55
티로 55
까슬거리@@ 55
자켓안에 55
촉감 55
장난 55
입을만한 55
봅니다. 55
나풀@@ 55
편하게입기@@ 55
사시@@ 55
봄가을 55
70@@ 55
입을것같아요 55
반팔 55
어야 55
피팅@@ 55
화사하게 55
후줄근@@ 55
55반 55
옷은이쁜데 55
초여름까지 55
66사이즈@@ 55
쪄서 55
빠짐 55
입으실@@ 55
집에서나 55
스판기도 55
줘@@ 54
가죽이라 54
잘받았습니다~ 54
아닌듯@@ 54
무거워서 54
버리고 54
있던 54
깜놀@@ 54
받았습니다~ 54
더라구요.@@ 54
합니다~~ 54
힘들어요 54
여기는 54
감사합니당@@ 54
적당합니다. 54
구매한지 54
사라@@ 54
좋았어요~ 54
축 54
느낌이에요. 54
생각보다는@@ 54
이... 54
조여@@ 54
냄새나@@ 54
적당하네요 54
으니@@ 54
경량@@ 54
여러번 54
잊@@ 54
입니다!! 54
나이@@ 54
좋습니당@@ 54
자세히 54
다음 54
송 54
주면 54
올여름 54
여! 54
진짜이뻐요 54
너무편하고 54
압@@ 54
레이@@ 54
높아서 54
검정이 54
잘했@@ 54
딱맞게 54
이틀 54
핑크로 54
만들었@@ 54
추운 54
해보인@@ 54
예쁩니당 54
짜 54
얇긴하지만 54
동일 54
면이@@ 54
던가 54
플 54
기다려@@ 54
실제로는 54
다른색 54
예쁘구요 54
모델핏이 54
마음이 54
착한 54
빨라 54
겠네요. 54
않는데 54
' 54
인가요? 54
부들부들한 54
he@@ 54
업체@@ 54
착화감이 54
업해서 54
발등 54
뒤가 54
감도@@ 54
입어보니까 54
짧은듯 54
봄이나 54
티나 54
찾아서 54
청록@@ 54
핏이고 54
여성스러워@@ 54
깜짝@@ 54
까끌까끌@@ 54
잘입을게용 54
입기로@@ 54
입을려고@@ 54
입고다녀@@ 54
그가격 54
옷들이 54
166@@ 54
올라와서 54
어정쩡 54
우아@@ 54
작게나왔@@ 54
할머니 54
질은@@ 54
177@@ 54
응 54
자수가 54
나쁘진않@@ 54
보내고 54
^.^ 53
장식이 53
되게@@ 53
파세용 53
쓴@@ 53
와인색 53
두번째구매@@ 53
취@@ 53
슈@@ 53
부드럽고@@ 53
좋네용@@ 53
백팩@@ 53
이쁜듯 53
증@@ 53
넘게@@ 53
다네요 53
보다도 53
둘러@@ 53
아니 53
잘해서 53
도착해서 53
학@@ 53
포켓@@ 53
힘들었@@ 53
스팽글 53
고도 53
왠만하면 53
하시네요 53
아쉬운점은 53
이라서@@ 53
있을꺼 53
라인을 53
키는 53
싱@@ 53
움이 53
할거@@ 53
저렴하고@@ 53
편인데@@ 53
나요@@ 53
큽@@ 53
약해요 53
달린@@ 53
으신 53
앗는데 53
스트랩@@ 53
보들@@ 53
힐 53
많이파세@@ 53
긴데 53
어요, 53
어디에도 53
코코아@@ 53
심플하니 53
시켜서 53
색도이쁘고 53
그래요~ 53
스티@@ 53
좋아서@@ 53
저런 53
반품하기도 53
드리고 53
겼@@ 53
다는데 53
기다릴@@ 53
가을까지 53
까끌거리@@ 53
길이는@@ 53
패턴이 53
무난무난@@ 53
떨어지는@@ 53
핑크라 53
얼룩이 53
그대로고 53
꺼같네요 53
하는것 53
음.... 53
th@@ 53
조이@@ 53
코디하기@@ 53
신발은@@ 53
저번@@ 53
하려구요 53
함.. 53
이거는 53
계열@@ 53
소재는@@ 53
긴팔 53
편하긴한데 53
맞아요~ 53
174@@ 53
여유있는 53
무스탕@@ 53
잘입을게요~~ 53
입으려면 53
모델언니@@ 53
부해보이는 53
통통한 53
잘샀네요 53
짜임이 53
차이 53
소재에요 53
목이@@ 53
솔@@ 53
셔츠를 53
나시가 53
였으면 53
이하@@ 53
ti@@ 53
점프수트@@ 53
바지라 53
다리에 53
동전@@ 52
낼@@ 52
오요 52
화면이랑@@ 52
수납공간@@ 52
귀여@@ 52
주로 52
접혀@@ 52
가능해서 52
화면보단 52
< 52
잉@@ 52
할지 52
버렸어요 52
좋습니다요 52
이쁠것 52
터져서 52
누가@@ 52
가방이@@ 52
아마 52
얼룩@@ 52
느낌에 52
너무맘에들어요 52
양 52
사이즈랑 52
대박나세요 52
였음 52
@ 52
이뻐요이뻐 52
만족스러웠@@ 52
톡@@ 52
싼티도 52
똑같구요 52
폭신@@ 52
해보임 52
글쎄요 52
괜찮아 52
작은듯 52
늦는다고 52
습니다..@@ 52
제품으로 52
훨@@ 52
상품으로 52
사각@@ 52
세상@@ 52
몇개 52
세련된 52
감사합니다.@@ 52
잘되@@ 52
예술@@ 52
헐 52
요^^@@ 52
아쉽긴 52
딱입니다. 52
처리도 52
할께요 52
거같아요^^ 52
sn@@ 52
힘이@@ 52
어둡네요 52
예쁜데@@ 52
진해요 52
가을에@@ 52
고급져요 52
렵@@ 52
싸이즈도 52
해보일@@ 52
세용 52
이쁠듯@@ 52
보내주신@@ 52
까만@@ 52
애매한@@ 52
괘안@@ 52
고생@@ 52
딱! 52
아니에@@ 52
남. 52
그리고@@ 52
이쁘지 52
았으면 52
신분들@@ 52
붙여@@ 52
보내주세요 52
하시는게 52
외에는 52
커보이고 52
60@@ 52
것같은@@ 52
정도인데 52
하겠습니다 52
재구매하@@ 52
거처럼 52
하도 52
4일@@ 52
걸치면 52
서비스 52
듯요. 52
총 52
키도 52
곤 52
나쁘진않아요 52
라인이@@ 52
맨살에 52
편안해요 52
빨랐어요. 52
구매평을 52
그게@@ 52
무료배송@@ 52
목부분도 52
상체@@ 52
무난해요. 52
55사이즈인데 52
니트도 52
P@@ 52
버려@@ 52
까슬까슬@@ 52
뚱뚱해보여요 52
털빠짐@@ 52
잘입을게요! 52
입어볼@@ 52
입엇는데 52
마르신@@ 52
실밥도 52
허벅지는 52
완죤 51
꼼꼼@@ 51
받았구요 51
카드 51
다릅니다 51
들어가요 51
아닌가@@ 51
시는 51
겨자@@ 51
예쁩니다! 51
잘받았어용 51
사면서 51
피 51
옷들@@ 51
이상하고 51
멜@@ 51
이상으로 51
추가로 51
풍@@ 51
개선@@ 51
작았@@ 51
때나 51
기간@@ 51
굳굳@@ 51
똑같아요~ 51
길게@@ 51
손으로 51
련@@ 51
적절@@ 51
흘러내리@@ 51
있어요.@@ 51
유행하는 51
집니다 51
추천합니다~ 51
내고 51
대응@@ 51
더라고@@ 51
께요. 51
같다는 51
럭@@ 51
눈 51
매장에서 51
언니도 51
거에 51
시키면 51
이쁘네용@@ 51
잖@@ 51
포인트도 51
듯! 51
데일리로@@ 51
빈@@ 51
안함 51
습니다... 51
모습@@ 51
안예뻐요 51
컷 51
잇는데 51
흰색으로 51
느낌이지만 51
롱패딩@@ 51
합니다!! 51
매칭@@ 51
코디해도 51
좋네요!! 51
>< 51
볼륨@@ 51
많았는데 51
급해서 51
운동할때 51
검정은 51
인듯해요 51
편이에요. 51
것같아여 51
둘다@@ 51
나머지는 51
기준@@ 51
밤에 51
인거같@@ 51
릿@@ 51
무늬도 51
한쪽이 51
오래걸린@@ 51
똑 51
구매하고@@ 51
애매하고 51
인게 51
보내시@@ 51
팅@@ 51
같아요~^^ 51
가까@@ 51
실망입니다 51
라이@@ 51
이다@@ 51
모니터@@ 51
배송지연 51
주문하세요 51
발볼이@@ 51
신으니까 51
실물 51
싶지만 51
길이감도@@ 51
잘못입으면 51
핏과 51
입음@@ 51
해줘서 51
핏도좋고 51
33@@ 51
입을수있는 51
비치고 51
새옷 51
이에요.. 51
k 51
것같음 51
기장도@@ 51
싫어@@ 51
168인데 51
o 51
7부@@ 51
촌스럽@@ 51
부탁드려요 51
S 51
아닌데@@ 51
맡@@ 51
일자 51
얇고@@ 51
지..@@ 51
햇지만 51
실크@@ 51
찡@@ 51
착용감은 51
핵@@ 50
싼티안나고 50
칙칙한 50
필요한 50
남자친구@@ 50
걸로@@ 50
편리@@ 50
가져@@ 50
것같아요^^ 50
수납 50
선물해@@ 50
생각한것보다 50
문 50
짱! 50
상품에 50
넣어도 50
것같지만 50
했어요.@@ 50
나게 50
매고@@ 50
크다@@ 50
형태@@ 50
빠르고, 50
걸렸어요. 50
이가격에@@ 50
옥@@ 50
사업 50
떨어@@ 50
적이 50
탐@@ 50
죠아요 50
..그냥 50
안쪽이 50
고급스러@@ 50
퀄@@ 50
재구매의사 50
닦@@ 50
보구 50
퍼가 50
어디서@@ 50
부분의 50
바닥 50
안될@@ 50
냐 50
긴한데.. 50
이뻐요~~^^ 50
하얀 50
별로에@@ 50
왠지 50
반품할까 50
봤을땐 50
교환신청@@ 50
이런건 50
둔@@ 50
지않는 50
추천합니다! 50
교@@ 50
재고가 50
이랑은 50
보는것과 50
않아요.@@ 50
맞춰서 50
형광@@ 50
티가@@ 50
것같아요.@@ 50
여자여자@@ 50
신경쓰이@@ 50
하루도 50
예쁠것 50
집니다. 50
핏도이쁘고 50
한해@@ 50
있을것같아요 50
폼이 50
주시면 50
착용 50
받는데 50
에게@@ 50
을거같아요 50
싼티나고 50
y 50
사는@@ 50
신어야 50
‥ 50
235신는데 50
하의@@ 50
잘늘어나@@ 50
진주가 50
할듯요 50
진해서 50
새옷@@ 50
뿐 50
시보리가 50
코트를 50
가슴부분이 50
한여름에는 50
경우 50
받쳐입기@@ 50
아우터 50
1+1 50
별루예요 50
느립니다. 50
할줄 50
좋습니다~~ 50
100사이즈 50
그렇습니다. 50
가까이 50
앞뒤 50
가리@@ 50
갠춘 50
기대이하@@ 50
부각@@ 50
짧았@@ 50
임산부@@ 50
O@@ 50
엉망 50
옷감 50
와이드 50
얇게 50
170인데 50
밴드 50
단추구멍이 50
26입는데 50
넣을@@ 49
정도로@@ 49
풀어@@ 49
사진보다@@ 49
실물이랑 49
월 49
은근히 49
검색@@ 49
그대@@ 49
좋아요~~~~ 49
는뎅 49
딸이 49
good 49
보이지도 49
예버@@ 49
담날 49
자체 49
쏘@@ 49
않고, 49
되어있어 49
록 49
질도좋고 49
나쁘지도 49
다만, 49
망가@@ 49
저처럼 49
적응@@ 49
락 49
22@@ 49
제질이 49
외엔 49
씩@@ 49
싸이즈는 49
불편함이 49
감사드려@@ 49
잘받@@ 49
들기@@ 49
만져@@ 49
수록 49
했구요 49
제품입니다. 49
안샀@@ 49
내용@@ 49
능 49
강추! 49
와는 49
걸렷@@ 49
살걸@@ 49
안해도 49
작은듯@@ 49
구매했구요 49
샀어요! 49
편해요^^ 49
글고 49
굿굿입니다 49
궁금@@ 49
저렴하@@ 49
사이트에서 49
가격대가 49
석@@ 49
짙@@ 49
뒷부분이 49
츄@@ 49
좋으네요. 49
일회용@@ 49
해야할듯 49
좁아요 49
많네요 49
젛아요 49
이뿌게 49
궁@@ 49
wj@@ 49
흡@@ 49
비즈@@ 49
좋았고 49
좋아요오오 49
잉 49
핑@@ 49
긴해도 49
있긴하지만 49
배송때문에 49
재질의 49
알 49
둡니다 49
한치수크게@@ 49
짝짝@@ 49
뒤에@@ 49
었어요. 49
떨어짐 49
옷장에 49
시킬@@ 49
입을께요. 49
짱짱한 49
3월@@ 49
거같지만 49
기본티 49
따듯해요 49
입어요~ 49
풀리고 49
텐션@@ 49
시보리@@ 49
청자켓 49
때문에@@ 49
룩으로 49
추워요 49
두꺼@@ 49
옷자체가 49
라서@@ 49
실망했어요 49
블라우스는 49
크네요.. 49
갓@@ 49
싼값@@ 49
끼고 49
정확히 49
늦는@@ 49
기대를@@ 49
취소 49
레깅스가 49
속바지가 49
블로퍼@@ 49
저렴하구 48
껄@@ 48
친구도 48
하려고@@ 48
주변@@ 48
됫@@ 48
웠는데 48
마음에들고 48
판매자님도 48
지나면 48
동네@@ 48
심플한 48
색감도@@ 48
화이트로 48
강력@@ 48
자크가 48
그런건 48
무게@@ 48
겠지@@ 48
배송까지 48
보내주신 48
황당@@ 48
치도 48
잡혀서 48
형 48
안나와요 48
보면@@ 48
좋네요~^^ 48
아들@@ 48
우수@@ 48
갈때@@ 48
코트에 48
듀 48
검정색은 48
래서 48
바람에 48
링 48
2번째 48
빨리와서 48
장사@@ 48
좋아요!@@ 48
거예요 48
나지 48
했습니다.@@ 48
어정쩡한 48
구멍 48
탁한 48
하려다 48
큰편이라 48
포기@@ 48
저렴하니까 48
하고. 48
애매하게 48
,.@@ 48
사이트에 48
빨고@@ 48
으면서 48
지만...@@ 48
톤이 48
커요.. 48
막상@@ 48
기대한@@ 48
안녕 48
을때는 48
차분@@ 48
단이 48
묶으면 48
한테도 48
배송완전@@ 48
안으로 48
31@@ 48
해주세요@@ 48
립니다. 48
안와서 48
커플@@ 48
잘삿@@ 48
보이지는 48
있어요.. 48
기고 48
샀어용 48
르 48
어요~~~ 48
J@@ 48
중에서 48
딱딱해서 48
낫네요 48
좀큰@@ 48
맞는거 48
구겨지@@ 48
힘드@@ 48
접어 48
입을라@@ 48
될듯요 48
같았는데 48
어깨선@@ 48
핏되@@ 48
마른체형@@ 48
색감이@@ 48
이뿐데 48
실로 48
도톰한@@ 48
건가요? 48
세탁은 48
넥라인이 48
절개@@ 48
레이어드하기 48
못입겠어요 48
짧아서@@ 48
비쳐@@ 48
파이@@ 48
레깅스랑 48
풀릴@@ 48
66반@@ 48
잘입을거같아요 48
퍼프@@ 48
잘입을게여 48
er@@ 48
인줄알았는데 48
사쥬@@ 48
r 48
169@@ 48
배송빨라서 48
애매 48
입어야할 48
크롭@@ 48
단추구멍@@ 48
부직포 48
차이나@@ 48
블라우스가 48
j 48
실측@@ 48
점프수트 48
블로퍼 48
용도로 47
이었는데 47
최고네요 47
스타일에 47
공간이 47
가죽은 47
양호@@ 47
들어가네요 47
이뻐요..@@ 47
보내주시고 47
합니다~@@ 47
했어요! 47
저렴해서@@ 47
꽤@@ 47
성이 47
이뿜 47
화면상@@ 47
어디에든 47
그레이로 47
만족하는 47
께서 47
잘어울리네요 47
여서@@ 47
이긴한데 47
됨@@ 47
기다림@@ 47
비하면 47
좋지도 47
비싸요 47
마음에들어요@@ 47
도저히 47
드디어 47
롭@@ 47
전체 47
이용 47
번창하세요~ 47
멋스럽고 47
하기도@@ 47
되니 47
총알@@ 47
생가보다 47
엇어요 47
진하고 47
닥@@ 47
마음에들어@@ 47
굿이에요 47
스카프@@ 47
삭@@ 47
완전히 47
났지만 47
기대했던 47
많이나@@ 47
받았지만 47
나간@@ 47
좋을꺼@@ 47
편이구요 47
사시면 47
종종 47
냈@@ 47
예쁜것 47
프릴 47
습 47
안돼@@ 47
거면 47
써야@@ 47
거같구요 47
실제로@@ 47
물빠짐 47
말도 47
무늬 47
저렴하네요 47
몰랐는데 47
텐@@ 47
실수@@ 47
센치 47
해보입니다 47
긴해요. 47
더워지@@ 47
살껄@@ 47
고맙습니다 47
옐로우@@ 47
일단은 47
보던@@ 47
이쁘긴해요 47
느낌이랄까@@ 47
주셨으면 47
카키색@@ 47
하시면@@ 47
여긴 47
보이구 47
느렸는데 47
가격정도@@ 47
일찍 47
ck@@ 47
고급스런 47
발가락@@ 47
기다리고 47
회사 47
제품의 47
색갈@@ 47
저희 47
기다려 47
175@@ 47
목폴라 47
늦었네요 47
정전기 47
그냥그래요. 47
그정도@@ 47
탄력@@ 47
에겐 47
루즈핏으로 47
청순@@ 47
163인데 47
입지는 47
통통 47
생각은 47
짧네요. 47
블랙이@@ 47
해주고 47
길래@@ 47
입어보면 47
보낼@@ 47
그냥그래요@@ 47
100 47
기재@@ 47
맞구요 47
활동하기 47
회사에서 47
일할때 47
가격이면 47
다신 47
된다고 47
$@@ 47
벗을때 47
스판끼는 47
먼지도 47
do@@ 47
고리@@ 46
수고하세요@@ 46
좁아@@ 46
폰@@ 46
칼라도 46
썼@@ 46
수납이 46
다니기에 46
선택 46
당황스러@@ 46
끼는 46
구매할께@@ 46
혔@@ 46
너무좋네요 46
블랙을 46
느슨@@ 46
이쁘네요~@@ 46
불만족 46
빨랐습니다 46
시켯@@ 46
않구 46
무광@@ 46
작아서@@ 46
맘에드는 46
잘산것 46
만족이에요 46
구나 46
고민하@@ 46
두껍게 46
줘야 46
쬐@@ 46
것같아용 46
디자인, 46
쭈@@ 46
패션@@ 46
면에 46
소재나 46
디쟌은 46
년 46
좋았어요! 46
별로지만 46
부드럽네요 46
기전@@ 46
탄탄한 46
구입한 46
배송빠르고좋아요 46
한거같아요 46
원단도@@ 46
구매할까@@ 46
끈으로 46
사려구요 46
블랙색상 46
오천원@@ 46
화장@@ 46
`@@ 46
아이보리랑 46
합니다... 46
힌 46
안녕하세요 46
랍니다 46
같아요~~~ 46
비싼감이 46
쁘@@ 46
손을 46
재질과 46
좀..@@ 46
구매하고싶네요 46
할려@@ 46
좋아요^^@@ 46
짧긴하지만 46
네이비로 46
맘에들어요~~ 46
아쉽네요.. 46
오래기다렸@@ 46
지않았@@ 46
흑@@ 46
흰색이@@ 46
오옹 46
갖@@ 46
어울릴것 46
l 46
똑같은데 46
편이라@@ 46
달랐@@ 46
화이트랑 46
선명@@ 46
터 46
블랙과 46
데로 46
정리가 46
느리긴 46
비가 46
하기는 46
비싼듯 46
세개@@ 46
밖에서 46
올려주세요 46
신는 46
굽이@@ 46
리본 46
슈즈@@ 46
왓네요 46
뛰어@@ 46
떨어져 46
세탁했는데 46
뻐요 46
앞부분이 46
몸무게@@ 46
안좋아요 46
얇지않고 46
너무짧아요 46
sa@@ 46
소매에 46
교환했어요 46
낑@@ 46
쭉쭉 46
추워지면 46
청바지에@@ 46
랩@@ 46
부해보일@@ 46
틀어@@ 46
44반@@ 46
배꼽@@ 46
보이기도 46
표시@@ 46
보통이요 46
센티@@ 46
입던@@ 46
비슷한데 46
면티@@ 46
꼬매@@ 46
편도 46
허리랑 46
155@@ 46
바지는@@ 46
보관@@ 45
b 45
기대안@@ 45
성의@@ 45
장에 45
여러가지 45
기분좋게 45
파우치 45
겹쳐@@ 45
대비@@ 45
혀서 45
하셔@@ 45
하겠습니다. 45
구매했습니다.@@ 45
하루만에@@ 45
굴@@ 45
매장@@ 45
베이직@@ 45
사업@@ 45
구입했습니다. 45
흐물거리@@ 45
독@@ 45
입니다... 45
졌네요 45
기저귀가방으로 45
번창하세요. 45
빠르진 45
굉장히@@ 45
당일@@ 45
걸어두@@ 45
졌는데 45
주인@@ 45
사이트보다 45
써 45
실망스럽@@ 45
특유의 45
사드렸는데 45
불편해요. 45
불쾌@@ 45
많이많이 45
않음. 45
C@@ 45
듭니당 45
이예요@@ 45
당장 45
세번째 45
드려@@ 45
무난해요~ 45
맞추@@ 45
조절이 45
생각으로 45
들어간@@ 45
달린 45
아이보리로 45
서야 45
구요^^ 45
부담 45
예쁘다고@@ 45
괜찮구 45
싸보이지 45
든다고 45
셔도 45
이름@@ 45
167인데 45
요?? 45
걱정되@@ 45
그런데@@ 45
합니@@ 45
있습니다~ 45
걱정했는데@@ 45
디쟌@@ 45
화면이 45
아닌가 45
괜찮은듯@@ 45
>@@ 45
거같은데@@ 45
바꿔@@ 45
그거빼곤 45
점점 45
소중한 45
반신반의@@ 45
한개 45
숙@@ 45
두개다 45
4일 45
마세요 45
한두번 45
해놓고 45
버전@@ 45
별로예@@ 45
ek@@ 45
편안한 45
한대 45
조으@@ 45
편이예요 45
묻어 45
신발이@@ 45
밑창@@ 45
네이비가 45
촬영@@ 45
핑크색@@ 45
… 45
치마에도 45
핑크색이 45
별로였어요 45
이옷@@ 45
팔을 45
날씬 45
줄어들@@ 45
늘어나요 45
실망이네요 45
깨@@ 45
나니까 45
에어컨 45
센티 45
예쁠거 45
얼굴 45
비치지 45
달라붙는 45
한철입기 45
지금입기엔 45
굵은 45
랏@@ 45
체격이 45
오래는 45
보온성은 45
늘어난@@ 45
00원@@ 45
찰랑찰랑@@ 45
소비자@@ 45
n 45
가.. 45
위까지 45
옷이예요 45
쏘쏘해요 45
박아@@ 45
엉덩이를 45
입고벗@@ 45
스키니 45
츠@@ 45
165에 45
같기도@@ 45
입을께요~ 45
지연 45
10일 45
에가 45
뒤에가 45
어이@@ 45
스판기@@ 45
카라부분이 45
보름@@ 45
너무느려요 45
생기는 45
28입는데 45
속바지@@ 45
착화감은 45
크기도@@ 44
이쁩니다!! 44
주니 44
쓸 44
마감처리도 44
쵝오@@ 44
헐거@@ 44
구입했습니다 44
마니마니 44
은은한 44
하세요~ 44
블링블링 44
쟁여@@ 44
카키가 44
아팠@@ 44
끝 44
못해 44
해야할듯@@ 44
.1@@ 44
씨@@ 44
있어요~~ 44
톡톡 44
하셨는데 44
색감이랑 44
블랙샀는데 44
낭@@ 44
사진보고 44
아쉬웠어요 44
빠르게@@ 44
데일리백으로 44
망설@@ 44
에게도 44
구매하였@@ 44
지금도 44
거든요. 44
양쪽@@ 44
욜 44
만족해여 44
면서도 44
지라 44
장이 44
파는@@ 44
이용할게요 44
짱이에요 44
맘에쏙@@ 44
[@@ 44
고정이 44
스럽고 44
제품이라 44
끊어@@ 44
화이트라 44
하세@@ 44
3일정도 44
가격만큼이네요 44
말그대로 44
이뿐@@ 44
좋아보여요 44
사진그대로에요 44
예뻐서@@ 44
반품이 44
봤을 44
둬@@ 44
써서 44
물빠짐@@ 44
없구 44
이쁩니당@@ 44
너무크고 44
딥@@ 44
주문한건데 44
아프네요 44
아님. 44
있음. 44
먼@@ 44
이야@@ 44
무겁네요 44
억@@ 44
힘드네요 44
거지@@ 44
매듭@@ 44
왔어요@@ 44
것같네요. 44
끔@@ 44
맨 44
여리여리해 44
됐어요 44
어떡@@ 44
고퀄@@ 44
감수@@ 44
왜이렇게 44
적은 44
사기 44
예 44
데일리룩으로 44
상황@@ 44
빼곤@@ 44
차려@@ 44
한건데 44
론 44
할꺼@@ 44
아파서 44
편해용 44
생각하던 44
in@@ 44
펄럭@@ 44
저만 44
아요.@@ 44
가까워요 44
큰걸로 44
걸린거 44
예쁘지 44
봤더니 44
잘입고다니@@ 44
입기좋은 44
감기는 44
어깨라인이 44
섬유@@ 44
잘입을께요^^ 44
다음엔 44
텍@@ 44
편해@@ 44
니깐@@ 44
조아용@@ 44
스타일을 44
감기@@ 44
한겨울엔 44
입게되@@ 44
루즈핏이@@ 44
하의 44
110@@ 44
걸쳐 44
파였어요 44
물빠짐이 44
52@@ 44
덮어@@ 44
잘입을것같아요 44
잘입을께요. 44
165인데 44
하고는 44
만원짜리 44
트임 44
기본템@@ 44
합니다..@@ 44
5일@@ 44
줌 44
따뜻해@@ 44
느낌?@@ 44
한해 44
그제서야 44
배송너무느려요 44
기모가@@ 44
스판이@@ 44
표기@@ 44
복숭아뼈@@ 44
페@@ 43
욘 43
별로에요@@ 43
종이@@ 43
의심@@ 43
한두@@ 43
잘사용@@ 43
:)@@ 43
법@@ 43
이뽀용 43
젖@@ 43
배송기간이 43
2일 43
좋겠네요. 43
에는@@ 43
고급진@@ 43
갑니다. 43
재질로 43
소재네요 43
후회안@@ 43
우니 43
웨@@ 43
택배사@@ 43
좋네요.. 43
걸림@@ 43
그냥그럼 43
껏 43
것같아요~@@ 43
틀리네요 43
좋을꺼같아요 43
으로만 43
한다@@ 43
갖고싶@@ 43
좋네요..@@ 43
작네요. 43
하얀색 43
딩@@ 43
싶습니다. 43
굿입니다@@ 43
예민@@ 43
번창하세요^^ 43
예정 43
보던 43
더라구요~ 43
커요~ 43
트렌치@@ 43
000원 43
선물하려고 43
확실@@ 43
분들에게 43
튼@@ 43
있구 43
옵니다 43
다닙니다. 43
땅@@ 43
생각하@@ 43
얇을@@ 43
질것 43
잘했어요 43
작년@@ 43
둠 43
모델컷@@ 43
베이지라 43
묶어서 43
벌어지@@ 43
봄이 43
사기@@ 43
나갈 43
하지만.. 43
쨍한@@ 43
문자도 43
•@@ 43
같구 43
국 43
피부에 43
한느낌 43
지안@@ 43
깁@@ 43
일줄 43
짧긴 43
듯해요~ 43
하지도않고 43
철에 43
불편함@@ 43
오래걸렷@@ 43
괜찮네요^^ 43
st@@ 43
...그냥 43
늦엇지만 43
세일해서 43
쫙@@ 43
사는데 43
연해요 43
발도@@ 43
잘신을께@@ 43
된거 43
푹신하고 43
구냥@@ 43
칼발@@ 43
함은 43
인데..@@ 43
코디가 43
입어봐야 43
쫀쫀하게 43
핏되는 43
가디건이랑 43
다른컬러도 43
짱짱해요 43
몸매 43
임신@@ 43
짧아요.. 43
배송진짜 43
팔뚝 43
너덜너덜@@ 43
대체@@ 43
촤르르 43
ig@@ 43
지않음 43
냥 43
슬림핏@@ 43
올라가서 43
름 43
어정쩡해요 43
늘어날거 43
바지만 43
하하@@ 43
fg@@ 43
티셔츠에 43
코디를 43
여..@@ 43
걸쳐입기 43
입을만함 43
스판끼가@@ 43
며, 43
못입음 43
123@@ 43
술@@ 43
별로에요.. 43
복숭아뼈 43
159@@ 43
LX 43
240신는데 43
대만족입니다. 42
드네요~ 42
타이@@ 42
받는@@ 42
빠르네요. 42
다니는데 42
안빠지@@ 42
가볍네요 42
부드럽게 42
습니다~@@ 42
나아요 42
받았습니다.@@ 42
금장@@ 42
율@@ 42
받으니 42
있던데 42
인듯요 42
,. 42
비싼거 42
만해요 42
은거같아요 42
아이보리색 42
위해 42
절 42
캐@@ 42
크면 42
베이직한 42
채로 42
맘에들어여 42
들보다 42
빅@@ 42
냄@@ 42
괜찮네요~~ 42
박스 42
다양하게 42
덧대@@ 42
기분이@@ 42
애기@@ 42
구매했어요.@@ 42
도있고 42
좁고 42
싶어@@ 42
아주아주@@ 42
머리가 42
바뀌@@ 42
반바지에 42
춰@@ 42
그건@@ 42
이쁠것같아요 42
무겁지만 42
나도 42
구매. 42
흐물흐물 42
(?) 42
키큰@@ 42
세탁도 42
네이비는 42
좋은듯@@ 42
가격만큼이에요 42
딱일@@ 42
지마세요 42
디자인만 42
박혀@@ 42
폴@@ 42
할꺼 42
어제@@ 42
지워@@ 42
세탁기에 42
라운드 42
없는거 42
페이@@ 42
기본템으로 42
커도 42
나오는@@ 42
아침 42
곱@@ 42
사람도 42
지않고@@ 42
배송이좀@@ 42
남친 42
도착했어요 42
두벌@@ 42
렷@@ 42
려고요 42
불편합니다. 42
야할듯 42
꺼끌@@ 42
고급스럽게 42
보드라@@ 42
두께감이@@ 42
요즘에 42
거림 42
캐시미어@@ 42
웟@@ 42
왜케 42
따뜻하게@@ 42
핏이며 42
톡톡으로 42
라벨@@ 42
베이@@ 42
입어질 42
일어나는 42
입었을때@@ 42
늘어남 42
찰랑찰랑 42
다리는 42
입어야겠어요. 42
못입을것 42
하신분들은 42
말라서 42
입을거라 42
만족하는데 42
없음. 42
낙낙하게 42
니트조끼 42
입을꺼@@ 42
신축성이@@ 42
--@@ 42
반품하려다가 42
다리가@@ 42
넣기 41
최고! 41
그림@@ 41
버튼@@ 41
틱@@ 41
메모@@ 41
곳도 41
듭니다^^ 41
거리는@@ 41
이쁘긴한데@@ 41
거같아요~~ 41
하네@@ 41
연두@@ 41
만족해요~~ 41
가면 41
쓰레기@@ 41
인기가 41
회색도 41
생각했던것@@ 41
판 41
괜찮을거같아요 41
네이비도 41
해야할 41
같고, 41
져있고 41
올려주세요@@ 41
두면 41
책 41
디자인의 41
추천드려요 41
파세요! 41
만족합니다~^^ 41
옆 41
너무이뻐요@@ 41
넘좋아요 41
만족해요^^ 41
조금더@@ 41
맘에듭니당 41
욧@@ 41
들었는데 41
고맙@@ 41
함.@@ 41
어려울@@ 41
이니까 41
끝이 41
집에@@ 41
특별@@ 41
부분에서 41
나무@@ 41
와우 41
재질이라서 41
나.. 41
번거로@@ 41
예쁘고, 41
있네요~ 41
듭니당@@ 41
이버@@ 41
쇼핑 41
무게가 41
아쉽고 41
글구 41
나긴하지만 41
서... 41
섞@@ 41
거기@@ 41
식으로 41
캐쥬얼하게 41
탄탄해서 41
두개나 41
촌스럽지 41
않은거 41
뻣뻣해서 41
요즘은 41
거든@@ 41
심해요. 41
편해요~~ 41
처음이네요 41
카멜 41
예쁩니다.@@ 41
찍어@@ 41
불만 41
심각@@ 41
어머니@@ 41
추천은 41
생각해보@@ 41
당황했지만 41
괜찮다고 41
덩@@ 41
두껍진 41
다행이 41
못했는데 41
불편하진 41
좋았을거 41
잘한거 41
이. 41
생겨@@ 41
욜@@ 41
열흘@@ 41
황토@@ 41
세트@@ 41
칼배송 41
화가 41
구매하러 41
나쁜@@ 41
왔습니다. 41
g 41
결혼식 41
가을에도 41
" 41
있어용 41
dl@@ 41
드립니다. 41
따 41
본인@@ 41
조명@@ 41
되겠어요 41
보라색@@ 41
보임@@ 41
겨울용@@ 41
날씬하게 41
융 41
보는거@@ 41
신는@@ 41
입기도@@ 41
낀@@ 41
이미지랑 41
입던 41
올라와@@ 41
복으로 41
아니지만@@ 41
받쳐입기도 41
살고 41
a 41
입어지@@ 41
말랐@@ 41
키가작아서 41
co@@ 41
나시를 41
짧은게 41
겠다 41
한걸 41
같진 41
소매통이 41
컷팅@@ 41
맞춤@@ 41
일어날 41
슬랙스랑 41
큼@@ 41
주문을 41
값 41
만족합니다만족합니다 41
사진상 41
조끼가 41
lk@@ 41
더주고 41
아무리@@ 41
하이웨스트라 41
그냥입@@ 41
편하긴@@ 41
받앗어요 41
근육@@ 41
못하@@ 41
xl 41
안나오네요 41
한쪽은 41
했어요.. 41
야상 41
속바지 41
밴딩바지 41
털빠짐은 40
구입하고싶@@ 40
없었는데 40
거보다 40
번에 40
식 40
우면서 40
편하진 40
사줬@@ 40
까요? 40
yo@@ 40
보라색 40
굿~~ 40
2017.0@@ 40
것같아요~~ 40
메고@@ 40
하자 40
마음에드네요 40
클 40
저보다 40
프로 40
냥@@ 40
격 40
심하@@ 40
오랜@@ 40
여자 40
쳤@@ 40
좋구요~ 40
다양한 40
분만 40
거같아요.@@ 40
넉넉합니다. 40
좋네@@ 40
쳐지@@ 40
제품입니다 40
원해서 40
비슷하고 40
싸요 40
2일@@ 40
이쁘요 40
바깥@@ 40
거슬리@@ 40
겠지 40
수는 40
더라구요.. 40
등등 40
씁니다 40
히히 40
예뻐요..@@ 40
단골@@ 40
마감은 40
만족요 40
떠요 40
간단한 40
해봤는데 40
봉제@@ 40
검수를 40
군데 40
스트랩이 40
심하지 40
실망스러@@ 40
많이했는데 40
질감은 40
벌어져서 40
앞으로@@ 40
되는거 40
여름이라 40
그럼@@ 40
검정색이라 40
지금까지 40
색이예요 40
좋을듯요 40
예브@@ 40
구매하게@@ 40
듯해서 40
이쁘네요.@@ 40
네용~ 40
잇음 40
맸@@ 40
줄은 40
다는거@@ 40
놀러갈때 40
왼@@ 40
잠궈@@ 40
이번에도 40
누리끼리@@ 40
기대보다 40
갠차나@@ 40
빠짐@@ 40
쭈글쭈글@@ 40
빨랐습니다. 40
베이지랑 40
아니네요.. 40
닷 40
시원해보이@@ 40
생각합니다 40
오오오 40
손편지@@ 40
이쁘네요.. 40
끄@@ 40
보정@@ 40
댜@@ 40
좋아영 40
괜찮고@@ 40
부탁드립니다 40
생각했던것보단 40
중간 40
wh@@ 40
인건 40
+ 40
붉은@@ 40
아요! 40
좋아하시는 40
묻고 40
최저@@ 40
같네요.. 40
안된다고 40
꽝@@ 40
앞코@@ 40
잘신고 40
.5@@ 40
발도편하고 40
정사이즈고 40
틀린@@ 40
뒷꿈치 40
발볼도 40
진않고 40
밝아@@ 40
따뜻해요~ 40
입었어요@@ 40
거림@@ 40
다른색상 40
잘입고다녀요 40
,,,, 40
못입을거 40
혼@@ 40
울어서 40
슬림한 40
입기좋네요 40
브이넥이 40
따뜻해져서 40
re@@ 40
없지 40
입어야지 40
두장@@ 40
잘입을게요. 40
부탁드려@@ 40
지금날씨에 40
an@@ 40
는거같아요 40
해야되@@ 40
주문했는데, 40
덜렁@@ 40
카키도 40
주세요@@ 40
치마를 40
나시는 40
조끼를 40
사무실@@ 40
반품할@@ 40
한여름에도 40
차이가@@ 40
모자 40
잠옷@@ 40
틀려요 40
스커트는 40
밑위도 40
허리는@@ 40
바지통이 40
그런데로 39
혹@@ 39
친구랑 39
져요. 39
한테@@ 39
공간도 39
준비@@ 39
추천하고 39
만들어 39
빳빳해서 39
마침 39
랬@@ 39
추천드립니다 39
판매자분@@ 39
제격@@ 39
개봉@@ 39
효@@ 39
더이뻐요 39
기저귀 39
용도@@ 39
준 39
포장은 39
긁@@ 39
예쁩니다~ 39
어요.... 39
만원대@@ 39
매치해도 39
똑같아요@@ 39
산거같아요 39
같네요.@@ 39
칼배송@@ 39
옷걸이에 39
구매하실@@ 39
다닐것 39
샀지만 39
늦어져서 39
착샷@@ 39
더더 39
오리@@ 39
들어간 39
들었어요. 39
있어요^^ 39
생각외로 39
괜찮네여 39
여~@@ 39
듯...@@ 39
만든 39
사진하고@@ 39
만족!! 39
제품이@@ 39
불편한데 39
긴하@@ 39
있는데도 39
나머지 39
부자@@ 39
아요~~ 39
스토어@@ 39
58@@ 39
나아@@ 39
생일선물로 39
슈퍼@@ 39
😊 39
이네요~ 39
멀@@ 39
가도 39
밑 39
예뻐요~! 39
예쁘구 39
어깨끈 39
친절해서 39
이유를 39
툭@@ 39
전까지 39
터라 39
편히@@ 39
추천드려@@ 39
이에요!! 39
선호@@ 39
소재의 39
돋@@ 39
크네요~ 39
살구@@ 39
구매하고싶어요 39
을텐데@@ 39
네요? 39
줫@@ 39
짜증 39
싸서@@ 39
길긴 39
독특한 39
미디@@ 39
빵@@ 39
잇어 39
노출@@ 39
점퍼 39
적당해요. 39
엄지@@ 39
사정@@ 39
‥@@ 39
요런 39
올해@@ 39
질거 39
괜찮네용 39
sb@@ 39
앞쪽 39
생각보@@ 39
좋구여 39
별로인@@ 39
하지않아요 39
시는@@ 39
예요! 39
다릅니다. 39
기다렸지만 39
?! 39
엉망이네요 39
이쁩니다^^ 39
해놓@@ 39
금액이 39
많이나요 39
어울@@ 39
du@@ 39
깐@@ 39
신어보고 39
발가락이 39
융@@ 39
샌@@ 39
기대하고 39
굽도@@ 39
폭신폭신@@ 39
이쁨니다 39
칼라 39
파세여 39
드립니다 39
티셔츠는 39
쫀쫀하네요 39
기다렸어요 39
소라 39
얼굴도 39
170 39
시원할@@ 39
깁니다. 39
입어두 39
매 39
짧긴한데 39
짧습니다. 39
느린편이@@ 39
한장@@ 39
벌룬@@ 39
옷들은 39
초 39
히트텍@@ 39
옷들 39
바랍니다 39
안나와@@ 39
늘어날것 39
171@@ 39
맞네요~ 39
부해보@@ 39
티셔츠가 39
한겨울에도 39
입어야될@@ 39
싼값에 39
제키가 39
사진과같아요 39
스커트나 39
이좀 39
갠차나요 39
가디건을 39
ei@@ 39
키작녀@@ 39
입어보는데 39
181@@ 39
대답@@ 39
덕에 39
입겠네요 39
여유 39
냉@@ 39
핸드메이드@@ 39
셔츠도 39
핏감은 39
26 39
쳐 39
후드 39
뭐.. 39
레이스도 39
로브@@ 39
감은@@ 39
뮬 39
빨라요~ 39
사이즌데 39
입을수가 39
수선을 39
입기에는@@ 39
배송느린@@ 39
왼쪽@@ 39
그냥그래요.. 39
발목부분이 39
28 39
깜찍@@ 38
귀여워요. 38
다음에@@ 38
뭘@@ 38
초반@@ 38
냄새도@@ 38
아닐@@ 38
군더더기 38
중국@@ 38
듯한@@ 38
큐@@ 38
노력@@ 38
딱좋은@@ 38
내부@@ 38
좋은가격에 38
큼직@@ 38
해준@@ 38
쿠폰@@ 38
👍🏻 38
느낌... 38
다닙@@ 38
인조@@ 38
좋겠지만 38
적합@@ 38
보진 38
버클이 38
듣@@ 38
괜찮네요! 38
앞에@@ 38
친절 38
재질이며 38
가려고 38
구경@@ 38
론@@ 38
# 38
👍@@ 38
받는 38
쿠 38
당연@@ 38
아요.. 38
요요 38
가능 38
낙낙하니 38
**@@ 38
옷이든 38
구매했고 38
샀던 38
잘어울리는 38
좋으네요~ 38
홀@@ 38
떨@@ 38
무료배송에 38
렸는데 38
그대로입니다. 38
었네요 38
만족합니다~@@ 38
간만에 38
조음 38
못해서 38
그레@@ 38
al@@ 38
맞춰 38
강추입니다 38
잊고@@ 38
편해요!! 38
사길@@ 38
닳@@ 38
디자인을 38
구입할@@ 38
좋아요좋아요@@ 38
내리@@ 38
봅@@ 38
찾기 38
이에요^^ 38
잘하면 38
조심해서 38
친구들@@ 38
예뻐요.. 38
해봐야@@ 38
딱좋은 38
예뻣@@ 38
했는데..@@ 38
큰듯 38
썩@@ 38
.0@@ 38
하시길@@ 38
보통이고 38
검은색도 38
사지 38
99@@ 38
같아용@@ 38
받을 38
대부분 38
구매하세요@@ 38
측@@ 38
반품할까@@ 38
잘라서 38
사진으로@@ 38
오지@@ 38
촉@@ 38
뼈@@ 38
낮아서 38
잘못된@@ 38
연락을 38
하려다가 38
일듯 38
보이구요 38
느낌이네요. 38
선물해줬는데 38
거라@@ 38
생각과 38
예쁘네용 38
커요... 38
적혀@@ 38
좋아오 38
가너무@@ 38
배송으로 38
남은 38
fu@@ 38
감사해요@@ 38
베이지색이 38
말까 38
랜@@ 38
미끄럽@@ 38
정사이즈가 38
오른쪽@@ 38
배송이느려요 38
분들은@@ 38
잘신을게@@ 38
반품안하고 38
쳐서 38
헐렁한 38
여유있고 38
힘든데 38
오렌지 38
싶을@@ 38
안합니다 38
입기좋은@@ 38
기장감도 38
샀는데.. 38
핏이네요 38
뭐랄까 38
촤르르@@ 38
초봄@@ 38
신분은 38
여리여리해보이고 38
침@@ 38
입기는@@ 38
R@@ 38
뒷 38
마르신 38
두터@@ 38
겨요 38
이신 38
늘어났@@ 38
거같습니다. 38
당황스럽@@ 38
넓어보이고 38
짧아요.@@ 38
기장이나 38
체형이 38
나, 38
자켓은 38
입고나갔@@ 38
옆이 38
어쩔@@ 38
입을수록 38
얇은거 38
못입지만 38
158인데 38
트임도 38
반바지@@ 38
으네요 38
입으려구 38
구.. 38
반바지 38
상상@@ 38
패딩이 38
마른사람이 38
안좋네요 38
m으로 38
허리밴드@@ 38
해주셨어요 37
은근@@ 37
있고, 37
씀 37
섞여@@ 37
디잔@@ 37
퍼플 37
귀여워용 37
들어해서 37
3주만에 37
한것@@ 37
전에@@ 37
;;;@@ 37
쭉@@ 37
옷이나 37
드려요 37
없어지@@ 37
고급 37
생각도 37
다니기엔 37
발송 37
생기네요 37
여자가 37
자연@@ 37
존@@ 37
빠른배송도 37
떼어@@ 37
무난해요@@ 37
중입니다 37
계절 37
반짝반짝 37
캐주얼 37
좋아하는@@ 37
부들부들해요 37
작을까봐 37
스탈이라 37
착용감@@ 37
세일 37
떄 37
♡♡♡ 37
않네요.. 37
있어야 37
좋아용~~ 37
만족스러워요. 37
같아서@@ 37
-! 37
우연히 37
팅 37
는데,@@ 37
노랑 37
되어있는데 37
구매입니다 37
빨리왔어요 37
바스락@@ 37
입을때마다 37
말랑@@ 37
션@@ 37
와인 37
수정@@ 37
뜯자마자 37
어울릴듯 37
큰듯@@ 37
매일매일 37
편이긴 37
한게@@ 37
안쪽으로 37
사게@@ 37
동일하고 37
무게감은 37
사세@@ 37
적당하구요 37
아무옷에나 37
정도네요 37
거같네요. 37
보이는거 37
펀칭@@ 37
안잠@@ 37
가능한 37
까먹@@ 37
싶은@@ 37
스타일의 37
라기@@ 37
류 37
딘 37
원피스나 37
..그래도 37
좋습니다!! 37
문자로 37
돌리@@ 37
색별로 37
샀으니 37
등이 37
싼티는 37
브라운도 37
합니다만 37
하늘색@@ 37
별로. 37
00@@ 37
가랑@@ 37
일어나서 37
잖아요 37
마치 37
76@@ 37
작 37
저렴해보여요 37
변형@@ 37
평범해요 37
금액에 37
나쁘지않네요 37
텐데@@ 37
갸@@ 37
다좋아요 37
괜찮습니다.@@ 37
탄탄하게 37
예쁘지는 37
꿰매@@ 37
베이지에 37
싼티남 37
나왔으면 37
앵@@ 37
그랬네요 37
세트 37
이럴@@ 37
많이파세요^^ 37
그런게 37
있는거@@ 37
신어봤는데 37
필요 37
구매했다가 37
잘신고@@ 37
으시면 37
잘빠졌@@ 37
샀는데도 37
주름이@@ 37
더군요. 37
아주좋습니다 37
처 37
기다렷@@ 37
행사@@ 37
둘레@@ 37
모셔@@ 37
타이트합니다 37
입을때@@ 37
코디하면 37
짧습니다 37
소재예요 37
있네요... 37
빨래 37
베이직 37
신분들은 37
검정이랑 37
구매하는데 37
옷. 37
목부분은 37
중에@@ 37
키가커서 37
단아@@ 37
해지면 37
잘못하면 37
디만 37
한겨울에는 37
뱃살 37
뭔@@ 37
사은품@@ 37
입을만해요. 37
시원하고@@ 37
평이@@ 37
뱃살이 37
아야@@ 37
블라우스에 37
따뜻한데 37
팔길이 37
같음. 37
그럭저럭.. 37
나가면 37
교복처럼 37
들어오 37
단정하고 37
느린 37
아침@@ 37
패딩조끼 37
인지는 37
뷔스티에@@ 37
안되네요 37
퍼도 37
괜차나여 37
오리털 37
굳이 37
..좀 37
일어났@@ 37
뜨고 37
읽어@@ 37
차가 37
한복@@ 37
연락도@@ 37
두꺼움 37
fh@@ 37
좌@@ 37
너무편해요 37
배송느리고 37
자마자@@ 36
실용성@@ 36
돼요 36
않아요.. 36
지퍼는 36
고급스러운@@ 36
군데@@ 36
흘@@ 36
니다~~ 36
꺼라 36
이쁨. 36
쏠@@ 36
기에@@ 36
으신분은 36
ᆢᆢ@@ 36
좋았을것 36
마르고 36
5천원@@ 36
굿굿굿@@ 36
빨라서@@ 36
도너무@@ 36
많이가@@ 36
배송과 36
붙어 36
맞아 36
가볍구 36
스팀@@ 36
감사합니다~~ 36
었지만 36
사러 36
같습니다! 36
추천추천 36
나는거 36
같지는 36
으며 36
아프고 36
안이쁨 36
경우가 36
구매해봤는데 36
뿌려@@ 36
저렴이 36
그때 36
있는건 36
무난한데 36
아주만족합니다 36
머스타드@@ 36
다니다가 36
이네여 36
특이한 36
사람마다 36
요오 36
추운데 36
이걸로 36
케 36
ᆢᆢ 36
번들@@ 36
때까지 36
어울려요. 36
핸드폰@@ 36
크다는 36
이해가 36
합 36
인대 36
망설이@@ 36
따뜻해요! 36
없으니 36
밍크@@ 36
잠그면 36
다님 36
사람들 36
2018.0@@ 36
만족하며 36
림이 36
넹@@ 36
지않아@@ 36
최고의 36
첨부@@ 36
움. 36
요일@@ 36
만족스러@@ 36
가격은@@ 36
이쁘고, 36
가게@@ 36
뮤@@ 36
삿는데@@ 36
많이파세요~~ 36
옵니다. 36
보이고@@ 36
향@@ 36
것같아요.. 36
택이 36
아깝네요 36
하세용 36
끼 36
별로인듯 36
늠 36
사은품도 36
지말@@ 36
외 36
주문했습니다. 36
구요...@@ 36
프린트@@ 36
받으면 36
음요 36
아쉽네요~ 36
좀...@@ 36
라인에 36
% 36
이버요 36
많았@@ 36
되어있는 36
스런@@ 36
입히@@ 36
놀러가서 36
옐로우 36
질렀@@ 36
남아@@ 36
켓@@ 36
빠릅@@ 36
타사이트보다 36
가격만큼해요 36
것으로 36
지않은@@ 36
좋은지 36
?이 36
그냥그러네요 36
예요.@@ 36
따수@@ 36
했나봐요 36
괜찮아요!! 36
채우@@ 36
사항@@ 36
졋@@ 36
너무조아요 36
양말도 36
다길래 36
쭈글@@ 36
it@@ 36
색상보다 36
캐시미어 36
들어갔@@ 36
cj@@ 36
좋긴@@ 36
촌스러운 36
코트나 36
기분은 36
이트 36
키높이 36
있는편인데 36
효과@@ 36
신고벗@@ 36
뜯겨@@ 36
주문하면 36
끄러@@ 36
같네요! 36
한치수크게 36
주문후 36
떨어진@@ 36
바래@@ 36
안에서 36
세여 36
힘든@@ 36
최악입니다 36
도. 36
잠바@@ 36
못함 36
잘입고있습니다 36
구매하려구요 36
랄까@@ 36
감싸@@ 36
칠부@@ 36
글을 36
생기고 36
들지 36
어떨지 36
같 36
옷장@@ 36
분들만 36
마른편인데 36
안녕@@ 36
입기전에 36
모직@@ 36
표현@@ 36
짧은감이@@ 36
다리미@@ 36
잘입구@@ 36
하긴해요 36
요즘날씨에 36
여기서@@ 36
배송빠름@@ 36
구멍이@@ 36
엄청커요 36
생각합니다. 36
핸드메이드 36
64@@ 36
안됨 36
내려오는 36
사진처럼@@ 36
이상해서 36
부해보이고 36
겟지만 36
늘어나네요 36
입어보진@@ 36
생각한거@@ 36
빼고는@@ 36
느림. 36
니트나 36
길고@@ 36
렁 36
다른거@@ 36
지가@@ 36
편하게입을수@@ 36
짧고@@ 36
살빼고 36
체구@@ 36
이유가@@ 36
사이즈입는데 36
그저그럼 36
팬@@ 36
앉으면 36
감사합니다~^^ 35
이염@@ 35
괜찮아요~@@ 35
사용할 35
광이 35
오~ 35
예쁩니당@@ 35
적극@@ 35
어떨@@ 35
의문@@ 35
석 35
감사드립니다 35
가득@@ 35
편하기도 35
나눠@@ 35
불량으로 35
고민을 35
실용성 35
없네요@@ 35
넘예뻐요 35
천이라 35
해외배송@@ 35
이고@@ 35
불편하긴 35
됬는데 35
더울것 35
갑 35
비해@@ 35
손잡이 35
있네요.@@ 35
컬러로 35
좁게 35
들어여 35
봉투@@ 35
자석@@ 35
냄새만 35
1도 35
샀는데..@@ 35
약 35
아들 35
최고입니다. 35
맡기@@ 35
세로@@ 35
새로@@ 35
주문했어요~ 35
주문했다가 35
일은 35
쓸만@@ 35
사진이랑은 35
요~! 35
제외@@ 35
만원짜리@@ 35
따라@@ 35
잠그고 35
번거롭@@ 35
걱정햇는데 35
편해요.@@ 35
하세요! 35
괜춘해요 35
가로@@ 35
부위가 35
가나@@ 35
거같애@@ 35
너므 35
화사해요 35
행복@@ 35
똑같아서 35
안들어가@@ 35
크로스로 35
듀@@ 35
들을 35
할려고 35
분위@@ 35
짧았으면 35
구매해야@@ 35
롱패딩 35
괜찮네요.. 35
겠어요~ 35
수술@@ 35
에요.. 35
두루 35
큰게 35
에요!! 35
자수도 35
적당하구 35
한데.. 35
을것같아요 35
햇네요 35
쎄@@ 35
이구 35
안아프고 35
쩔@@ 35
려구요. 35
려도 35
냄새나서 35
기만@@ 35
교환하고 35
구매해야겠@@ 35
여... 35
부들 35
상이 35
정말이뻐요 35
걸린듯 35
좋을텐데 35
올려서 35
벽돌@@ 35
저기 35
위치가 35
다는거 35
타입@@ 35
퀄리티면 35
빨랏어요 35
이뻐요!@@ 35
기존@@ 35
하셔도 35
다더니 35
일주일만에 35
무게감도 35
워낙@@ 35
찍찍@@ 35
풀린@@ 35
색입니다. 35
송장@@ 35
높고 35
날짜에 35
두툼한 35
석유@@ 35
가는데 35
나요.. 35
짝 35
력@@ 35
뭍@@ 35
오래걸리고 35
그닥.. 35
아닌가요? 35
쪼끔 35
오래기다려서 35
연락이 35
굽높@@ 35
미스@@ 35
반품하려@@ 35
눈에@@ 35
가보시@@ 35
교환해서 35
반사이즈 35
싸이@@ 35
넓어보여요 35
교환은 35
슬리퍼 35
늘어나면 35
176@@ 35
쪼여@@ 35
이쁘네요!! 35
받았고 35
오버핏에 35
입을게요^^ 35
별로네요.. 35
화이트에 35
이번에는 35
맞음 35
비침은 35
단품@@ 35
목은 35
소소 35
예전@@ 35
추울 35
무스탕 35
민감@@ 35
한번씩 35
해보여 35
입었는데도 35
길긴한데 35
입었는데@@ 35
여리여리해보여요 35
입을라고 35
엉덩이도 35
기본적인 35
총장이 35
굵어@@ 35
=@@ 35
티에@@ 35
회사에 35
입어보니@@ 35
괘@@ 35
we@@ 35
이제서야 35
초겨울@@ 35
입진 35
105사이즈 35
햐@@ 35
잘나왔@@ 35
할듯. 35
안맞아서 35
어깨깡패@@ 35
실망입니다. 35
잘입을거 35
조끼는 35
운전@@ 35
입으려구요~ 35
쌀쌀할때 35
그렇네요. 35
페이크@@ 35
지않아요. 35
일주일정도 35
레이어드용으로 35
en@@ 35
왔습니다 35
뜯어져서 35
엉망이고 35
살빼서 35
워싱이 35
M으로 35
찝찝@@ 35
롤업@@ 35
다리를 35
허리만 35
추천!! 34
넉@@ 34
사장님이 34
만족해용@@ 34
선물로@@ 34
암튼@@ 34
놓고@@ 34
비닐 34
넣었@@ 34
힘 34
차분한 34
dt@@ 34
슬 34
수잇@@ 34
려구 34
다녀서 34
i 34
기존 34
블링블링@@ 34
기저귀가방@@ 34
똑같습니다 34
큰것 34
매면 34
여행때 34
다른것도 34
죄@@ 34
태가 34
열어@@ 34
튀는 34
빗@@ 34
잘받았어여 34
감사드려요 34
불편하네요. 34
지에 34
부드러워요. 34
걸어놨@@ 34
굿입니다. 34
기다리다가 34
들구요 34
겠습니다@@ 34
그대로입니다 34
정도가 34
거같기도@@ 34
잘되고 34
거같아요!! 34
구매하려고 34
저렴해보이지 34
선택했는데 34
패턴도 34
비싸서 34
드렸더니 34
강추합니다. 34
딱이네요. 34
커보여요 34
퀄리티에 34
걱@@ 34
회색이 34
예뽀@@ 34
녀 34
연하고 34
포인트되고 34
그냥..@@ 34
아무대나 34
수령@@ 34
색입니다 34
있길래 34
2~@@ 34
믄@@ 34
배색@@ 34
했는지 34
이에요~~ 34
들어하네요 34
않았어요. 34
마실@@ 34
올려주@@ 34
어울리는@@ 34
하겠지만 34
구매하는 34
나가기 34
구매하였는데 34
색깔이랑 34
되었어요 34
강추강추 34
조심해야@@ 34
사고싶어서 34
안감이@@ 34
손빨래 34
한지 34
해주신@@ 34
드라@@ 34
애요 34
골덴@@ 34
있네요.. 34
잘모르겠@@ 34
싸게잘샀어요 34
걸렸습니다 34
받았을 34
파인@@ 34
디자인이며 34
존예 34
자주자주 34
빠지는 34
백화점에서 34
브라운이 34
니까요 34
두개째 34
두고@@ 34
어설@@ 34
맘에안@@ 34
곳은 34
앗어요 34
돌려@@ 34
이미@@ 34
구매했지만 34
워싱 34
돌렸@@ 34
강추!! 34
친구들도 34
옷과 34
맘에듬@@ 34
잎@@ 34
사러올@@ 34
걱정이@@ 34
그레이랑 34
세탁소@@ 34
랭@@ 34
늦을@@ 34
슬립@@ 34
이쁜것같아요 34
나가는 34
아쉬웠지만 34
이뻐욤 34
갠적으로 34
화학@@ 34
wk@@ 34
느렸구요 34
해결@@ 34
네이버 34
편해여 34
친절하시구 34
좋길래 34
두루@@ 34
만원에 34
받아보면 34
잘받았습니당 34
말랑말랑@@ 34
나? 34
늦었는데 34
탑@@ 34
수가@@ 34
봄에도 34
매우매우 34
길이에 34
eo@@ 34
크네요... 34
이것만@@ 34
겁니다 34
뜨는 34
너무크네요 34
발가락 34
운동화는 34
이네요.@@ 34
줌@@ 34
하거 34
푸른@@ 34
여성스러워 34
받아보았@@ 34
소매랑 34
환불도 34
자수 34
브 34
비치는@@ 34
잘입을게요^^ 34
벙벙한 34
보온성도 34
가슴쪽이 34
입어보지 34
신랑도 34
입을수있을것같아요 34
줄줄 34
입을듯@@ 34
저랑 34
입기좋을@@ 34
엘@@ 34
입게되네요 34
...그래도 34
루즈한@@ 34
않아서@@ 34
거같아요.. 34
입을게요! 34
2번@@ 34
싼가격에@@ 34
이음@@ 34
이쁜데.. 34
택배비 34
남아서 34
재질입니다 34
후기를 34
잊고 34
옴. 34
맞을 34
저한테도 34
157@@ 34
수선비@@ 34
놓은 34
일트@@ 34
한여름 34
짧지않고 34
진심@@ 34
사진으로는 34
많이파@@ 34
짧아요... 34
fo@@ 34
문의하니 34
무릎까지 34
163에 34
벨트는 34
한파@@ 34
번거로워 34
힙이 34
보내준@@ 34
소매를 34
손목 34
안이쁘네요 34
프리사이즈 34
구겨져@@ 34
허리부분 34
옷이라고 34
엠 34
작업@@ 34
앉았@@ 34
버림 34
예쁘고편하고조아요 34
바이오워싱9부 34
돌돌@@ 33
작긴한데 33
넣을 33
산게 33
낼 33
학생@@ 33
심이 33
잘되어@@ 33
초록색 33
같아요!@@ 33
발견해서 33
두장 33
귀여워서 33
있던@@ 33
펄@@ 33
만족스러워서 33
들어요~^^ 33
상자@@ 33
쓸게요 33
구매해 33
정말로 33
지않는@@ 33
아니네요@@ 33
^^! 33
일찍@@ 33
갖고@@ 33
경우@@ 33
하셨어요 33
가방끈이 33
안샀을@@ 33
쿠션이 33
엉 33
좋내요 33
받아봤@@ 33
렵니다 33
아무옷이나 33
패드@@ 33
부분이랑 33
추천해요~ 33
사게 33
지퍼를 33
편할 33
멋스럽게 33
갔는데 33
😍 33
졌어요. 33
매기 33
크네여 33
심플 33
이라그런지 33
곳보다 33
당일배송@@ 33
한마디@@ 33
잘받았어요@@ 33
어울립니다 33
니다~@@ 33
최대한 33
자국 33
종 33
않은것 33
들었습니다. 33
달려있어서 33
감사히 33
가벼운데 33
부드러워 33
사진에서@@ 33
구매하길 33
는거라 33
못하네요 33
좋은데.. 33
있어요~@@ 33
감사합니다!! 33
적어@@ 33
손편지도 33
어울릴거 33
장난아니@@ 33
편할것 33
대체 33
해주시면 33
느낌도@@ 33
이래서 33
가격정도 33
분께 33
몰라@@ 33
예쁘다는 33
침 33
꺼같아요~ 33
뇨@@ 33
보시고 33
무엇보다도 33
후기대로 33
생겼어요 33
있었는데@@ 33
뎅@@ 33
임이 33
넓은데 33
검은색이라 33
깔끔하지 33
될꺼같아요 33
빼야@@ 33
나구요 33
외투 33
코팅@@ 33
도착 33
이쁘네요..@@ 33
돌아가@@ 33
낙낙하고 33
망사@@ 33
궁 33
하고... 33
같았@@ 33
홈@@ 33
기만 33
쁨 33
있는것 33
오. 33
택배사 33
빼면@@ 33
전화도 33
바 33
내피@@ 33
편안하네요 33
더라구@@ 33
이젠 33
쇼핑몰보다 33
싶습니다 33
쁘 33
달라고 33
이든 33
할걸 33
받앗습니다 33
한벌@@ 33
멋스러워요 33
팔아주@@ 33
확인을 33
알맞게 33
잘삿어요 33
사이로 33
기대한 33
정상@@ 33
좋은제품@@ 33
걸림. 33
자칫 33
지만.@@ 33
시간도 33
신발에 33
신으려구요 33
검정색으로 33
수선해야@@ 33
좀크네요 33
신기에 33
크게나왔@@ 33
늦게왔어요 33
보기에는 33
싼티가@@ 33
아리@@ 33
짧은듯@@ 33
입장@@ 33
블랙에 33
느렸음 33
잘입을 33
입고다녔@@ 33
짧은것 33
여리여리하고 33
끼가 33
폴라니트 33
브라@@ 33
날씬해보여서 33
참고해서 33
입으실 33
낳@@ 33
4월@@ 33
살에 33
부드러운데 33
| 33
더군@@ 33
쁨@@ 33
려나 33
한건지 33
정전@@ 33
이구요. 33
솔직@@ 33
오버핏은 33
여성 33
없을듯 33
옷이네요. 33
춥고 33
누구@@ 33
루즈해서 33
L로 33
어깨랑 33
오버사이즈@@ 33
길이감이나 33
암홀@@ 33
안오@@ 33
아예@@ 33
끼네요 33
평을 33
짧네요.. 33
뚫려@@ 33
추천안@@ 33
잘늘어나고 33
에다가 33
살집이 33
더울듯 33
느려도 33
배송만@@ 33
저랑은 33
하나쯤 33
촥 33
면티 33
신중@@ 33
비지떡 33
미안@@ 33
한번입었는데 33
다며 33
늦어도 33
크신분들은 33
36@@ 33
백화점 33
기장이라 33
돼 33
상표@@ 33
되었네요 33
wo@@ 33
따스@@ 33
흰티@@ 33
오리털이 33
지난@@ 33
자신@@ 33
나갓@@ 33
조여서 33
프린팅이 33
말을 33
2주넘게 33
늦으면 33
184@@ 33
배송비가 33
판매자가 33
틀려@@ 33
레깅스를 33
225 33
다니기@@ 32
폰 32
괜찮습니당 32
넉넉합니다 32
무리가 32
으면서도 32
공간@@ 32
지퍼부분이 32
편은@@ 32
칸@@ 32
이쁘네여@@ 32
두꺼웠@@ 32
지못@@ 32
찰@@ 32
감사해요~ 32
께용 32
인정@@ 32
열고 32
이어 32
사진도 32
ds@@ 32
다니려고 32
싼티안나@@ 32
께요^^ 32
직장@@ 32
크다고 32
마트@@ 32
작다는 32
이만한 32
긋 32
잘쓸께요 32
남친이 32
수납공간 32
특히@@ 32
만원대 32
알앗@@ 32
하더라구요@@ 32
good@@ 32
도가 32
구, 32
그랬지만 32
놀라@@ 32
빈티지 32
험@@ 32
무겁지 32
있었네요 32
도아니고 32
울퉁불퉁@@ 32
작다고 32
배송이빨라요 32
보람@@ 32
요거@@ 32
바늘@@ 32
네요; 32
없어요~ 32
체인@@ 32
하는거@@ 32
빨리오고 32
총알배송 32
고급져보이고 32
소재를 32
구입햇는데 32
낸@@ 32
샀어요.@@ 32
만족스럽고 32
봄.@@ 32
저렴한거 32
관리 32
내내@@ 32
프리미엄@@ 32
말도@@ 32
너무많이@@ 32
귀엽게 32
퍼는 32
튀지 32
홍@@ 32
편할거 32
똑같은거 32
좋아요~~~@@ 32
검정이라 32
후들@@ 32
드는@@ 32
처음이라 32
럴@@ 32
구요!! 32
바스락 32
는데.@@ 32
데이트@@ 32
싸보여요 32
비싸네요 32
봐요. 32
오염이 32
좋네여@@ 32
인해 32
분홍색 32
실제는 32
좋다고@@ 32
구매하세요. 32
딱인듯 32
사세요. 32
보기싫@@ 32
컬러감도 32
길었으면@@ 32
진행@@ 32
다음부터는 32
사진같은 32
지만,@@ 32
아주이뻐요 32
다운된 32
예쁘네요.@@ 32
돌리면 32
별론데 32
^^^ 32
얇긴@@ 32
가격값 32
사진에는 32
팥죽@@ 32
그랬나봐요 32
늦은거 32
보내신@@ 32
늦게와서 32
습니다만 32
질감 32
함께@@ 32
겠죠. 32
참고하시고 32
유니@@ 32
이뻐요... 32
듯하고 32
해요~~@@ 32
않을거 32
어영 32
했습니다@@ 32
여성스럽게 32
헐렁해서 32
기다림 32
배송빠르구요 32
옅@@ 32
하는건 32
핑크랑 32
맘에들어요~@@ 32
내일 32
재고 32
픈 32
중입니다. 32
흰티에 32
웃 32
해주세요. 32
칼라가 32
걱정이 32
림. 32
들러@@ 32
몸 32
나가고 32
착화감@@ 32
시길 32
그러네요. 32
일반적인 32
벗겨지@@ 32
작으면 32
230신는데 32
흡사@@ 32
둘레가 32
해야할지 32
제질은 32
잘입어요 32
길이만 32
입어야겟어요 32
잘입을수있을@@ 32
생각하는 32
따가워요 32
105입는데 32
구매안@@ 32
걸렸네요. 32
터지@@ 32
붙지도 32
봄여름@@ 32
블랙도@@ 32
날씨에는 32
입을수있어서 32
딱맞는@@ 32
안입어봤는데 32
가격만큼만 32
찮아요 32
따시@@ 32
날씨에도 32
하다고@@ 32
아크릴@@ 32
긴편인데 32
오프숄더@@ 32
걷어@@ 32
54@@ 32
야들@@ 32
번창하세@@ 32
상품이라 32
이쁘네@@ 32
옵@@ 32
여유있@@ 32
옷이에요. 32
도톰하네요 32
나오지 32
입기엔@@ 32
한두번@@ 32
했을 32
클로슈 32
실밥처리@@ 32
입을수잇을@@ 32
좋은옷 32
당황했어요 32
느려요.. 32
기존에 32
흰색이랑 32
입힐@@ 32
낙낙한 32
바쳐@@ 32
기다@@ 32
on@@ 32
벗기 32
모델언니 32
니트안에 32
넓은편이라 32
입을게용 32
잘입어@@ 32
Q@@ 32
나온거같아요 32
옷자체@@ 32
개인적인 32
셔요 32
엠사이즈 32
우유@@ 32
단추부분이 32
예쁠듯 32
맞아요! 32
/4@@ 32
반품비가 32
으셨@@ 32
그냥... 32
시켰다가 32
건지... 32
트렌치 32
가디건으로 32
soso@@ 32
아줌마 32
기대보단 32
길어보이@@ 32
오래걸렸네요 32
느리구요 32
개안@@ 32
입을만은 32
정사이즈네요 32
그렇다@@ 32
X@@ 32
흠... 32
임... 32
여름슬랙스남자마바지 32
케이@@ 31
다른색상으로 31
오배송@@ 31
아가@@ 31
학생 31
함에 31
믄 31
무료@@ 31
컬러감이 31
손에 31
잘산듯 31
태슬@@ 31
들고다닐 31
만족하네요 31
빨강 31
이래@@ 31
실망스럽네요 31
fy@@ 31
지...@@ 31
빠른배송과 31
해요~^^ 31
백팩 31
좋겟어요 31
늘려@@ 31
고민하고 31
많아서@@ 31
귀여워요~ 31
잡히고 31
잇습니다 31
다닌@@ 31
무게는 31
맘에든@@ 31
많이파세요. 31
해서는 31
앞뒤@@ 31
흔하지않@@ 31
훌@@ 31
딱딱한 31
싼티나는 31
모르겠고 31
작습니다 31
분위기@@ 31
한다면 31
프로@@ 31
상담 31
하단@@ 31
디테일도 31
추운날 31
에게는 31
좋다는 31
예쁘긴@@ 31
많이파세용 31
냄새는@@ 31
느렷어요 31
가격만큼입니다 31
좋아요, 31
이거만 31
고급지진 31
잇엇@@ 31
튼튼한 31
너무이뻐용 31
재구매합니다 31
삽니다 31
만족합니다.. 31
딱맞는 31
구매했었는데 31
겨울이라 31
구매한거 31
오래걸렸는데 31
굵은@@ 31
있었어요. 31
아니니 31
하셔요 31
가격과 31
나오는데 31
` 31
구매하시면 31
^^♡ 31
사요 31
화가@@ 31
보니깐 31
교환을 31
똑같구 31
괜찮으면 31
냄새나고 31
지로 31
너무예쁘고 31
먹고 31
외출용@@ 31
않고요 31
되고@@ 31
검정색이 31
좋아요~!! 31
사은품 31
긴게 31
빠진 31
들어있어서 31
껀 31
있겠어요. 31
구매했는데요 31
그것만@@ 31
하기가 31
실물로 31
귀여워요@@ 31
만족은 31
자기@@ 31
기까지 31
또살@@ 31
화면보다@@ 31
걸렸습니다. 31
반해서 31
용.. 31
이니@@ 31
게여 31
컬러별로 31
컬러랑 31
보여요.@@ 31
얇아요.. 31
프린트가 31
감사요 31
살때 31
화이팅 31
덩치 31
올리면 31
괜찮네요~@@ 31
편해요~@@ 31
정돈 31
느렷지만 31
사진상으로 31
짜임도 31
사이즈와 31
했는데...@@ 31
컬러라 31
드나 31
모든게 31
댜 31
스트 31
사장님도 31
껏@@ 31
마찰@@ 31
들어서@@ 31
두껍지만 31
아쉬운데 31
타는 31
시켰어요 31
입고가@@ 31
카 31
그것빼곤 31
가있어서 31
셀@@ 31
앗지만 31
려다 31
250 31
껍@@ 31
될거같@@ 31
몬@@ 31
정싸이즈@@ 31
신을때 31
악 31
최악이네요 31
입는데, 31
잘입을께요~~ 31
추운날@@ 31
뭔지 31
쫀@@ 31
잘입을것 31
있으신분들은 31
바지보다 31
덥네요 31
애매함 31
쿨@@ 31
우리@@ 31
깔별로@@ 31
부지런히 31
없어요@@ 31
언발@@ 31
부해보여@@ 31
품도@@ 31
총장@@ 31
되세요 31
as@@ 31
짧은거@@ 31
원단은@@ 31
넓으신 31
보일수 31
여리여리해보이@@ 31
세탁해@@ 31
입엇을때 31
너무나도 31
자주입을@@ 31
라니@@ 31
하기에는 31
옆트임@@ 31
봄에입기 31
마른사람@@ 31
따뜻하구요 31
엉덩이는 31
붙지 31
사이즈만 31
코디대로 31
풍성해서 31
165 31
통통한@@ 31
ci@@ 31
잘받았습니다.@@ 31
면바지 31
내려와서 31
입을만하네요 31
스킨@@ 31
직 31
땀 31
살집@@ 31
길이라 31
먼 31
벨트를 31
이가격이면 31
괜찬네요 31
입어요@@ 31
그정도는 31
185@@ 31
세탁소 31
이뻤어요 31
옷처럼 31
깁니다 31
앞쪽이 31
싸다고 31
2-@@ 31
넘어서 31
불량이@@ 31
진하네요 31
패딩은 31
인내@@ 31
풀렸@@ 31
된다는 31
귀찬아서 31
그만@@ 31
보내세요 31
고무줄이라 31
라는@@ 31
경우는 31
커요..@@ 31
일자로 31
가아니라 31
물량@@ 31
gk@@ 31
입는데도 31
글자@@ 31
라고해서 31
175 31
청바지는 31
터질@@ 31
좀커요 31
밑단도 31
못신@@ 31
틈@@ 30
스마@@ 30
선물용@@ 30
넣는 30
사달라@@ 30
빨랐어요~ 30
택 30
사용하고 30
평상시 30
많이나서 30
것만@@ 30
사용 30
괜찮게 30
ch@@ 30
빨간색 30
쨍하니 30
핀@@ 30
번째 30
이라.. 30
쪼금@@ 30
맘이 30
라이트@@ 30
출발@@ 30
조아요~ 30
사은품으로 30
봤다면 30
든지 30
들었습니다 30
더라구여 30
감사드립니다. 30
샤랄라@@ 30
효 30
잡고 30
무겁지도 30
세일할때 30
택배기사@@ 30
정장에도 30
고급져보여요 30
페브리즈 30
구매했어요! 30
할때도 30
박 30
번쩍@@ 30
힝 30
망설였는데 30
드네요! 30
비닐에 30
않네요~ 30
스타일인데 30
번창하세요! 30
잘받았습니다^^ 30
넉넉 30
사세요! 30
질이나 30
창 30
핸드폰 30
기억@@ 30
나이들어@@ 30
고민없이 30
주위@@ 30
예뻐여@@ 30
빠졌어요 30
되지만 30
어울린@@ 30
은은하니 30
보완@@ 30
들에 30
이었으면 30
하는지 30
좋더라구요 30
숩@@ 30
구매합니다. 30
심하지만 30
저희@@ 30
너뮤 30
밸트@@ 30
돌아서 30
부피@@ 30
3번째 30
도전@@ 30
육@@ 30
이뻐요!!!! 30
않았고 30
별루입니다 30
집앞@@ 30
티입고 30
필수 30
건지는 30
온거 30
흐믈@@ 30
100%@@ 30
입금@@ 30
배송완료@@ 30
로만 30
깔끔해요. 30
분들께 30
단추로 30
중간중간 30
기까지@@ 30
전체적으로는 30
배색 30
사이에 30
딱인거 30
없는것 30
이에요~@@ 30
만족하구요 30
올해는 30
어울립니다. 30
방 30
글이 30
지. 30
무게감@@ 30
었고 30
세탁시 30
안나오고 30
많지만 30
꿀@@ 30
힘들지만 30
무겁긴 30
속에@@ 30
먼지가@@ 30
길어보여요 30
색이에요. 30
편한거 30
입고도 30
듯하지만 30
괜찮으나 30
못해요 30
기회@@ 30
이뻐용~ 30
말에 30
왠만한 30
아쉽네요@@ 30
보이는게 30
나을듯 30
싶네요~ 30
10일만에 30
동일해요 30
골지 30
온라인@@ 30
말리@@ 30
봤는데@@ 30
추 30
wi@@ 30
은것 30
뒤집@@ 30
시키고 30
아이는 30
전화 30
스럽게 30
샀고 30
좋앗을@@ 30
기대안하고 30
괜차@@ 30
예쁜거같아요 30
떨어졌어요 30
았지만 30
둣@@ 30
추천할@@ 30
작네요.. 30
끝까지 30
취소하고 30
예뻐요~~^^ 30
> 30
주네요 30
색깔로 30
버린@@ 30
튀어나와서 30
안해서 30
발바닥@@ 30
발볼은 30
해야되나 30
아픔 30
크네요..@@ 30
컬@@ 30
신을려고 30
잘신@@ 30
플랫@@ 30
아닌데도 30
넓은편인데 30
사야겠어요 30
확정@@ 30
잘입을꺼같아요 30
이래저래 30
폴라 30
한겨울 30
두꺼우@@ 30
입을땐 30
따듯하게 30
더울거 30
갖춰@@ 30
짧다는 30
입었어요~ 30
살랑@@ 30
쫀쫀하고@@ 30
짧다고 30
슬림핏 30
박시해요 30
뻐 30
S사이즈 30
입으려고요. 30
규요 30
안타깝@@ 30
안입게 30
날씨엔 30
입어보진않았지만 30
100입는데 30
입으시는@@ 30
치마에@@ 30
아침저녁으로 30
다르네요.. 30
촌스러운@@ 30
루즈핏에 30
가로 30
못입었@@ 30
추위@@ 30
지도않고@@ 30
귀걸@@ 30
입다@@ 30
좋고. 30
가깝네요 30
따뜻하구 30
다른듯 30
체형 30
딘@@ 30
봄, 30
..너무 30
가을용@@ 30
파임이 30
도대체 30
원하@@ 30
셈 30
단, 30
잘입을수 30
일정@@ 30
할듯.. 30
평범 30
어둡지만 30
입을려고요 30
스퀘어@@ 30
상품평을 30
므@@ 30
양털@@ 30
asd@@ 30
남겼@@ 30
배송너무 30
교환이 30
하지마@@ 30
모르겠어요. 30
픔@@ 30
53@@ 30
56@@ 30
자켓이 30
잘가는 30
살쪄서 30
크다 30
음에도 30
잘가@@ 30
살이쪄서 30
시원하네요 30
버려야@@ 30
상의를 30
빤딱@@ 30
초가을@@ 30
번거로워서 30
그래요... 30
연청이 30
키작은@@ 30
373@@ 30
움직이@@ 30
못입겠네요 30
기장이랑 30
데님 30
두꺼워요. 30
팬티@@ 30
반품하기귀찮아서 30
발바닥이 30
좋네요~~~ 29
사용하기 29
도많이@@ 29
추천요 29
사람들도 29
넣는@@ 29
하늘색 29
심플하게 29
놔도 29
솔직한 29
하자마자 29
구매해야겠어요 29
듯해여 29
xk@@ 29
c 29
초이스@@ 29
거뜬@@ 29
아이가 29
게요^^ 29
받아보니@@ 29
이미지 29
하나로 29
인줄알았@@ 29
화장품 29
구입후 29
겟습니다 29
려니 29
~!!! 29
주는@@ 29
응대 29
빈티지한 29
안정@@ 29
조으네요 29
안나네요 29
만족함@@ 29
마음에듭니다. 29
몸통이 29
할듯해요 29
조아조아@@ 29
짱짱하게 29
나들이 29
상품인데 29
만조@@ 29
귀엽고@@ 29
그가격에 29
넓게 29
야해서 29
생각을 29
짐도 29
가죽냄새가 29
대해 29
이리@@ 29
백으로 29
간지 29
가격만@@ 29
냄새가너무@@ 29
내구@@ 29
...^^ 29
으려고 29
문의도 29
네요!@@ 29
안타@@ 29
진않았지만 29
안했지만 29
구매시 29
놀랫@@ 29
퀄 29
챙@@ 29
않으면서 29
들이@@ 29
분리@@ 29
중요한 29
남고 29
버건디@@ 29
배송도빠르고좋아요 29
냄세@@ 29
사계절 29
이뿝@@ 29
두었@@ 29
제법 29
지인이 29
완전만족@@ 29
안쓰@@ 29
짧아요~ 29
마음 29
수영@@ 29
추천해요. 29
엑스@@ 29
구요~~@@ 29
배송도빠르@@ 29
데일리용으로 29
감사해용 29
장바구니@@ 29
이쁘고좋아요 29
김에 29
작습니다. 29
이쁘네요~^^ 29
랐@@ 29
그거빼고는 29
오묘@@ 29
공장에서 29
얇지않아서 29
모르지만 29
괜히@@ 29
길이와 29
낮에 29
실제로보니 29
오트밀 29
물어보@@ 29
차이는 29
여름용으로 29
큰편인데 29
못한 29
배송은좀@@ 29
보푸@@ 29
스가 29
판매 29
봤을때는 29
됏@@ 29
soso 29
눌러@@ 29
우와 29
나쁘지않음 29
널어@@ 29
것같애요 29
건조@@ 29
편함@@ 29
좁아 29
되니까 29
이브@@ 29
프린팅@@ 29
나가보진 29
줄알고 29
봤으면 29
아쉬워요~ 29
좋아욤 29
흠..@@ 29
20일 29
같아요, 29
보기에 29
총알배송@@ 29
고장@@ 29
집어@@ 29
키큰 29
집앞 29
색상이고 29
정확@@ 29
당일 29
바닥도 29
뻣뻣해요 29
븐@@ 29
비슷한거 29
빨랐으면 29
귯 29
않아도 29
싼만큼 29
걸리네요 29
촌스러@@ 29
퍼지는 29
긴편이라 29
안하면 29
았 29
방금 29
유행이라 29
가운@@ 29
끔 29
만족합니다~! 29
했더니@@ 29
선택을 29
없는거@@ 29
스러워요 29
좋앗어요 29
네용~~ 29
두꺼운거 29
크네요.@@ 29
좋앙@@ 29
마니파세요@@ 29
없지않아@@ 29
오니 29
밑창 29
구입해@@ 29
럼 29
잘했네요 29
신은 29
들어가있어서 29
늦긴했지만 29
키높@@ 29
뒷꿈치@@ 29
뒤꿈치@@ 29
안나오지만 29
보여서@@ 29
신을만@@ 29
좋은데요 29
여성여성 29
핏이라서 29
입고다녀요 29
더워지기전에 29
스로 29
오버핏인데 29
소매가@@ 29
소재입니다 29
어쩔수@@ 29
프리 29
내년에도 29
다행이네요 29
논@@ 29
꿰@@ 29
팔쪽이 29
잘입었습니다 29
날이@@ 29
화사해서 29
밑위 29
금액 29
올께요 29
164인데 29
튜@@ 29
아우@@ 29
오버사이즈 29
입을만합니다. 29
보여요.. 29
빨랐는데 29
많던데 29
럼@@ 29
불량이라 29
배달@@ 29
얇은감이 29
빠르면 29
클래식@@ 29
트렌치코트 29
과하게 29
맞지 29
적인@@ 29
옷중에 29
소재랑 29
셔야할@@ 29
몸뚱@@ 29
간절기때 29
햇더니 29
남방에 29
입어야겟@@ 29
B@@ 29
44사이즈@@ 29
넣어입으면 29
늘씬@@ 29
번창하시고 29
교환하느라 29
싶지 29
탓이@@ 29
라룸 29
샷@@ 29
// 29
걸칠@@ 29
푹신푹신@@ 29
반팔에 29
킹@@ 29
접히@@ 29
낍@@ 29
하늘하늘하고 29
거래@@ 29
하고도 29
명 29
닝@@ 29
빛도는 29
대처@@ 29
자켓을 29
이유@@ 29
3일만에 29
날은 29
오른@@ 29
170에 29
나네요.. 29
피치@@ 29
내요. 29
퍼져서 29
배송이너무느려요 29
펴지@@ 29
깉@@ 29
구깃@@ 29
뚱뚱해보임 29
느린데 29
어이가 29
식초@@ 29
안하시@@ 29
이쁘지도 29
su@@ 29
180 29
맞아@@ 29
정도입니다. 29
몸에@@ 29
안나옴 29
귀찮아@@ 29
입고가 29
아는 28
겸 28
신경써주셔서 28
들어갈 28
*^^* 28
어쩔수없이 28
넘는 28
다른색상@@ 28
들고다니기@@ 28
좋았을듯 28
디자인이라서 28
완전만족 28
드네요^^ 28
너무좋고 28
예쁘고요 28
싼거 28
사진에서는 28
cu@@ 28
교환요청@@ 28
괜찮긴 28
>.@@ 28
다운 28
컬러감@@ 28
노트북@@ 28
외에 28
력 28
것보다@@ 28
160인 28
펜@@ 28
대박입니다 28
없어도 28
쿠션감이 28
세가지 28
욕심@@ 28
갈때도 28
이제는 28
디자인이에요 28
무게도 28
이뻐요오오 28
뭐... 28
가방에서 28
14@@ 28
놀랐어요. 28
문에 28
잔뜩 28
외출할때 28
하십@@ 28
안되요 28
통화@@ 28
비싸게@@ 28
튼튼해서 28
이쁘고요 28
기대없이 28
만족스러워요! 28
컬리@@ 28
언젠@@ 28
이뻐용!! 28
찾다 28
인데... 28
구매해요 28
가타@@ 28
시기에 28
친 28
여자친구가 28
손편지 28
내구성이 28
한느낌이@@ 28
야지 28
상품도@@ 28
었을때 28
지만요 28
파우치도 28
아무거나 28
냄새가좀@@ 28
앞쪽@@ 28
품이나 28
승@@ 28
생각한거보다 28
처음으로 28
이뻐용~~ 28
별로라 28
러요 28
많이파세요! 28
색만 28
뻔했어요 28
있겠지만 28
즐겨 28
붙네요 28
그랬는데 28
납니다@@ 28
했어도 28
거려 28
응대해주셔서 28
겨울이 28
보들보들해서 28
튀지않고 28
묶어@@ 28
왔음 28
안내 28
탄탄해요 28
너무좋아서 28
품을 28
조이는 28
뜯어질@@ 28
소재고 28
탈부착@@ 28
최고예요 28
하여@@ 28
낮은@@ 28
정도.. 28
좋을것같네요 28
레터링 28
틴@@ 28
기다린보람이@@ 28
아이보리색이 28
이리 28
짧게@@ 28
추천해요@@ 28
되었습니다. 28
스타일이라서 28
겨우@@ 28
좁네요 28
불편한거 28
정도예요 28
난다는 28
부터는 28
할정도로 28
감사합니@@ 28
하실 28
] 28
생각보다별로 28
봄이라 28
좋아요!!!! 28
시원하게@@ 28
하나에 28
구제@@ 28
까봐@@ 28
만족스럽습니다@@ 28
잘한 28
인디핑크 28
짙은@@ 28
구요,@@ 28
줄알앗는데 28
걸린 28
느꼈@@ 28
거라서 28
유의@@ 28
이고, 28
됨. 28
빠른편이고 28
읍니다 28
쟁이@@ 28
가에 28
일거 28
가진 28
안감은 28
색감과 28
밑에가 28
노란색 28
시원 28
치만 28
은은@@ 28
무거워요. 28
이쁘구@@ 28
있어여 28
날거 28
고좋아요 28
eu@@ 28
데서 28
잘구매한@@ 28
솔직히@@ 28
완전맘에들어요 28
이뻐보이@@ 28
반송@@ 28
뷰@@ 28
구두가 28
신을것 28
연휴 28
주문하니 28
뒷꿈치가 28
만족하지만 28
주구장창 28
작아보이고 28
편안합니다 28
람@@ 28
어욤 28
전체적으로@@ 28
안나지만 28
이뻐용^^ 28
티나@@ 28
aj@@ 28
맛은 28
석유냄새@@ 28
봣지만 28
봄에는 28
182@@ 28
알았으면 28
일어나요 28
깔끔한@@ 28
자연스러@@ 28
입겠습니다~ 28
쏘쏘합니다 28
입을게요~~ 28
초가을에 28
바지와 28
지난 28
모델언니처럼 28
풀 28
잘입을께용 28
이리저리 28
따뜻함 28
떨어지는게 28
딱붙@@ 28
나시입고 28
파스텔톤@@ 28
바지에@@ 28
체형커버@@ 28
하시는분들 28
가디건도 28
옆트임이 28
너무하네요 28
루즈하고 28
힙 28
부드럽진 28
사야겠@@ 28
올릴@@ 28
179@@ 28
달라붙어서 28
춤@@ 28
느립@@ 28
척@@ 28
느리고@@ 28
세탁했더니 28
나머진 28
한거같@@ 28
늘어 28
찢어져@@ 28
확인도 28
기장에 28
루즈핏은 28
dkdk@@ 28
따끔@@ 28
50 28
해질@@ 28
...? 28
실망.. 28
보임. 28
도톰 28
조합@@ 28
너무많이 28
w 28
ak@@ 28
주문이 28
따뜻할거 28
입을만한@@ 28
햐요 28
덥지만 28
나... 28
입고있@@ 28
뎅 28
딜@@ 28
평타@@ 28
껴요 28
님이 28
헹@@ 28
될꺼 28
야할 28
팔기장이 28
했나@@ 28
털빠짐도 28
좋겠습니다 28
있는듯 28
보온성@@ 28
답답해요 28
읽@@ 28
이쁘진않@@ 28
두개가 28
겉감이 28
잘입을듯 28
기분나@@ 28
고급스럽지는 28
흘러내려@@ 28
잘입으@@ 28
퍼지@@ 28
해주셨으면 28
잘못이@@ 28
2월@@ 28
앉아@@ 28
샤방@@ 28
너~~무 28
풀고 28
갠찬아요 28
심각하게 28
오픈해서 28
그냥그래용 28
말라야 28
어좁@@ 28
에이라인@@ 28
챠@@ 28
다려서 28
달라요.. 28
느린거 28
있으신분은 28
하늘 28
다름@@ 28
이드@@ 28
달았@@ 28
스커트가 28
그다@@ 28
얆@@ 28
미듐 28
킬로 28
72@@ 28
중청 28
기네요. 28
9부 28
홈웨어로 28
편하게입기 28
입을만은@@ 28
엉덩이랑 28
편하지만 28
이바지는 28
바지라서 28
헐떡@@ 28
부츠가 28
검은색으로 27
지폐@@ 27
고리가 27
있는걸 27
께요@@ 27
마다@@ 27
귀엽습니다 27
색상의 27
초등@@ 27
싶어요~ 27
답도 27
만족~ 27
잃어@@ 27
꾸깃@@ 27
쥐@@ 27
뿌리고 27
보들보들하니 27
다홍@@ 27
불편할 27
이뿌다고 27
재구매했는데 27
투명@@ 27
.2@@ 27
이뿌네용 27
배색이 27
진작 27
좋아용!! 27
화면에서@@ 27
제꺼@@ 27
하겠어요 27
튼튼해요 27
쓰기@@ 27
일이@@ 27
분명@@ 27
튼튼하게 27
베이지색도 27
아니예@@ 27
여행용으로 27
급히 27
하얗@@ 27
실망이@@ 27
덕 27
새가 27
듯.@@ 27
크진 27
맘에들어요!! 27
앞쪽에 27
강아@@ 27
만족입니다! 27
부담스러울@@ 27
딴 27
잠시 27
올리고 27
했어요~@@ 27
예쁘네여 27
하지않아 27
늘어지는 27
좋아보이@@ 27
좋습니다아 27
구리@@ 27
추천드립니다. 27
예쁘네요~@@ 27
컸으면 27
조아요^^ 27
대박나세요@@ 27
사진그대로입니다 27
구매함 27
제품인데 27
했는데. 27
불편함은 27
있더라구요 27
네용! 27
깨끗하고 27
다른곳에 27
싼가격@@ 27
이트@@ 27
괜찮았어요. 27
❤ 27
접혀서 27
생활@@ 27
깡패@@ 27
끼우@@ 27
붙어있어서 27
해주시구 27
많아@@ 27
래도 27
~~~!! 27
조하@@ 27
바뀐@@ 27
재질인데 27
겨울까지 27
친절하세요 27
알게@@ 27
쉽고 27
고민중이에요 27
구매했어요~@@ 27
답답한 27
어깨부분 27
아침에 27
싹@@ 27
30 27
량이 27
돈주고 27
담날@@ 27
당황했@@ 27
하고요. 27
늠@@ 27
되 27
기모라서 27
세상 27
찾는@@ 27
놓으면 27
가격대비굿 27
상품평처럼 27
빠지는@@ 27
좋아요좋아요좋아요좋아요@@ 27
하시는데 27
길어요~ 27
비추천 27
떨어집니다. 27
매치가 27
렀@@ 27
똑같아여 27
작은감이 27
아는@@ 27
골랐@@ 27
있고요 27
아무때나 27
오전에 27
덮고 27
네여..@@ 27
소장하고 27
롱스커트 27
않습니다.@@ 27
해야하나? 27
배송짱@@ 27
망 27
어디에@@ 27
마음에들어요~ 27
예쁘네요.. 27
빠지긴 27
사주@@ 27
때매 27
잘어울려요. 27
받혀@@ 27
브라운은 27
같고요 27
여밈@@ 27
했다고 27
제겐 27
캬@@ 27
좋아용~ 27
맘에드는@@ 27
이라니 27
연휴가 27
끼어서 27
있다는 27
기분도 27
원단이나 27
실밥처리 27
어오 27
비싸지만 27
하고...@@ 27
다음날@@ 27
실망했지만 27
예쁩니다^^ 27
먹었@@ 27
이런스타일 27
생 27
착용시 27
어여~ 27
짦@@ 27
덥지도 27
마음으로 27
냄세가 27
거친@@ 27
가을이나 27
하네요...@@ 27
가루가 27
딱인 27
생각한거랑 27
뭍어@@ 27
고급스럽네요 27
지금같은 27
안감에 27
아.. 27
사진상으로는 27
레터링@@ 27
화려하고 27
보인다고 27
레 27
다.. 27
,.. 27
비슷해서 27
건지..@@ 27
배송지연으로 27
것과는 27
이뻐요~~~~ 27
봄이@@ 27
당황했는데 27
아니에요@@ 27
2번 27
이쁘내요 27
택배도 27
완죤@@ 27
고민이 27
셔 27
xj@@ 27
너무작아요 27
티나요 27
화이팅@@ 27
신을께요 27
워요@@ 27
쪼여요 27
240으로 27
주문했는데도 27
특이해요 27
굵어서 27
220@@ 27
편하구@@ 27
편해서@@ 27
한사이즈크게@@ 27
정사이즈로@@ 27
오래기다렸는데 27
161@@ 27
같습니다~ 27
빨랏구요 27
쨍하고 27
이다보니 27
만원도 27
이었어요 27
주기 27
목선이 27
보여용 27
따시고 27
베리@@ 27
늦엇@@ 27
예민한 27
입어야겠어요~ 27
입지도@@ 27
어깨선 27
원플러스@@ 27
차이나 27
타이트하지만 27
괜 27
박시 27
반목@@ 27
스타일이네요 27
니트로 27
네요^^; 27
올려 27
모델언니가 27
아래까지 27
추천합니다.@@ 27
밑단에 27
수선해서@@ 27
싶네요@@ 27
늘어남@@ 27
옷인@@ 27
70 27
남색 27
구입햇@@ 27
깅@@ 27
생길 27
라임@@ 27
반정도 27
어쩜 27
거기다 27
입을만해요~ 27
색깔은@@ 27
두깨도 27
길이감이@@ 27
옆구리 27
허리끈 27
카키색이 27
털날림이 27
이쁠듯해요 27
커보이는 27
어찌 27
이이@@ 27
생겨요 27
배송도느리고 27
W@@ 27
잔 27
비추입니다. 27
지? 27
는... 27
180에 27
입어요.. 27
별로..@@ 27
기장은@@ 27
검은색은 27
아쉬움이@@ 27
머메이드@@ 27
받쳐입고 27
조아조아요 27
구매하실때 27
겁니다. 27
멜빵@@ 27
놧@@ 27
= 27
N@@ 27
결국@@ 27
이유는 27
네요....@@ 27
입어야할거같아요 27
8부@@ 27
헐렁해요 27
티셔츠랑 27
얇습니다. 27
두개를 27
공장@@ 27
별론@@ 27
다른옷@@ 27
리닝 27
입어야해서 27
없었어요 27
흰티 27
컬러감 27
많이나네요 27
춥지 27
저에게도 27
단추구멍 27
문자를 27
답 27
가격도저렴하고 27
안맞고 27
입을듯해요 27
뭐라@@ 27
길엇@@ 27
하체 27
웬만한 27
보통이구요 27
메이@@ 27
그냥저냥.. 27
허리라인이 27
👍👍 27
레이스는 27
스판기는 27
티셔츠로 27
룸@@ 27
그닥... 27
어깨뽕이 27
뜩@@ 27
뺴@@ 27
79@@ 27
잠기@@ 27
가즈아 27
/8@@ 27
에스 27
^~@@ 27
미스로 27
미디움@@ 27
ct@@ 27
아까워요 27
양말에 27
니까? 27
바지에요 27
바지네요 27
156@@ 27
27사이즈 27
26-@@ 27
걸으면 27
동전 26
동생도 26
가..@@ 26
드립@@ 26
쏙들어요 26
위로@@ 26
카드지갑@@ 26
틱 26
깊어서 26
많이들어가고 26
쓰는 26
적립@@ 26
뿌려서 26
요~!! 26
세개 26
유광@@ 26
뻑뻑해서 26
요:) 26
했는데... 26
귀여움 26
손글씨@@ 26
고급스럽습니다 26
기분전환@@ 26
그부분이 26
디쟈인@@ 26
이쁘네요~~@@ 26
찾아보다가 26
좋습니다.. 26
쾌@@ 26
빨라요! 26
실물도 26
받아보니까 26
출퇴근@@ 26
활용하기 26
뚝@@ 26
일상@@ 26
던거@@ 26
다닐게요 26
착용전@@ 26
생각입니다. 26
말처럼 26
인치 26
않은데@@ 26
배송받고 26
구매확정합니다 26
느낌나고 26
별로에요... 26
다구 26
너~~~무 26
쌀@@ 26
실제가 26
진게 26
위치@@ 26
다니기도 26
가능하고 26
조카@@ 26
안드네요 26
에이@@ 26
일도 26
놔서 26
반신반의 26
나름괜찮아요 26
으루 26
아쉽긴하지만 26
힘들었는데 26
근대 26
묻어나@@ 26
중국산@@ 26
입니다요 26
소개@@ 26
익@@ 26
시켰는데@@ 26
가격만 26
는거랑 26
쳐도 26
손색@@ 26
백을 26
블랙으로@@ 26
가족@@ 26
네용. 26
잡혀있어서 26
쓰 26
이거랑 26
다니면서 26
큽니다@@ 26
해볼@@ 26
구매는 26
펼쳐@@ 26
피드@@ 26
사려다 26
이뿌네요~ 26
포장상태도 26
가장@@ 26
가격만큼이@@ 26
지않아서@@ 26
안전@@ 26
잇엇는데 26
그러려니 26
이후@@ 26
동일합니다 26
안에도 26
저렴해도 26
주머니는 26
가더@@ 26
까만 26
삽@@ 26
생각했던대로 26
없네요.. 26
쇼@@ 26
이뻐요~! 26
디자인,@@ 26
편합니다@@ 26
삼일@@ 26
맨날@@ 26
난다고 26
군데군데 26
코트랑 26
애매하긴 26
적으로@@ 26
좋았겠지만 26
판매하는 26
알아서 26
이쁨요 26
늘어지@@ 26
이뻐영 26
버튼 26
예뻐요!!!! 26
깔끔해요@@ 26
팍팍@@ 26
아요..@@ 26
미치@@ 26
벙@@ 26
출산@@ 26
쉐@@ 26
있는것도 26
더라구요..@@ 26
휴가때 26
힘있는 26
더이쁜@@ 26
너덜너덜 26
할줄알았는데 26
이뻐요^^@@ 26
입니다!!! 26
지난번에 26
이빠@@ 26
쎈@@ 26
택도 26
에다 26
구매했습니다@@ 26
와인색@@ 26
구입하게 26
매치 26
괜찮아지@@ 26
국산@@ 26
시키니 26
별로요 26
쪘@@ 26
여!! 26
체 26
계열 26
소라색이 26
이쁘다는 26
돈아까@@ 26
오래걸릴@@ 26
샵 26
아니예요. 26
튀어나오@@ 26
빨라여 26
블랙보다 26
아이보리라 26
3~@@ 26
벽@@ 26
착용하고 26
하신분은 26
싼데 26
해서.. 26
하실때 26
틀림 26
무배에 26
해줬@@ 26
하니좋아요 26
뒀어요 26
저렴하지만 26
안좋은 26
누락@@ 26
못했어요 26
서비스도 26
깨끗한 26
사이즈네요 26
이미지와 26
늘려서 26
오프@@ 26
겠다고 26
담 26
보이네요~ 26
몸통 26
빠른배송감사 26
젠@@ 26
죠아요@@ 26
예뻐요!@@ 26
브라운으로 26
예쁠거같아요 26
만족도 26
큰데@@ 26
리얼 26
설마@@ 26
응대도 26
못하지만 26
잡아줘@@ 26
도될@@ 26
여^^ 26
흐늘@@ 26
목도리@@ 26
여유로@@ 26
...너무 26
주의 26
같이산 26
진짜진짜 26
큰사이즈 26
놨는데 26
깨끗하게 26
기본템 26
왜이리 26
느렸어요.. 26
예쁘나 26
거같긴한데 26
수제화@@ 26
올라오는 26
2번째@@ 26
짐. 26
스퇄@@ 26
부츠는 26
//@@ 26
아직안@@ 26
슬림 26
소매길이가 26
화사해 26
차르르@@ 26
있네요..@@ 26
원하시면 26
올이@@ 26
인디@@ 26
달라붙고 26
167에 26
재구매할@@ 26
맞았어요 26
세번 26
이신@@ 26
탕@@ 26
쓰네요 26
서요 26
짱입니다. 26
추천입니다 26
굿입니다요 26
얇기도 26
바지안에 26
나. 26
잘늘어날@@ 26
보라색이 26
베이지색은 26
까바 26
피부 26
와우@@ 26
앉을때 26
꺼칠@@ 26
sp@@ 26
밑이 26
안할@@ 26
겉옷 26
따뜻하네요. 26
구매할때 26
세번@@ 26
가능할 26
럽고 26
입어본@@ 26
두툼해요 26
안좋은@@ 26
겉옷@@ 26
떼고 26
나라@@ 26
잛@@ 26
예정입니다. 26
박시하네요 26
슬랙스나 26
안맞을@@ 26
하게도 26
한데... 26
이걸@@ 26
네용.. 26
슬림해 26
굿. 26
입어야죠 26
초봄에 26
안오고 26
덥지 26
초봄까지 26
아닌거같아요 26
당황 26
₩@@ 26
커버 26
스카이@@ 26
판단@@ 26
기간이 26
머메이드 26
상품의 26
입는다 26
안어울려서 26
짧구요 26
묵@@ 26
무난하고@@ 26
편하고이뻐요 26
이너는 26
안들어요 26
다섯@@ 26
아직입어보@@ 26
입으니까@@ 26
암홀이 26
나요?@@ 26
세탁해봐야 26
나여 26
리본으로 26
벼@@ 26
가을에나 26
~~!!@@ 26
쌀쌀해서 26
잘찍@@ 26
까끌 26
자르@@ 26
수고하세요. 26
받았는데@@ 26
두껍지는 26
늘어나는@@ 26
저렴한만큼 26
입어야할듯요 26
타서 26
못입고@@ 26
샷 26
1+1이라 26
보지 26
어벙벙 26
펑퍼짐한 26
문의를 26
배를 26
가리고 26
정확한 26
못입겠지만 26
울고 26
락스@@ 26
모자가 26
적고 26
요즘같이 26
큰편@@ 26
주문햇어요 26
입은듯 26
fl@@ 26
켓 26
집에서도 26
같은건 26
이바지 26
가디건에 26
상품과 26
그만큼@@ 26
기준으로 26
그저그래요. 26
구려요 26
안가는 26
해지고 26
진않았는데 26
사진의 26
뚱뚱해보일@@ 26
오래걸리네요 26
대단@@ 26
정보@@ 26
???? 26
그때@@ 26
얇은건 26
배송넘@@ 26
망에 26
164에 26
보통인데 26
주문해도 26
얇습니다 26
!@@@ 26
잘못와서 26
엉덩@@ 26
앉았다 26
뒤꿈치 26
기냥 25
구매입니다. 25
들고요 25
!~ 25
너무예쁘네요 25
안해요 25
보지는 25
좋아용! 25
스러워@@ 25
간단@@ 25
>_< 25
낮은 25
꺼내 25
심하네요. 25
향수@@ 25
들어와서 25
도좋아요 25
명절@@ 25
구입. 25
사드렸@@ 25
싸구@@ 25
그린색 25
색상이며 25
조아요. 25
네요~~~@@ 25
어두워요. 25
으면.. 25
왔으면 25
실제론 25
신다면 25
부한 25
잘샀어요~ 25
사진대로@@ 25
큰걸 25
불만족@@ 25
느껴져요 25
친절한@@ 25
만족도가 25
제꺼 25
적당한거 25
왔을때 25
포켓이 25
반응@@ 25
편하고, 25
적당한데 25
지퍼가@@ 25
것처럼@@ 25
저렴이@@ 25
했어요^^ 25
진짜예뻐요 25
딸 25
한텐 25
고급스러움@@ 25
찬 25
엄청난 25
렌@@ 25
다른곳보다@@ 25
사려고@@ 25
어머니 25
배송, 25
이즈@@ 25
똑같습니다. 25
상관없이 25
작은편이라 25
다른사이트보다 25
서좋아요 25
냄새나요 25
사니 25
겠어요@@ 25
다른색깔도 25
받은지 25
뜬@@ 25
번갈아가@@ 25
다른게 25
21@@ 25
겟죠 25
지만~ 25
어져 25
후회하지 25
예쁘긴해요 25
다닐거 25
쩍 25
셔링@@ 25
하얀색이라 25
빳빳하고 25
맨투맨에 25
색깔별로@@ 25
들어오@@ 25
이뻐용! 25
빵꾸@@ 25
자켓에 25
핸@@ 25
닌@@ 25
만, 25
비교적 25
~~~! 25
좋을거같@@ 25
와도 25
좋은데, 25
질리@@ 25
색상이에요 25
두번째구매 25
많이나고 25
찍은 25
못할@@ 25
다음에는 25
배송비도 25
사봤@@ 25
출근할때 25
먼지는 25
컬러도@@ 25
거린@@ 25
은좀@@ 25
보았@@ 25
하구요~ 25
흐릿@@ 25
해야할까@@ 25
흰색을 25
예상했던 25
기다린보람이 25
무료배송이라 25
한가@@ 25
구매해보@@ 25
것같은데@@ 25
징 25
만족해요!! 25
나왔어요. 25
밥@@ 25
하던 25
받아본@@ 25
알았어요 25
색상만 25
정말예뻐요 25
동 25
좋은거같@@ 25
꼐@@ 25
이에요..@@ 25
참고하세@@ 25
싶어요@@ 25
조심해야 25
찾기가 25
결 25
거즈@@ 25
두고두고 25
있으면@@ 25
봄,@@ 25
니다!! 25
션 25
구분이 25
없고, 25
짓@@ 25
화면상 25
가격만큼하는@@ 25
본거랑 25
이중@@ 25
입기딱@@ 25
네요^^;; 25
칠 25
후회안하실@@ 25
오바@@ 25
점에 25
한다 25
오프라인 25
기다렸다 25
지않을까 25
예뻐요~~~~ 25
만족스러워요~ 25
해외 25
제작 25
기간 25
칼라는 25
기대이상 25
오피스룩@@ 25
듯~~ 25
상세사이즈 25
슴 25
데가 25
게도 25
플리츠 25
낸 25
걸린것 25
블랙, 25
낳고 25
다음번@@ 25
촌스러워요 25
비싸고 25
싸보이는 25
보여요! 25
고민했었는데 25
생각햇던것보다 25
에요.@@ 25
꾸미@@ 25
아저씨@@ 25
르는 25
사세여 25
다... 25
괜찮습니다~ 25
x 25
fn@@ 25
너무이뻐서 25
조아요조아요@@ 25
괜찮네요.@@ 25
특히나 25
드레@@ 25
였어요. 25
지워지@@ 25
하신다면 25
량 25
쟁여놓@@ 25
뻔했@@ 25
인건지 25
245신는데 25
옛@@ 25
신을거 25
수거@@ 25
신는게 25
아녜@@ 25
사고싶을@@ 25
모습은 25
걸을 25
신고싶@@ 25
걸을때마다 25
신청했는데 25
얕@@ 25
다.@@ 25
니더 25
sl@@ 25
화사해보이고 25
몰라서 25
세탁소에 25
빠니까 25
한건@@ 25
끼는@@ 25
부탁드립니다. 25
섞인@@ 25
첨에@@ 25
일어나고 25
부산@@ 25
에요^^ 25
목부분이@@ 25
받고나서 25
떄@@ 25
커버되고 25
얇은편이라 25
남색@@ 25
하늘하늘하니 25
편안합니다. 25
참고하시@@ 25
길지는 25
연베이지 25
팔길이는 25
ag@@ 25
숭@@ 25
마른편이라 25
챠콜@@ 25
세탁한번@@ 25
트여@@ 25
용용 25
두껍지않고 25
생각보다.. 25
니트입고 25
그래 25
나라 25
속옷을 25
비해서는 25
어찌나 25
가려주@@ 25
두벌 25
핏입니다 25
날씬해보@@ 25
소재라@@ 25
컴@@ 25
상관없@@ 25
코디된@@ 25
입을게여 25
잡아주는@@ 25
털날림@@ 25
슬렉스 25
라인이라 25
핏입니다. 25
V@@ 25
음! 25
날씬하고 25
줘요 25
색이네요. 25
입을꺼같아요 25
맘에들고@@ 25
보드랍@@ 25
뒤꿈치가 25
맛이 25
길이가좀@@ 25
하의에 25
가게 25
반품도@@ 25
지않을@@ 25
작은편인데 25
마르신분들은 25
djdj@@ 25
그랬어요. 25
머스타드 25
추천안함 25
부해보이네요 25
늦긴 25
단독@@ 25
와이드팬츠@@ 25
까실까실@@ 25
타이트해요. 25
비추에요 25
례@@ 25
한번더 25
너무얇@@ 25
파란색 25
아니라고 25
듯한데 25
카키랑 25
회색은 25
쪽도 25
므로 25
보통체격@@ 25
런닝@@ 25
어깨쪽이 25
어케@@ 25
갠차@@ 25
반품을 25
기사@@ 25
원단이랑 25
다른분들은 25
같기도하고 25
신경을 25
같네여 25
안가네요 25
배송문제@@ 25
실밥처리도 25
골지라 25
어중간해서 25
뽕 25
팔목@@ 25
분이@@ 25
벙벙해서 25
입어볼게요 25
패딩조끼@@ 25
et@@ 25
걸치기에 25
달려서 25
줄일@@ 25
될꺼@@ 25
대칭@@ 25
입을수있겠어요 25
떠나서 25
이에요... 25
롤@@ 25
전부@@ 25
이쁜데..@@ 25
뜨는@@ 25
문자가 25
렉@@ 25
농@@ 25
둑@@ 25
옷같아요 25
귀욤@@ 25
안없어@@ 25
니트조끼@@ 25
늦어지@@ 25
입었을땐 25
끝단@@ 25
소라색은 25
늦어진@@ 25
싸니깐 25
길이를 25
넌@@ 25
빠른편은 25
줘도 25
보통. 25
신분들 25
걷어서 25
가까이@@ 25
실망이에요 25
만.. 25
입었다가 25
정도에 25
감안해서 25
177 25
맞네요@@ 25
주문하시면 25
산건데@@ 25
서인지 25
s로 25
입력@@ 25
찍었@@ 25
청바지가 25
대도 25
잡아 25
어정쩡하게 25
하체비만@@ 25
허리부분@@ 25
 @@ 25
화장실@@ 25
롱코트 25
쇠@@ 24
듦 24
형식@@ 24
팍팍 24
민 24
가루@@ 24
수준 24
깃 24
각각 24
딸아이가 24
좋겠어요~ 24
만족하고@@ 24
와요. 24
감동 24
색상이뻐요 24
고싶네요 24
않네요@@ 24
봉 24
사용하려고 24
나긴하는데 24
작은것 24
같고.. 24
사이즈가좀@@ 24
배송정말@@ 24
아기 24
사세용 24
캔버스@@ 24
컨@@ 24
뜻 24
않아여 24
맘에드네요. 24
빠르고요 24
놓으니 24
보조@@ 24
병@@ 24
예쁘네요!! 24
묵직@@ 24
이...@@ 24
안펴@@ 24
분이라면 24
검수도 24
하내요 24
메리@@ 24
44 24
권 24
네요~~^^ 24
묶는 24
결과 24
시킨 24
안되있어서 24
2틀@@ 24
자주이용할@@ 24
더좋았을@@ 24
깜놀 24
좋고~ 24
추천해요! 24
마감이@@ 24
빠지면 24
168 24
가격대로 24
맘에들었@@ 24
족합니다 24
돠 24
딱!! 24
해보이지 24
저도@@ 24
힘들고 24
배송두@@ 24
웠어요 24
구입했어요~ 24
단순@@ 24
주위에서 24
휴가 24
다른것 24
가성비좋아요 24
싶음 24
갈때나 24
용~~^^ 24
전부터 24
블루가 24
와이프가 24
힘들 24
거리지 24
색으로@@ 24
하다보니 24
벌써@@ 24
지도않@@ 24
해줘야@@ 24
신경이 24
어정쩡하고 24
재구매했어요. 24
13@@ 24
놀랐네요 24
포장을 24
어울림 24
고민하다@@ 24
엄 24
안가서 24
멋스럽네요 24
사셔도 24
찾던중 24
배송되었@@ 24
다녀야 24
있고.. 24
바래요 24
다녀야@@ 24
너무예뻐서 24
좋네요~~^^ 24
어울리네요. 24
평도 24
배송이.. 24
아깝고 24
아쉬운게 24
짱짱하네요 24
편인거 24
️ 24
빨랐구요. 24
조만간 24
👍🏻👍🏻@@ 24
은게 24
가면서 24
그대로구요 24
좋아용^^ 24
짧아요..@@ 24
많이들 24
해주네요 24
쳐박아@@ 24
비쌈 24
포함@@ 24
네여^^ 24
빨랐어요@@ 24
네여... 24
립니다.@@ 24
검은색이 24
같아요~! 24
있긴@@ 24
3번@@ 24
에뻐요 24
고급스러워서 24
있도록 24
엽 24
하던데 24
돌렸는데 24
하구요.@@ 24
세탁기@@ 24
짱이@@ 24
톤다운@@ 24
바램@@ 24
기다렸다가 24
기대만큼 24
득템했@@ 24
느낌이에요@@ 24
빠른배송좋아요 24
게요~~ 24
개시@@ 24
것도아니고 24
씬 24
귀엽구 24
헐겁@@ 24
샵에서 24
좋을것같@@ 24
봄여름에 24
하였는데 24
샀는데요 24
싶었지만 24
올때 24
같구요@@ 24
너무이쁩니다 24
잘산듯@@ 24
즐@@ 24
같네용 24
오래걸려@@ 24
필요가 24
도좋고@@ 24
떨어집니다 24
싼거@@ 24
어용~ 24
2만원 24
워싱도 24
일어나네요 24
드네요.@@ 24
렴@@ 24
요일날 24
애용할@@ 24
싫어하는데 24
다른분들@@ 24
안좋아서 24
4개@@ 24
벗어@@ 24
생각했던것보다는 24
이뿌고@@ 24
편이네요. 24
기대하지 24
낙낙해서 24
주문하려@@ 24
들어요..@@ 24
cn@@ 24
rj@@ 24
dm@@ 24
품절되서 24
샀어요~@@ 24
구겨져 24
굽에 24
신음 24
딱맞음 24
보이는데@@ 24
새끼@@ 24
신다가 24
발바닥 24
편하네용 24
빠르네요~ 24
낄@@ 24
맨발로 24
깔창 24
편하긴해요 24
뒷부분 24
에나멜@@ 24
흰색에 24
믿고사는 24
죵 24
벨벳 24
이뻐요~~~@@ 24
잇어서@@ 24
먄 24
첨에는 24
는디 24
만족스럽진 24
까진@@ 24
애매합니다 24
예뽀요 24
하트@@ 24
네욤@@ 24
색보다 24
추울때는 24
이빠요 24
/75 24
잘입어서 24
입을때는 24
더라구요~@@ 24
입는다고 24
통에 24
그냥. 24
혹시@@ 24
블랙진@@ 24
끗@@ 24
안내도 24
연보라 24
그대로인데 24
다림질을 24
질을 24
몸을 24
시스루라 24
코디하니 24
라요 24
색상,@@ 24
입겠습니다@@ 24
보통이에요~ 24
내려와요 24
가려주고 24
보이네요@@ 24
입는거 24
배송느림@@ 24
정도입니다 24
팔꿈치@@ 24
영~ 24
그냥그래요~ 24
클로슈@@ 24
그대로이고 24
입으셔야 24
저렴한가격에@@ 24
몇번입으면 24
보들보들한 24
158에 24
득 24
하요 24
저냥@@ 24
가능할@@ 24
샀던@@ 24
잘맞아요. 24
루즈핏이 24
파임@@ 24
예쁘요 24
요즘입기 24
거가타@@ 24
잘입을듯@@ 24
비치지도 24
배송오@@ 24
짧아여 24
진거 24
죠.. 24
튼실@@ 24
오래걸려 24
것같기도@@ 24
핑크색도 24
티에요 24
머리카락@@ 24
입을까@@ 24
소재여서 24
주문했습니다 24
괜찮음. 24
백화점@@ 24
정전기@@ 24
세탁후@@ 24
털도@@ 24
잘입으께요 24
효과가 24
크신 24
eb@@ 24
쪽이@@ 24
쪄@@ 24
입어야할것같아요 24
보이네요.. 24
진않은데 24
요새@@ 24
랑같이@@ 24
43@@ 24
sy@@ 24
날씬하신@@ 24
작으신@@ 24
입어야할지 24
구. 24
깊게 24
지금입기에 24
괜찮아요~~~ 24
배가@@ 24
촥@@ 24
가능해요 24
인데. 24
짧아도 24
빈다 24
시보리 24
가치@@ 24
뽕이 24
마지막 24
재구매입니다 24
펑퍼짐하고 24
느낌..@@ 24
청남방@@ 24
세탁후에 24
했나봐@@ 24
찢어진 24
레이어드해서@@ 24
펑퍼짐해서 24
임산부라 24
만족하나 24
좋겠는데 24
제발 24
말대로 24
놨어요 24
미스 24
작으신 24
키크신분들은 24
입을수있을거같아요 24
으신분들은 24
뜯어져@@ 24
이쁜데... 24
구매했더니 24
왠@@ 24
아우터로 24
짱이네요 24
설명 24
뭐가@@ 24
정리 24
168에 24
정리해서 24
회 24
잘입을께요@@ 24
3월 24
단점 24
느린거@@ 24
입으려구요@@ 24
부해보여서 24
촌스럽고 24
그래용 24
남아요 24
커프@@ 24
실밥은 24
비칩니다 24
용~@@ 24
얇아요~ 24
상의가 24
책임@@ 24
옷재질도 24
도드라@@ 24
함... 24
sv@@ 24
옷걸@@ 24
리오더@@ 24
누렇@@ 24
한장 24
m사이즈@@ 24
찰랑거리는 24
혹시나@@ 24
시장@@ 24
저럭 24
짜증났@@ 24
한철입고 24
사야 24
쭈굴@@ 24
허리밴딩@@ 24
허리밴드가 24
아..@@ 24
발을 24
아주만족스러운제품이죵~♥ 24
신발이라 24
달랑@@ 23
달랑 23
곧@@ 23
열리@@ 23
둣 23
없고.. 23
그대로에요. 23
접착@@ 23
본드 23
빨랐구 23
그대로라 23
.너무 23
쓰면 23
소가죽@@ 23
칸이 23
꽂@@ 23
이모@@ 23
어용! 23
2장 23
작긴 23
훌륭해요 23
쓴 23
미가 23
크구요 23
개인적으로는 23
고급지고@@ 23
램 23
제품은@@ 23
^* 23
이뿜@@ 23
배송늦@@ 23
색깔이나 23
많이파세여 23
안하는데 23
품질에 23
서그런지 23
뉘@@ 23
스크래@@ 23
럿@@ 23
말아@@ 23
쵝오 23
꼼꼼하고 23
데일리백 23
두텁@@ 23
만족할@@ 23
갘@@ 23
저의 23
않아요! 23
예상은 23
방문@@ 23
인줄알고 23
좋구요.@@ 23
들려고 23
데일리룩@@ 23
대박나@@ 23
사려다가 23
물씬@@ 23
찝@@ 23
가격생각하면 23
모양이나 23
가방은@@ 23
좋아해서@@ 23
땀이 23
무척@@ 23
활@@ 23
착한가격 23
곰@@ 23
퀼리@@ 23
심합니다 23
하나쯤@@ 23
잡혀 23
했지만, 23
잘못해서 23
샀네요. 23
장점은 23
고급스러워보이고 23
고가 23
지하상가에서 23
딱좋아요. 23
멋져요 23
욜에 23
받았어요! 23
실망이 23
도.. 23
부담없고 23
L사이즈@@ 23
깔금@@ 23
만들어주@@ 23
여러가지로 23
그레이색 23
해주는 23
을듯@@ 23
될만큼 23
소지품 23
되네요~ 23
보통임 23
골드 23
될정도로 23
주변 23
사달라고 23
하단 23
나을 23
금새 23
예쁘다 23
물빠진 23
담아@@ 23
만만하게 23
탐내@@ 23
배송중@@ 23
꼬매서 23
품이랑 23
아요~@@ 23
어울립@@ 23
만족핮니다 23
작년 23
군 23
꺼에요 23
거니 23
않았지만@@ 23
모르겠네요. 23
해요.... 23
첫날 23
비비@@ 23
날라@@ 23
누르@@ 23
똑같아요! 23
써주시고 23
스웨이드라 23
편하니 23
예쁘네요..@@ 23
커버가 23
거에요. 23
상품평대로 23
구림 23
나올 23
💕 23
해주신 23
여러군데 23
이뻐요, 23
좋아요좋아요좋아요좋아요 23
할까봐 23
배송겁나@@ 23
색깔과 23
좋습니@@ 23
져도 23
했음@@ 23
그려@@ 23
자면 23
구겨져서@@ 23
지나니 23
안날@@ 23
4월 23
핑크에 23
옅은 23
., 23
있는줄 23
발랄@@ 23
스타일리쉬 23
고요, 23
재질이에요. 23
시즌@@ 23
훌륭합니다 23
가디건이나 23
닷@@ 23
함! 23
무게감 23
냄새가나서 23
딩 23
늘어짐이 23
마무리도 23
나무 23
용~~~ 23
나가 23
아까움 23
시장에서 23
하면서@@ 23
랗@@ 23
수선비가 23
것이@@ 23
스럽지 23
앞뒤로 23
두꺼운데 23
물건이@@ 23
아이템으로 23
코디도 23
있어보이고 23
니트라서 23
였고 23
닥 23
디쟌도 23
몰라 23
둥글@@ 23
하심 23
정도라 23
타사@@ 23
멀리@@ 23
은은하게 23
쩌@@ 23
겨울용 23
늦어진다고 23
긴한대 23
이곳에서 23
가격대비에 23
구매했어요~~ 23
없을것 23
둡@@ 23
여유롭게 23
버전 23
만보고 23
그래두@@ 23
밝게 23
ot@@ 23
sg@@ 23
세탁을@@ 23
기대했나봐요 23
후기도 23
있었고 23
빠른배송으로 23
더러@@ 23
하하하 23
???@@ 23
같지도 23
패턴 23
같어요 23
끄럽@@ 23
주말 23
공용@@ 23
작게나온듯 23
칼발이라 23
고급스럽고@@ 23
240인데 23
신다보니 23
딱맞고@@ 23
끊@@ 23
볼이@@ 23
^.@@ 23
바랍@@ 23
딱딱하고 23
된다@@ 23
아나@@ 23
등치@@ 23
산지는 23
아빠 23
겨울동안 23
목도@@ 23
넥이 23
가격대비괜찮아요 23
씻@@ 23
유행 23
못입는데 23
실루엣@@ 23
입었네요. 23
민트색 23
구입했네요 23
입을수있겠@@ 23
덮는@@ 23
간절기용으로 23
둡니다. 23
장난아니네요 23
포근하고 23
빠 23
남성@@ 23
풀려 23
저렴하니@@ 23
함도 23
차르르 23
맞는듯 23
엄청나@@ 23
포인트라 23
언발 23
추천합니당@@ 23
걸리긴 23
해주면 23
체격 23
퍼요 23
잘입을께요! 23
원피스와 23
값에 23
녜@@ 23
부드럽지 23
일듯@@ 23
강 23
땀흡@@ 23
부해보이는@@ 23
하객@@ 23
올리브@@ 23
모델같은 23
부위@@ 23
부분까지 23
쨍쨍@@ 23
라지가 23
보내 23
잠바 23
아니구요. 23
100~@@ 23
자주입게@@ 23
털날림 23
괸@@ 23
결혼식에 23
달까@@ 23
이신분들은 23
그냥그렇네요 23
색감이뻐요 23
품절로 23
랜 23
그렇진 23
안그래도 23
모르겠음 23
2주가 23
버려야 23
면.. 23
저한테@@ 23
팔부분도 23
하러@@ 23
11월@@ 23
사진만 23
한데..@@ 23
기두 23
장난아님 23
입고는 23
기장감이 23
외출복@@ 23
별루에@@ 23
줄었@@ 23
받앗는데 23
랄까 23
너무얇아요 23
장난아니게 23
비즈가 23
모르게 23
유난히 23
이렇@@ 23
가좀 23
자크 23
가려지@@ 23
그럭저럭이요 23
타사이트@@ 23
그렇구 23
민트 23
사과@@ 23
그냥...@@ 23
뻔했네요 23
없으@@ 23
아니었지만 23
그냥그@@ 23
할인해서 23
해요...@@ 23
175에 23
이쁜옷@@ 23
플리츠@@ 23
팔통@@ 23
화려해서 23
전이라 23
입은것 23
없는듯 23
한것도 23
시길@@ 23
램@@ 23
장마@@ 23
통통66@@ 23
찢어졌@@ 23
뜨네요 23
어깨뽕@@ 23
거같아요... 23
짜증나@@ 23
다행이@@ 23
오버핏도 23
이더@@ 23
시원합니다 23
풀림 23
입은거@@ 23
충전재가 23
따땃@@ 23
윤@@ 23
럭 23
였네요 23
됴@@ 23
마구 23
기다린보람@@ 23
구매했는데.. 23
엉망이@@ 23
셧@@ 23
스판기가@@ 23
뱃살도 23
입으려고샀는데 23
허리끈이 23
설명에 23
버튼이 23
늦는다는 23
안어울리네요 23
배송최악@@ 23
구겨지는 23
근처@@ 23
눈이 23
요....@@ 23
보내서 23
솜도 23
느리네요. 23
좋을듯합니다 23
어찌보면 23
옅은@@ 23
안되어있고 23
cm인데 23
갠츈@@ 23
어중간한 23
모자도 23
입기좋고 23
늦어질@@ 23
입을까 23
말은 23
어정쩡해서 23
린넨소재라 23
입어여 23
이라기 23
사람만 23
초가을까지 23
걸레@@ 23
구매하세요~ 23
사셔야@@ 23
줍니다. 23
강추요 23
미다 23
행 23
최악의 23
엉망이라 23
신상 23
느려여 23
부해요 23
아아 23
배송완전느림 23
하겠네요 23
결제 23
평균@@ 23
아버지 23
입히려고 23
가슴쪽 23
쓰레기 23
느려요... 23
받기까지 23
캉캉@@ 23
났네요 23
배송이너무 23
봉제선이 23
신게 23
허벅지도 23
허벅지랑 23
s @@ 23
양말신고@@ 23
키링@@ 22
감사해요^^ 22
접으면 22
포장도@@ 22
앙증@@ 22
..^^ 22
작고@@ 22
부드럽구 22
이것 22
문의했는데 22
바꿔서 22
밍@@ 22
군요. 22
흘러 22
없었으면 22
채도가 22
작았으면 22
감사하@@ 22
깔끔하니@@ 22
하네여@@ 22
서비스로 22
테두@@ 22
cy@@ 22
느낌이라서 22
사고싶었@@ 22
겸@@ 22
문의에 22
수있어 22
등에 22
잡힌@@ 22
캐쥬얼 22
학교 22
남자가 22
기능@@ 22
고~@@ 22
거울@@ 22
전화를 22
용으로는 22
구입할 22
카키로 22
바랜@@ 22
깔끔합니다. 22
지네요. 22
어쨋든 22
낭 22
고민중 22
반나@@ 22
학교@@ 22
배려@@ 22
생산@@ 22
프라@@ 22
크지않고 22
당겨@@ 22
보일까 22
다니다@@ 22
뿔@@ 22
망설이다 22
안되게 22
뜯어서 22
가격까지 22
아니에여 22
면으로 22
자연스럽고 22
튼튼해 22
한다는 22
했어용 22
산것같아요 22
손글씨 22
사진그대로예요 22
핮@@ 22
옷입고 22
없음@@ 22
강추합니다@@ 22
하네요~^^ 22
화면은 22
받아서@@ 22
하시네요. 22
갈라@@ 22
전인데 22
스타일입니다. 22
맘에들구 22
같은거@@ 22
고급져보이@@ 22
욘@@ 22
너무좋습니다 22
널널해서 22
좋은거같아요@@ 22
흐 22
느껴지네요 22
느므@@ 22
구매했네요. 22
크로스 22
하시기 22
마시고 22
대만족이에요 22
걸리는 22
마감이나 22
안정적@@ 22
하나도@@ 22
밋밋하지 22
요,@@ 22
봄되면 22
구매한거@@ 22
하긴하네요 22
편했어요 22
좋아유 22
선물했어요 22
없네요.@@ 22
편. 22
오우 22
저렴한맛에 22
비교해서 22
하느라 22
왔어요.. 22
하려 22
겠다@@ 22
그나마@@ 22
수있어요 22
다른곳 22
베이지인데 22
여전히 22
빨랐어요! 22
할때는 22
먀@@ 22
좋아요좋아요좋아요좋아요좋아요좋아요좋아요좋아요@@ 22
제거 22
보더니 22
안하는@@ 22
보이게@@ 22
그라@@ 22
어요;; 22
더라구요! 22
않네요.@@ 22
컷팅 22
안됐@@ 22
굿이@@ 22
게는 22
빤@@ 22
놓았@@ 22
한느낌이 22
시원해보여요 22
옷가게@@ 22
대에 22
불편하긴한데 22
사긴 22
여유있어요 22
거려요. 22
예요~~ 22
드는건 22
에요~@@ 22
100% 22
겨울용으로 22
소소@@ 22
좋아요!!@@ 22
달아서 22
헌@@ 22
시는게 22
모를@@ 22
어쩐@@ 22
왓는데 22
이벤트@@ 22
추천~ 22
놀랐지만 22
쪽지@@ 22
😁@@ 22
00원 22
길진 22
누런 22
블루는 22
성능@@ 22
안타고 22
이정도는 22
95 22
좋네요~~@@ 22
안돼서 22
개인적@@ 22
살게요 22
추천드립@@ 22
체형이라 22
적극추천해요 22
땜@@ 22
봤던@@ 22
사보@@ 22
크네용 22
묶어도 22
블랙,@@ 22
고급지게 22
해야지 22
생각했던거랑은 22
택배비@@ 22
단가@@ 22
나중@@ 22
한국@@ 22
있구요. 22
잘한거같아요 22
싼맛@@ 22
체형인데 22
찾으시@@ 22
너무나@@ 22
되서@@ 22
흠이@@ 22
멋스러워@@ 22
예쁠것같아요 22
드렸어요 22
맡기고 22
긍@@ 22
해보여요~ 22
있어야@@ 22
되요. 22
읍@@ 22
만족스럽습니다.@@ 22
처리는 22
다른데는 22
버 22
괜찮아요... 22
다르긴 22
회색으로 22
렸어요 22
구입하였@@ 22
랬는데 22
저렴한데@@ 22
느낌이예요. 22
최소 22
관계로 22
저렴해보이는 22
큰편이@@ 22
출 22
단체@@ 22
짜증나서 22
했나 22
사진이랑똑같아요 22
바닥은 22
판매자분께서 22
였지만 22
구매평대로 22
작년에@@ 22
서비스가 22
삭스@@ 22
신을께@@ 22
거짓@@ 22
기는한데 22
추워지@@ 22
넓으면 22
편안해서 22
정사이즈에요 22
넉넉하진 22
오후@@ 22
내여 22
벨@@ 22
한칫수 22
움직일때 22
대가 22
매년 22
그런대로@@ 22
착화@@ 22
대략 22
나는것 22
다른건@@ 22
잘샀어요@@ 22
하기에도 22
소매부분도 22
보드@@ 22
바스트@@ 22
기장감@@ 22
풀이 22
차가@@ 22
엿는데 22
양심@@ 22
자수는 22
뜯어졌@@ 22
가다@@ 22
텐데.. 22
모노타@@ 22
스커트에도 22
기본적으로 22
선도 22
빨고나니 22
엑스라지 22
동일합니다. 22
없다 22
좋은편은 22
너무길@@ 22
지않지만 22
입을수있어요 22
구입했어요@@ 22
입고나면 22
샀다고 22
혜@@ 22
얼른@@ 22
바이올렛 22
벗고 22
dg@@ 22
혹은 22
버렸네요 22
목을 22
픈@@ 22
티셔츠를 22
팔부분@@ 22
환절기@@ 22
너무늦게@@ 22
배도 22
쇄골@@ 22
컬러나 22
차분하고 22
셔츠나 22
손세탁@@ 22
비춰@@ 22
잘입겟@@ 22
길어도 22
팔이랑 22
커플로@@ 22
보풀만 22
머리 22
두꺼워서@@ 22
따뜻하기도 22
입을지 22
이쁘겠어요 22
최곱@@ 22
펑퍼짐 22
춘@@ 22
해야겠네요 22
구매평도 22
마지막@@ 22
서...@@ 22
얇지는 22
괜찮고, 22
치마바지 22
심합니다. 22
재질을 22
조차 22
날씨에@@ 22
보입니다.@@ 22
착장@@ 22
조직@@ 22
거같기도하고 22
66사이즈인데 22
언제나 22
타이트하네요. 22
없다@@ 22
괜찮았는데 22
재질입니다. 22
난방@@ 22
산듯 22
비춰서 22
ev@@ 22
구겨지고 22
oo@@ 22
받은거 22
박스티@@ 22
몸통은 22
옷이너무@@ 22
떨어지지만 22
감을 22
결혼식때 22
허리도@@ 22
핏두 22
알았지만 22
잘입겠습니다@@ 22
v 22
넓어보이@@ 22
걸려요 22
기장감 22
네이비색 22
놈@@ 22
너~무 22
저만@@ 22
더더욱 22
입어야될듯 22
브이넥이라 22
도록@@ 22
핏의 22
아니고, 22
인거@@ 22
최근 22
55-@@ 22
입을라구요 22
갠찮고 22
-- 22
@@@@ 22
괜찮구요@@ 22
별로임@@ 22
살랑살랑 22
골 22
보통이에요. 22
입은지 22
일회용 22
^^;;; 22
오네요. 22
입고있습니다 22
목부분에 22
얼굴을 22
하늘하늘한 22
이쁘지는 22
땃@@ 22
가격만큼은 22
보이는거@@ 22
는.. 22
섬@@ 22
똑같음 22
토끼@@ 22
가격대로@@ 22
유니클로@@ 22
자켓이랑 22
많이커요 22
터지고 22
일트 22
으요 22
기대만큼은 22
쉬폰 22
턱@@ 22
시원할 22
빵빵하고 22
1주일 22
벨트로 22
못입었어요 22
앞부분 22
차콜은 22
녹색@@ 22
얇구요 22
자세@@ 22
있지만, 22
편합니다.@@ 22
벚@@ 22
비추합니다 22
괜찮을듯@@ 22
인터넷쇼핑@@ 22
실수로 22
허리띠@@ 22
큼. 22
사긴했는데 22
162 22
팔부분은 22
카키는 22
긴거@@ 22
잘입겠습니다~ 22
지퍼부분 22
두깨감이 22
안통@@ 22
파스텔 22
살을@@ 22
색샀는데 22
뒤집어@@ 22
우글@@ 22
있을지 22
77 22
어딘가 22
받자마자@@ 22
매우만족 22
연청도 22
허접 22
환불하기 22
살빼@@ 22
밑단은 22
값어치@@ 22
안좋고 22
배송기간 22
엉망입니다 22
이런식으로 22
옷은예쁜데 22
비추.. 22
탱@@ 22
그럭 22
입지못@@ 22
안올라@@ 22
그러니 22
고무줄도 22
신축성좋고 22
좋지않@@ 22
뺏@@ 22
그저그렇네요 22
겠음 22
만하고 22
사니까 22
eh@@ 22
실측 22
해봐야 22
배에 22
체형에 22
있으신@@ 22
모델보다 22
로브 22
166인데 22
잘랐@@ 22
가서@@ 22
다음부턴 22
예쁜데.. 22
말았@@ 22
별로예요.. 22
밑위길이가 22
무릎도 22
쫄바지@@ 22
26~@@ 22
부츠컷이라 22
조아조아조아조아조아조아조아조아@@ 22
점프슈트 22
허벅@@ 22
라쿤 22
j @@ 22
롱부츠 22
딱딱해요 22
기여@@ 21
산건@@ 21
지갑이 21
예상보다 21
되구요 21
도잘@@ 21
씁@@ 21
충전@@ 21
생일 21
콤@@ 21
분들에겐 21
한감이 21
슬림하고 21
네요~^^@@ 21
큰거같@@ 21
오후에 21
친구에게 21
좋았습니다@@ 21
더욱더 21
미니 21
해주셨고 21
될지 21
늦어요. 21
빠르구@@ 21
우려@@ 21
잘되서 21
또는 21
자유@@ 21
않아요~@@ 21
드렷@@ 21
쩜@@ 21
었습니다. 21
봤던 21
비슷하게 21
예뻐요, 21
모양을 21
디테일 21
오래오래 21
혼자 21
운동 21
거리는게 21
1박@@ 21
작성 21
얇아보이고 21
만족스럽네요. 21
판에 21
사진으론 21
들어도 21
살짝만 21
좋았을걸 21
빳@@ 21
받음. 21
방법@@ 21
어우@@ 21
고급지네요 21
** 21
포 21
일것 21
뒀는데 21
배송됐@@ 21
펀@@ 21
된게 21
예쁨니다 21
것같아요..@@ 21
~.@@ 21
사이드@@ 21
50자 21
탈취제 21
이뿌요 21
마음에들어요! 21
친절하셨@@ 21
가성비갑 21
토 21
잘쓰고@@ 21
무겁긴한데 21
마음에들어요. 21
좋아라@@ 21
다보면 21
날려요 21
익숙@@ 21
똑같아용 21
자로 21
다만.. 21
확정 21
들과 21
데는 21
이제품은 21
잘들고 21
딱이예@@ 21
비슷 21
아쉽네여 21
않았습니다. 21
주변에서도 21
배송해주셔서 21
딱인@@ 21
괜찮은거같@@ 21
보는그대로@@ 21
가성비갑@@ 21
..! 21
도로 21
같다@@ 21
아쉬워요@@ 21
꺼랑 21
44~@@ 21
졋어요 21
T 21
놔두@@ 21
들고다녀요 21
박음질은 21
거림이 21
다녔습니다 21
예요^^ 21
굿이네요 21
예뻐요예뻐요 21
넣기도 21
다는걸 21
거리 21
단점이라면 21
가네요. 21
해선 21
텀블러@@ 21
재질좋고 21
너무예뻐요@@ 21
고급스럽지 21
허허 21
있기는 21
해야하나.. 21
가격대비해서 21
담배@@ 21
커보여서 21
던것 21
뎌@@ 21
프린팅 21
찌그러@@ 21
축축@@ 21
추천합니다^^ 21
요!!@@ 21
강추!!! 21
북@@ 21
털어@@ 21
천으로 21
색이면 21
더러워@@ 21
했는대 21
여성스러워서 21
좋았을거같아요 21
물에 21
느낌보다는 21
줬네요 21
가까운데 21
덩 21
예용 21
어울려요~ 21
듭니다!! 21
빈티@@ 21
솟@@ 21
주기@@ 21
사진상으론 21
하더니 21
너무얇아서 21
의향@@ 21
아쉬움은 21
살거@@ 21
함을 21
찰떡@@ 21
높아요 21
할수있어서 21
안들고 21
베이지색이@@ 21
몽@@ 21
맥@@ 21
갇@@ 21
타사이트에서 21
힘들듯 21
빴@@ 21
볼때@@ 21
황@@ 21
프네요 21
배송이느림 21
빠집니다 21
데이@@ 21
할인 21
올게요 21
낙@@ 21
실들이 21
-_-@@ 21
예뻐요... 21
따라서 21
이틀정도 21
것에 21
가타요 21
하라@@ 21
깡@@ 21
도트@@ 21
다고하네요 21
좋아요굿굿 21
마자 21
얇은거@@ 21
아니네요.@@ 21
과정에서 21
무난함 21
좋고,@@ 21
작아요.. 21
걱정은 21
척 21
검수좀 21
직구@@ 21
심한데 21
상품입니다 21
고급져서 21
이물@@ 21
업체 21
남깁니다 21
받아본 21
것같아요!! 21
한철용@@ 21
완료@@ 21
5월@@ 21
넘편하고 21
애매합니다. 21
해져요 21
좋겠습니다. 21
갈수록 21
몇번을 21
이뽀여 21
그런것 21
마감처리는 21
예쁜것같아요 21
답장@@ 21
잘모르겠어요 21
시키니까 21
돟@@ 21
파 21
것같아요~~@@ 21
번호@@ 21
따뜻해 21
다르겠지만 21
받기 21
....그냥 21
맘에들구요 21
사전에 21
어머@@ 21
낌@@ 21
예요.. 21
3만원 21
짧으면 21
아무런 21
여러분 21
물량이 21
단점이@@ 21
예뿌네요 21
느렸지만@@ 21
실밥정리@@ 21
광택도 21
바꿨@@ 21
벅@@ 21
결론은 21
생각하시고 21
밋밋한 21
그동안 21
cl@@ 21
놀랏@@ 21
기대이하 21
구매에 21
가격만큼입니다. 21
롱한 21
달래서 21
촌스러워@@ 21
해야겟@@ 21
가을이 21
색깔두 21
..근데 21
wa@@ 21
내기 21
앞코 21
편하네요@@ 21
쿠션감도 21
굽은 21
구매의사@@ 21
235인데 21
나온듯@@ 21
있네용 21
다른사이트에서 21
신엇@@ 21
사무실 21
하곤 21
신으면@@ 21
미끄러울@@ 21
추천추천@@ 21
갠찬네요 21
고급스러워요. 21
\@@ 21
바요 21
디피@@ 21
뿜 21
겨울은 21
167 21
좋으면 21
조하요 21
으나, 21
깔끔하구 21
목라인이 21
거같아요..@@ 21
창피@@ 21
나보@@ 21
필요없이 21
개월@@ 21
가슴부분 21
찮 21
꾸민@@ 21
디자인이고 21
파랑 21
잘입구 21
줍니다 21
플레어 21
이뻐염 21
신랑이@@ 21
긴편@@ 21
벙벙해요 21
주머니가@@ 21
진짜로 21
수술이 21
1개@@ 21
안에다 21
입어야함 21
178에 21
섹시한 21
네크라인이 21
매치하면 21
재단@@ 21
174 21
나시에 21
등은 21
주문했어요@@ 21
블랙만 21
구매하겠습니다 21
답답하고 21
엄청크네요 21
따뜻하진 21
사진에선 21
튼 21
소재특성상 21
세탁해서@@ 21
빨라용 21
늦었어요. 21
3-@@ 21
담에도 21
보온성 21
생각입니다 21
밝은색@@ 21
이라기보단 21
날씬해보여요. 21
괜찬습니다 21
확인후 21
부해보임 21
모델분은 21
잇 21
팔길이@@ 21
만약 21
않네요... 21
왔네요.. 21
어마어마하게 21
완전이쁘네요 21
이뿌네요@@ 21
있는분들은 21
엄마랑 21
박음@@ 21
안된다@@ 21
사는거@@ 21
찾기@@ 21
놀람 21
쫀쫀한데 21
뭇@@ 21
냐고@@ 21
어중간해요 21
날려@@ 21
것빼곤 21
묶고 21
주문한거@@ 21
부해보이긴 21
위에도 21
던데.. 21
아니네요~ 21
아니에요~ 21
안아요 21
간지러@@ 21
인듯.. 21
왔어요~ 21
올드@@ 21
슨@@ 21
서로 21
브이@@ 21
할듯합니다 21
바이올렛@@ 21
고민중입니다 21
추위를 21
큰감이@@ 21
예뿐@@ 21
꾸민듯 21
한개는 21
튀어 21
재질이지만 21
입어야겠어요@@ 21
입어본 21
얇네요. 21
빨리왔고 21
불편함없이 21
나시랑 21
요~~~@@ 21
코드@@ 21
민소매 21
와이셔츠 21
신축성은@@ 21
지금입기는 21
얇아여 21
라이더@@ 21
ri@@ 21
입으세요@@ 21
재주문@@ 21
마네@@ 21
따뜻해용 21
풀려요 21
요런@@ 21
뒤쪽에 21
줄려고 21
에휴 21
맹@@ 21
되어있네요 21
동료@@ 21
제값@@ 21
네오프@@ 21
부담스러워서 21
넓네요 21
안입어봤지만 21
퍼져@@ 21
내려서 21
되는게 21
잘입을께여 21
주문폭주@@ 21
xn@@ 21
최근에 21
않은듯 21
분들한테 21
체크가 21
패딩을 21
그런듯 21
루즈 21
질에 21
수영복@@ 21
에어컨@@ 21
통풍이 21
재질이예요 21
동일한 21
대신@@ 21
인지라 21
하루입고 21
예요~@@ 21
즘 21
늦는다 21
163 21
짐.. 21
싼티나서 21
있었습니다. 21
모델핏은@@ 21
이라지만 21
적게 21
찍어서 21
시접@@ 21
맞구 21
상품입니다. 21
입고나서 21
뺄@@ 21
지않으면 21
에서만 21
찢어져 21
2월 21
178 21
흠이네요 21
다릅@@ 21
건가요 21
작을까 21
슬랙스는 21
안좋음 21
일교차 21
동안@@ 21
슬라@@ 21
불가능@@ 21
패드 21
벨트도 21
기냥@@ 21
신었어요 21
빵 21
26사이즈 21
그거말고는 21
정사이즈는 21
허벅지에 21
롱코트@@ 21
신었더니 21
될것같아요. 20
함과 20
더이상 20
살펴@@ 20
입니당. 20
사진대로 20
잘쓰겠습니다 20
랍니다. 20
산뜻하고 20
만드는 20
휴대@@ 20
덤@@ 20
배송이넘@@ 20
좋았구요. 20
구석@@ 20
아쉽긴한데 20
햇으면 20
용이 20
아울@@ 20
너어어@@ 20
왠만@@ 20
가성비도 20
둠@@ 20
출장@@ 20
써도 20
좋은듯해요 20
도움이 20
포켓 20
무난한듯 20
빨랏고 20
다닐거같아요 20
라기가 20
터리 20
추천합니다!! 20
많이는 20
답니다@@ 20
무거운거 20
빠르구요. 20
실용적이고 20
작지 20
이곳저곳 20
보람 20
무너@@ 20
매는 20
분의 20
구분@@ 20
덕지@@ 20
손잡이@@ 20
몰랐어요 20
있어요!! 20
곡@@ 20
심하진 20
스타일입니다 20
이라니@@ 20
어깨끈@@ 20
괜찮을것같아요 20
우는 20
쓸려고 20
여기가@@ 20
윗부분이 20
예쁩니다!! 20
도이쁘고 20
흐물거리지 20
배송료@@ 20
느껴지는 20
화려한 20
급하게@@ 20
후크가 20
찾아 20
심하긴 20
똑같아@@ 20
빅사이즈 20
착용하면 20
근처 20
신혼@@ 20
고급스러워보여요 20
햇는데@@ 20
넉넉하고@@ 20
바빠서 20
답변이 20
싶을정도로 20
매끈@@ 20
귀여워요! 20
제주@@ 20
없겠@@ 20
생각햇던거@@ 20
지리@@ 20
용으로@@ 20
나름대로 20
제품보다 20
하고싶네요 20
받았어요~@@ 20
마음에들@@ 20
각보다 20
번도 20
가성비대비 20
좋아요오 20
오오오@@ 20
사진빨 20
무게감이@@ 20
가볍구요 20
듦@@ 20
잡혀요 20
한것같아요 20
꼈@@ 20
가. 20
백이 20
그레이라 20
스타일리쉬하게 20
고민해보@@ 20
수있는@@ 20
무료배송 20
늦어지면 20
모카@@ 20
배송와서 20
네유 20
빅사이즈@@ 20
하라고 20
라지로 20
너므@@ 20
다녀요~ 20
생각했던대로@@ 20
한동안 20
다른사이트@@ 20
어쩌지 20
딱이에요@@ 20
받고보니 20
분들이@@ 20
득템한 20
실망했@@ 20
곳을 20
좋아여~~ 20
다녔어요. 20
다니네요 20
나왓어요 20
두배@@ 20
♥♥@@ 20
고민했지만 20
지나 20
구매하였습니다. 20
않을것 20
좋긴 20
셔링이 20
다녓@@ 20
격이 20
자는 20
많은데@@ 20
귀여워요~~ 20
쓰고@@ 20
저렴한가격@@ 20
생각에 20
용~^^ 20
구매해도 20
골랐는데 20
웠지만 20
소지@@ 20
면에서는 20
있을때 20
싸이트@@ 20
예뻤어요 20
하지않은 20
털고 20
사시길@@ 20
소재와 20
있을까 20
해보이고@@ 20
잇어@@ 20
이쁜거@@ 20
맞게@@ 20
같아요!!! 20
안빠지고 20
산것@@ 20
같긴해요 20
라탄@@ 20
염색@@ 20
검색하다 20
아무것도 20
가늘@@ 20
맘에들지만 20
실망스러워요 20
사탕@@ 20
이뻐여~ 20
닿는@@ 20
실망했는데 20
마구@@ 20
정리하고 20
색상, 20
저럼@@ 20
했으면@@ 20
법 20
한대로 20
최고!! 20
좋을것같아요. 20
조은@@ 20
바쁘@@ 20
겹쳐서 20
역시나@@ 20
높이가 20
저가 20
꼼@@ 20
울이 20
잘한것 20
선명하고 20
게되@@ 20
듭니@@ 20
네용^^ 20
길지않아서 20
있었다면 20
스팽@@ 20
빠르나 20
구매하는@@ 20
옙@@ 20
이뻤을@@ 20
화려해요 20
조아요!! 20
꺼같아여 20
주문해 20
강추입니다. 20
다른곳은 20
탄탄하니 20
구매의사 20
같네요^^ 20
조쿠@@ 20
합니다~^^ 20
좋았어요^^ 20
사장@@ 20
너무심해요 20
생김 20
싶기도 20
분들에게는 20
20일@@ 20
떨어지지 20
들진 20
인기 20
나가도 20
여러개@@ 20
안빠져요 20
상도 20
수제@@ 20
소요@@ 20
요;; 20
파는거 20
배송빨랐어요 20
좋아보이고 20
보통이었@@ 20
얘는 20
조은데 20
색? 20
내용 20
패스@@ 20
실물과 20
착각@@ 20
사시는 20
살까말까@@ 20
❤️❤️@@ 20
티도@@ 20
청록색 20
온다고 20
감사해요. 20
편해 20
미끄럼방@@ 20
네요,, 20
신을만해요 20
운거 20
맨들@@ 20
딱딱하지 20
신고벗기 20
가보시가 20
키도@@ 20
230으로 20
동봉@@ 20
아라@@ 20
코가 20
구두를 20
신기에는 20
힘들어요. 20
잘맞아요~ 20
주에 20
게시@@ 20
뷴@@ 20
는데요. 20
볼땐 20
하더라구요. 20
경향이 20
아니나 20
핏되고 20
폴라티@@ 20
쫀쫀한@@ 20
할껄 20
가격두 20
보통이에요@@ 20
원플@@ 20
뿜@@ 20
정도에요. 20
핏하게 20
추천하지 20
스키니에 20
늘어난 20
폴리 20
범@@ 20
핏되서 20
완존 20
입엇어요 20
공주@@ 20
잘입엇@@ 20
2주정도 20
겨자색 20
임부@@ 20
하나입고 20
입어질것 20
오버 20
아닙니다.@@ 20
입었던 20
노랑이 20
훌륭한 20
좋은데... 20
입고싶어서 20
반하이@@ 20
짧긴@@ 20
욬 20
어울리지 20
인생 20
나왔네요. 20
섹시하고 20
켜@@ 20
어깨를 20
들어요~~@@ 20
오버핏이네요 20
감촉도 20
춘 20
남겨요 20
해서. 20
키크@@ 20
입어야할것 20
파임도 20
잘사서 20
날풀리면 20
끝단 20
오피스룩으로 20
어느정도@@ 20
단정하게 20
배색도 20
나은듯 20
훌륭합니다. 20
낮에는 20
묻어요 20
배송기간@@ 20
오래걸렸어요. 20
흰바지에 20
입어보고@@ 20
타이트함 20
빠릅니다@@ 20
돈아깝@@ 20
불편한건 20
늘어나지도 20
패딩안에 20
욱 20
선을 20
세탁하니까 20
런지 20
득템했어요 20
연하네요 20
만족합니다~~@@ 20
잘어울리네요. 20
시켜도 20
디게 20
입기좋음 20
아웃@@ 20
구래@@ 20
이쁠꺼 20
있으시면 20
날씬해야 20
들어요.. 20
안이쁜@@ 20
살쪄@@ 20
구매하면 20
66반 20
이런게 20
넘커요 20
넥라인@@ 20
마음에들어서 20
제이@@ 20
빛나는 20
드러나@@ 20
받았습니당 20
같아요.... 20
해달라@@ 20
분들한테는 20
맞을것 20
if@@ 20
막입고 20
길긴@@ 20
가.@@ 20
귯@@ 20
그냥그러@@ 20
뭐지 20
총기장이 20
터졌@@ 20
킬로@@ 20
잘록@@ 20
두껍지않아서 20
플라워@@ 20
세트로@@ 20
이런걸 20
가릴@@ 20
싼티나네요 20
여름이 20
이옷을 20
모습이 20
길어보이는 20
라니 20
신경좀 20
기두@@ 20
늦어졌@@ 20
가디건이@@ 20
핏되게 20
사이즈, 20
닝 20
하긴한데@@ 20
못입을거같아요 20
인듯... 20
44사이즈 20
소재입니다. 20
리본도 20
발생@@ 20
겻@@ 20
입으려구여 20
잘맞아서 20
해요, 20
키가작아서@@ 20
바느질해서 20
스타@@ 20
촌스러워 20
타이 20
기다렸어요. 20
가봐요 20
두께에 20
입으려구@@ 20
몇번입고 20
줬어요. 20
샀음 20
우리 20
삘@@ 20
두꺼울@@ 20
구입했는데, 20
44반 20
너무길어요 20
다소@@ 20
걸치려고 20
좋은것같아요~ 20
키론데 20
생각보다는.. 20
얇아용 20
아직입어보진@@ 20
158 20
입겠어요. 20
162인데 20
무릎까지@@ 20
분은@@ 20
잘못온@@ 20
길이며 20
경량 20
넉넉해요. 20
주름은 20
아님.. 20
나옴@@ 20
작은데도 20
입을수있을꺼같아요 20
남는 20
느렸습니다. 20
상세 20
수선집에 20
조마@@ 20
빤짝@@ 20
입어봣는데 20
허접해요 20
인걸 20
일주일넘게 20
영~~ 20
::@@ 20
약간은 20
5000원@@ 20
완성@@ 20
입어용 20
서늘@@ 20
싼마이@@ 20
아닌것같아요 20
싼게비지떡@@ 20
2주나 20
아니다 20
재단이 20
말로 20
반품하고싶은데 20
택을 20
★@@ 20
처럼은 20
입을수잇@@ 20
입었지만 20
목둘레가 20
164 20
추천해용 20
소라색도 20
쩝@@ 20
사자마자 20
100프로@@ 20
스판성@@ 20
끼네요. 20
버렷@@ 20
입겠지만 20
175/6@@ 20
좋아요좋아@@ 20
75 20
rh@@ 20
오버핏이라서 20
아버@@ 20
85@@ 20
작업복으로 20
참고하시길 20
사세요~ 20
9월@@ 20
잘맞구요 20
첫번째 20
작은거@@ 20
51@@ 20
께는 20
날엔 20
배부분이 20
동네에서 20
아니고.. 20
스틸레@@ 20
홈웨어@@ 20
면은@@ 20
늘어나 20
골반에 20
잘받았습니다잘받았습니다@@ 20
잡아주네요 20
둘째치고 20
몸매를 20
단화@@ 20
신어도@@ 20
바지처럼 20
인생바지 20
시켰는데도 20
속치마 20
사쥬 20
발목까지@@ 20
기다린게 20
불편했어요 20
조거@@ 20
235-@@ 20
245로 20
못신을@@ 20
신었을 20
그냥그냥그냥 20
정성스럽게 19
포장해서 19
딱이에요! 19
귀여운데 19
신중하게 19
되고, 19
흠이라면 19
자리에 19
좋구요, 19
:D 19
했는데요 19
좋았을것같아요 19
음....@@ 19
필요한@@ 19
딸아이@@ 19
코발트@@ 19
맘에듭니다^^ 19
일부@@ 19
gi@@ 19
대만족이@@ 19
낡@@ 19
맘에들어하네요 19
남녀@@ 19
친절하게@@ 19
생각보다커요 19
손잡@@ 19
픽@@ 19
스포@@ 19
렛@@ 19
비교해도 19
스카@@ 19
련 19
너무너무너무너무 19
옆에서 19
였습니다. 19
번창 19
전공@@ 19
더라구요... 19
다른분 19
만족한 19
매도 19
반짝이@@ 19
맘에는 19
작아도 19
들어요~~~ 19
해요~~~ 19
득탬@@ 19
삿더니 19
나긴@@ 19
했는데,@@ 19
오징@@ 19
심플하면서 19
안에가 19
흐물흐물한 19
얻@@ 19
가끔@@ 19
편하네요^^ 19
아니네요... 19
좋아요:) 19
을까봐 19
구매한지는 19
회색이@@ 19
가벼워요. 19
감사하고 19
제품이네요 19
스타일이예요 19
안나요. 19
양쪽이 19
정도는@@ 19
애초에 19
뚝 19
매우만족@@ 19
지나도 19
안빠져서 19
야하나 19
좋아하시네요 19
보이지않고 19
검색해서 19
편하면서 19
스크레@@ 19
정보 19
끈조절@@ 19
얌전@@ 19
많이들어가@@ 19
부는 19
거래처@@ 19
문안하게 19
보스@@ 19
턴@@ 19
길에 19
젊@@ 19
잘해주시고 19
짱짱!! 19
BEST 19
왔다@@ 19
카모@@ 19
아깝지 19
놀랐습니다. 19
그렇지는 19
안쓰는데 19
감사해용@@ 19
있고..@@ 19
여자친구 19
궈@@ 19
저거 19
스니커@@ 19
외출용으로 19
면서@@ 19
조심조심 19
다녀요. 19
우면서도 19
블링블링하네요 19
포인트로@@ 19
반짝반짝@@ 19
약한 19
아쉬운점이 19
번째@@ 19
다신@@ 19
판매자는 19
였습니다 19
달아주@@ 19
활용 19
고양@@ 19
중인데 19
하나하나 19
여...@@ 19
추천하고싶@@ 19
꾸준히 19
했을텐데 19
발견하고 19
번갈아 19
거기에 19
비추요 19
싶었는데@@ 19
완전완전 19
~!!@@ 19
만족입니다@@ 19
에쁘@@ 19
러블리 19
다니기에는 19
처음에@@ 19
흑흑 19
상큼하고 19
안되어서 19
캐주얼한 19
자체가@@ 19
만독@@ 19
중이에요 19
니다...@@ 19
다지만 19
하겠는데 19
색상도이쁘고 19
맘에듭니다! 19
댓@@ 19
얇아요.@@ 19
좋았어요.@@ 19
조절 19
흘러내리지 19
제로 19
황 19
어려울 19
통풍@@ 19
이쁘니까 19
1.@@ 19
10월@@ 19
타고 19
있어요... 19
출고 19
좋은데..@@ 19
보통입니당 19
수건@@ 19
이쁘구요. 19
섭@@ 19
있을까@@ 19
글씨@@ 19
하얘@@ 19
느낄@@ 19
두께감도@@ 19
기간에 19
원햇는데 19
친절해요 19
일주@@ 19
대요. 19
좋겠어요@@ 19
별로네요... 19
괜찮아요~~@@ 19
자가 19
♥@@ 19
미디움 19
흔치@@ 19
저로@@ 19
남깁니다. 19
냄새때문에 19
딱봐도 19
별로예요@@ 19
씁니다. 19
탈부착 19
걱정을 19
그점이 19
지.@@ 19
만적@@ 19
가깝습니다 19
걱정했는데, 19
오는데 19
깡패 19
만족스러워용 19
98@@ 19
겐@@ 19
느린것 19
연해서 19
구매한것 19
멀쩡@@ 19
언 19
느껴질@@ 19
구매했는데..@@ 19
채워@@ 19
비오는날 19
카키색으로 19
겹 19
이하도 19
좋게@@ 19
만족입니당 19
예쁜듯 19
령@@ 19
에요~~ 19
은.. 19
거든요@@ 19
움직@@ 19
습니당~ 19
거기서 19
무난하@@ 19
^^!! 19
뒤쪽이 19
었습니다 19
이쁘네요~~~ 19
수준으로 19
보이기는 19
택배는 19
넘이쁘네요 19
라해서 19
심함. 19
상처@@ 19
수잇을@@ 19
스레 19
문의글@@ 19
나갔더니 19
좋을거같아요@@ 19
있습니다! 19
이뻐욤@@ 19
유행타@@ 19
사진상과 19
아프네요. 19
폭도 19
우우@@ 19
임신중이라 19
오래걸려요 19
어쨌든 19
는안@@ 19
te@@ 19
에뻐@@ 19
받았을때는 19
늘어짐@@ 19
됐네요 19
쇼 19
꺼같아요. 19
보기에도 19
톤다운 19
다음에또@@ 19
일줄알았는데 19
많은지 19
문의했더니 19
수있@@ 19
테 19
같은데.. 19
보세 19
반품하고싶@@ 19
배송빠르구 19
천이@@ 19
발목도 19
하며@@ 19
신기엔 19
키높이@@ 19
큰걸@@ 19
요청 19
남자친구도 19
럽게 19
설 19
배송이조금@@ 19
빠른배송은 19
맨발@@ 19
신어 19
이뿝니다 19
발등부분이 19
맞는것 19
걸렷지만 19
슈즈 19
밑창도 19
쿠션도 19
여~~~ 19
좋은물건 19
감사드리@@ 19
편이어서 19
정사이즈라 19
을꺼@@ 19
너무편하고@@ 19
화면그대로에요 19
레더@@ 19
아픕@@ 19
신고있어요 19
235로 19
편하지 19
입니다...@@ 19
교환하려다가 19
부들하고 19
통통해서 19
기장과 19
잘받아@@ 19
예뻐보여요 19
옆부분이 19
은은하고 19
원플원@@ 19
샀는지 19
구스@@ 19
후회되네요 19
어째@@ 19
먹색 19
크신@@ 19
핏, 19
생각대로 19
초겨울에 19
감촉@@ 19
네요!!@@ 19
살도 19
지만.... 19
쇼핑윈@@ 19
라기 19
뒤집어서 19
입고나갔는데 19
팔목 19
석유냄새가 19
M사이즈@@ 19
배송굿 19
팔부분에 19
보플 19
꽈@@ 19
감촉이 19
까슬 19
입혔@@ 19
입으신@@ 19
매우좋아요 19
강조@@ 19
돌 19
가격에비해@@ 19
스킨색 19
보온성이 19
나시티 19
긴한데..@@ 19
너무큼 19
겠 19
오트밀@@ 19
나다 19
176 19
옷은이쁨 19
냐에 19
만삭@@ 19
곤란@@ 19
날씬해보임 19
음~ 19
~~!@@ 19
색상인데 19
줄무늬@@ 19
효과도 19
할수도 19
가려줘서 19
아닌지 19
시큼한 19
형편@@ 19
is 19
베이지샀는데 19
구입하려@@ 19
털은@@ 19
선명한 19
그외에는 19
세상에 19
빨간 19
비친@@ 19
짧은건 19
펑펑@@ 19
1월 19
느렸습니다 19
갔다@@ 19
기름 19
재질이네요. 19
나았@@ 19
안생기고 19
잘입고잇어요 19
까맣@@ 19
맡겨서 19
받쳐입으면 19
이정도면@@ 19
잘한듯 19
일어나면 19
빠르지 19
면바지@@ 19
날씬해보이네요 19
뒷쪽 19
175/7@@ 19
지난번 19
않을까@@ 19
같습니당 19
지두 19
구..@@ 19
해지는 19
비록 19
완전별로 19
팔도@@ 19
ro@@ 19
실망했어요. 19
가오리 19
평가@@ 19
착용샷@@ 19
너무짧@@ 19
편이예요. 19
74@@ 19
맞지만 19
얇지도않고 19
어용^^ 19
리닝@@ 19
아쉬웠는데 19
63@@ 19
별로인 19
딱일듯 19
진않아서 19
예쁘네요~^^ 19
쬐끔 19
편이여서 19
잘입으면 19
옷만@@ 19
벙벙하고 19
길긴하지만 19
몀 19
자주이용@@ 19
입을께요^^ 19
비춰요 19
있으니까 19
]@@ 19
맡겼어요 19
그럼에도 19
전에는 19
화이트색상 19
이불@@ 19
배송온@@ 19
씹@@ 19
소식@@ 19
고객센@@ 19
못입을것같아요 19
두툼한@@ 19
뚱뚱한 19
샤랄라 19
이쁘더라구요 19
속옷은 19
교환하면 19
알았네요 19
핑크에요 19
속상하네요 19
의견@@ 19
날씬해보이는@@ 19
따뜻할 19
구멍나@@ 19
이지@@ 19
살다살다 19
보이는거랑 19
얇아요... 19
몸집이 19
적어도 19
아리 19
열자마자 19
인가요 19
껴입고 19
안녕하세요@@ 19
폭스@@ 19
떨어져서@@ 19
좋겟네요 19
잘입을듯해요 19
선에 19
흘러내리는 19
실밥정리가 19
오구요 19
쁠@@ 19
키작@@ 19
깃이 19
…@@ 19
마니마니@@ 19
셔츠로 19
구매하였습니다 19
소재이@@ 19
추울땐 19
네오플@@ 19
부러@@ 19
입든 19
입을만해여 19
그냥그럭저럭 19
구매해서@@ 19
이음새@@ 19
고무줄로 19
네요!!! 19
옷이뻐요 19
or@@ 19
기본스타일 19
격식@@ 19
엷@@ 19
치마안에 19
짜증이 19
입자@@ 19
세탁하고@@ 19
배송기간은 19
진청도 19
상당히@@ 19
통풍도 19
걷어 19
뒤로@@ 19
입는게@@ 19
맨투맨이나 19
값이 19
싸니까@@ 19
스커트를 19
이번주 19
진동@@ 19
퀄이 19
바지에서 19
오배송으로 19
일주일이 19
함..@@ 19
교환귀찮아서 19
하지만... 19
당장@@ 19
참고하세용 19
뻣뻣 19
색의 19
괜찮은듯해요 19
입어보지도 19
아닌거같@@ 19
기다리고@@ 19
자켓으로 19
입을꺼라 19
분실@@ 19
임산부인데 19
구매후기@@ 19
주문해야 19
핏인데 19
너덜@@ 19
kg인데 19
볼때 19
속았@@ 19
1234@@ 19
괜찮은데.. 19
잘보고 19
입을게요@@ 19
잘맞네요. 19
될듯합니다. 19
건지. 19
좀크@@ 19
끼지만 19
바람막이 19
이라... 19
반팔티 19
못입을듯@@ 19
아오 19
처음부터 19
애즈미 19
던져@@ 19
좋아요이쁘네요 19
5일 19
헐렁하고 19
잠옷으로@@ 19
없는데@@ 19
안맞아요 19
이상하네요 19
구매하지 19
묘하게 19
재봉선이 19
쪼여서 19
큰거같아요 19
신어요. 19
편한바지 19
귀찮아서그냥@@ 19
막혀@@ 19
속치마@@ 19
튀어나와 19
모델은 19
엉덩이부분이 19
코트도 19
서서 19
뾰족해서 19
립스틱@@ 18
다니는@@ 18
닌 18
듯하네요. 18
보내주셨어요 18
예상했던@@ 18
이..@@ 18
이쁘다는@@ 18
더니.. 18
한데. 18
열고@@ 18
주문했네요 18
퉁@@ 18
지인들@@ 18
다르지 18
남동생 18
고맙습니다. 18
하고~ 18
적이@@ 18
샀습니다.@@ 18
예쁘긴한데@@ 18
찾다가@@ 18
세련되게 18
핑크네요 18
듭니다~^^ 18
이전에 18
하네요!! 18
좋아요~~!! 18
무겁게 18
느껴져서 18
쏘옥 18
가겨@@ 18
너무이뻐여 18
미끌@@ 18
했네요~ 18
주문했어요~@@ 18
바디@@ 18
xi@@ 18
우체국@@ 18
동그@@ 18
큼지막@@ 18
들었지만 18
너무작@@ 18
품절이라고 18
해달라고 18
인듯. 18
귀엽네요. 18
가격이좀@@ 18
만더@@ 18
등치가 18
포켓도 18
제질 18
윈@@ 18
돈을 18
싸도 18
신속@@ 18
드립니다@@ 18
삿어용 18
이상도 18
심심하지 18
선물받은 18
!!!^^ 18
구해서 18
여러가지@@ 18
넣을수 18
산책@@ 18
딱이네요~ 18
인조가죽@@ 18
가방안에 18
제봉@@ 18
바꿨는데 18
오~~ 18
활용도도 18
편하면서도 18
군더더기없이 18
누가봐도 18
밀리@@ 18
잘해주셔서 18
딱좋음 18
방향@@ 18
위한 18
^*^ 18
사는거 18
아프지 18
고리 18
같습니다^^ 18
렇게 18
거릴@@ 18
아쥬 18
싼게비지떡 18
집이 18
잡아서 18
워서@@ 18
친절하세요@@ 18
비교 18
사진그대로네요 18
당기@@ 18
좋았습니다! 18
것을@@ 18
천을 18
고만@@ 18
나일론@@ 18
키가작아 18
페브리즈@@ 18
모양이@@ 18
드라구요 18
슨 18
생각햇던거보다 18
백은 18
앤@@ 18
보는것@@ 18
취향저격@@ 18
빠지는게 18
문자주@@ 18
힘듬 18
질거같아요 18
😍@@ 18
뒀다가 18
기대이상입니다 18
것같긴한데 18
너무이쁘고@@ 18
하네요~~@@ 18
퀄리티를 18
무지하게 18
하겠습니다! 18
구매결정@@ 18
않으니 18
가격좋고 18
튀지도 18
지퍼로 18
스트랩 18
기대햇@@ 18
관 18
예뻐보여서 18
생일@@ 18
뭐든 18
못하는 18
줄알았는데@@ 18
너무이쁨 18
이뻐보여서 18
?가 18
😁 18
허전@@ 18
해요!@@ 18
산건 18
그대로예요. 18
대용으로 18
후반@@ 18
쳐지는 18
넉넉하구 18
놀랐는데 18
볼때는 18
느려서@@ 18
지인 18
을수 18
기전까지 18
아쉬워요.. 18
받는데@@ 18
겠거니 18
쫍@@ 18
오! 18
어울려 18
검색하다가 18
못미치@@ 18
고민하지마@@ 18
생각했던거보단 18
봉재@@ 18
좋더라구요@@ 18
없네요~ 18
중간까지 18
아요^^ 18
달렸@@ 18
삿네요 18
받았을땐 18
싸 18
늦었지만@@ 18
두달@@ 18
배송빨라용 18
활용도@@ 18
안되는@@ 18
상태에서 18
고민끝에 18
하셧@@ 18
안해봐서 18
받았습니다! 18
제로@@ 18
신중히 18
4일정도 18
방에 18
마시@@ 18
않나 18
사보는데 18
텨@@ 18
깊고 18
도되고 18
많음 18
포인트를 18
프릴도 18
돌아요 18
네요~! 18
지않을까@@ 18
5일정도 18
진안@@ 18
나갈때@@ 18
예뻐용~~ 18
아주조아요@@ 18
굳! 18
극찬@@ 18
개인적으론 18
쳐져서 18
띄는 18
가을겨울에 18
왔구 18
한철만 18
문제로 18
여성스럽네요 18
리본을 18
요기@@ 18
가있어 18
신경써야@@ 18
념@@ 18
요!@@ 18
기다리다@@ 18
지나치게 18
얇은데도 18
고마@@ 18
담엔 18
네여~@@ 18
사진엔 18
다닙니다@@ 18
흡족@@ 18
밤 18
진리@@ 18
베이지색상 18
겠는데 18
없고요 18
아까워@@ 18
빛에 18
오프숄더 18
하자없이 18
여미@@ 18
wn@@ 18
이하 18
제품이에요 18
나기는 18
받았네요@@ 18
아. 18
받 18
팔아서 18
좋았습니다.@@ 18
뵈@@ 18
빨랐구요@@ 18
괜찮아서@@ 18
요즘엔 18
이뻐요~!! 18
버클 18
나고@@ 18
여름철 18
헉@@ 18
하시는분들은 18
할랑@@ 18
나니@@ 18
들여@@ 18
왠걸 18
만족해요~@@ 18
맘에들어서@@ 18
;) 18
다행히@@ 18
흔하지않은 18
가깝고 18
패턴은 18
다했는데 18
귀엽다고 18
되었습니다 18
뤄@@ 18
왜소@@ 18
ad@@ 18
bo@@ 18
햏@@ 18
아니네여 18
구매한거라 18
난해@@ 18
꺼예요 18
물품@@ 18
왠걸@@ 18
얇은감은 18
후회는 18
xh@@ 18
보이는건 18
저렴하구요 18
움직일때마다 18
어린@@ 18
배송조회@@ 18
유사@@ 18
오래신어도 18
질문@@ 18
쭈글쭈글 18
주문하세요. 18
두번은 18
늦지만 18
잡아주는게 18
발등에 18
폭신폭신 18
엄마는 18
생각해요 18
이즈 18
봄봄@@ 18
넓으신분들은 18
펄이 18
될것같@@ 18
잘신어@@ 18
괜춘하네요 18
두껍고@@ 18
편한건 18
배송이나 18
쩜 18
쿠션감 18
작은걸로 18
흔들@@ 18
하심@@ 18
오래신으면 18
짜증나 18
편해용@@ 18
예쁩니다~~ 18
물집@@ 18
벗기가 18
편합니다~ 18
고민햇는데 18
탁한@@ 18
밝아요. 18
목티@@ 18
세탁후에도 18
몰랏@@ 18
예뿌고 18
안입어봐서 18
쫀쫀하니@@ 18
어중간하게 18
아래가 18
하진않아요 18
일어날것 18
까슬거리는 18
달라붙지 18
메이드@@ 18
기대이상으로 18
하기도하고 18
앏아서 18
어색해요 18
입어질듯 18
가을가을@@ 18
짧네요~ 18
정도까지 18
입을수있는@@ 18
부해서 18
세련된@@ 18
부하고 18
구구@@ 18
니트에요 18
소매길이도 18
나오네요. 18
입어볼께요 18
오버핏이고 18
바랬는데 18
핏이예요 18
안입@@ 18
답답하지 18
상당@@ 18
되겠네요 18
한계절@@ 18
셔츠위에 18
시스루가 18
이곳@@ 18
비치는게 18
시착@@ 18
입은것처럼 18
어깨선도 18
비치긴 18
만만@@ 18
161인데 18
주문했구요 18
잘입고있어요~ 18
입어서@@ 18
부해보이지도 18
괜찮을듯해요 18
1+1으로 18
시원해요. 18
이라인 18
할인된 18
비오는 18
맞습니다.@@ 18
따뜻할것 18
많이안@@ 18
아크릴 18
묶는게 18
느릴@@ 18
적어서 18
싼이유가@@ 18
미쳤@@ 18
핏감이나 18
잘한듯@@ 18
무리 18
사선@@ 18
95-@@ 18
앙고@@ 18
입고있습니다. 18
얼굴에 18
검정을 18
소재인데 18
편하기 18
빨 18
받았음 18
편하게입기좋아요 18
히트텍 18
여자여자 18
바짝 18
흰색샀는데 18
말려 18
번창하세요~~ 18
거가타요 18
커팅@@ 18
샀는데... 18
자르고 18
어두움 18
..?@@ 18
올렸@@ 18
옷도이쁘고 18
갔더니 18
맛 18
빠짐이 18
짱이예@@ 18
한여름은 18
받쳐입어도 18
플라워 18
아이템이라 18
기다리는 18
가슴이@@ 18
별루요 18
요요요 18
돈이@@ 18
편해요~~@@ 18
블랙사고 18
실사@@ 18
하시는게@@ 18
조아서 18
큼.. 18
잘입겟습니다 18
입은거보고 18
주세요. 18
즐겁@@ 18
생각처럼 18
털날림은 18
입어봐야겠어요 18
옷임 18
언발란@@ 18
입을수있을것 18
그저그래@@ 18
포토@@ 18
네.. 18
힘든 18
있겠네요. 18
왔구요. 18
날씨가@@ 18
66은 18
초가을 18
밝네요 18
함유@@ 18
핏좋고 18
몸이@@ 18
허리라인 18
노란색@@ 18
조끼도 18
교환하기@@ 18
도... 18
DS@@ 18
걸치고@@ 18
만족스럽지 18
파져서 18
남네요 18
펑퍼짐해요 18
키인데 18
흐리@@ 18
용은 18
말곤@@ 18
허리쪽이 18
잘받았어요~~ 18
받고나니 18
옷보다 18
삐뽕@@ 18
먹색@@ 18
있거나 18
예쁨. 18
기는해요 18
이라기@@ 18
초여름 18
꽃 18
시도@@ 18
약하게 18
그가격만큼 18
웬@@ 18
드라이크@@ 18
웅 18
입는데요 18
스타일이고 18
보입니다@@ 18
쁜 18
모르겟어요 18
데로@@ 18
길이고 18
이쁠꺼같아요 18
교복 18
사진이랑같아요 18
금요일 18
어쩡@@ 18
배송.. 18
껴입기 18
얘기가 18
손가락 18
블라우스도 18
딱맞아요. 18
껴 18
줄이고 18
브라우스@@ 18
부탁드렸는데 18
지말고 18
풍성한 18
신행@@ 18
나와요. 18
인가봐요 18
선인@@ 18
상의는 18
별로안@@ 18
빵빵해서 18
무거운데 18
걸칠 18
알았음 18
자마@@ 18
네이비랑 18
쫑@@ 18
따뜻하다고 18
셔츠와 18
틀리고 18
레이어드로 18
반품신청@@ 18
돌고 18
할만큼 18
봤네요 18
후드티@@ 18
잘입고있@@ 18
습니더 18
경량패딩@@ 18
남편도 18
괴@@ 18
뚱뚱해보여@@ 18
44-@@ 18
짜증남 18
포함 18
츄 18
통통55@@ 18
후크@@ 18
거칠고 18
겉으로 18
뻗뻗@@ 18
랩 18
더위@@ 18
☺@@ 18
️@@ 18
길이네요 18
조심하세요 18
그래서인지 18
고무가 18
소매부분@@ 18
헐렁하게 18
채우면 18
밀려서 18
소재이고 18
옷인거 18
단추부분 18
시원합니다. 18
취소할@@ 18
잘가고 18
같기는 18
단독으로는 18
너무만족합니다 18
땐@@ 18
지나고 18
보통.. 18
두꺼운감이 18
별로에여 18
있나@@ 18
파임 18
긴햇지만 18
만들어주세요 18
무릅@@ 18
비만@@ 18
않아요... 18
밥먹@@ 18
박스에 18
보태서 18
나오긴 18
먼가@@ 18
밉@@ 18
다이어트@@ 18
에따라 18
그냥입으려구요 18
날씨도 18
싼건 18
만족만족만족만족@@ 18
자세히@@ 18
있네요...@@ 18
듯? 18
엠으로 18
슬림핏이@@ 18
실밥들이 18
입으시려면 18
원단으로 18
짧은거같아요 18
댈@@ 18
치수가 18
딱맞게@@ 18
너무커@@ 18
고려해보@@ 18
나와서@@ 18
심해 18
훅@@ 18
니트가디건 18
애즈미@@ 18
하.. 18
타잇하게 18
하는거같아요 18
하자니 18
교환했어요. 18
수선했어요 18
길지않고 18
확인해서 18
안입으면 18
얄쌍@@ 18
둿@@ 18
네요;;; 18
보통요 18
배송너무느림 18
엄청크고 18
일자바지 18
게아니라 18
터짐 18
보네요 18
밴딩도 18
발목은 18
따뜻하긴한데 18
인생바지@@ 18
허리사이즈가 18
밴드도 18
밴드라 18
27-28@@ 18
스몰로 18
스몰이 18
25 18
편합니다! 18
가격대도 18
패드가 18
데미지 18
구니@@ 18
한달정도 18
정사이즈예요 18
모자에 18
처음이에요 17
계획@@ 17
득템했네요 17
편해요~^^ 17
흠이지만 17
같네요..@@ 17
카드지갑 17
하느@@ 17
좋네요!@@ 17
간편하고 17
디쟌 17
꼽@@ 17
어설프@@ 17
있네요~@@ 17
넣으니 17
생각하면@@ 17
했지만... 17
내부 17
큐빅@@ 17
매니@@ 17
vk@@ 17
샀는@@ 17
추천합니다~~ 17
재질, 17
게요!! 17
양해@@ 17
있을듯@@ 17
쫌더 17
사용할@@ 17
편하고요 17
조그@@ 17
돈아까워요 17
부담스럽게 17
만족합@@ 17
봄여름 17
다닐듯 17
배송관@@ 17
튼튼해보이고 17
짧지않아 17
딱가격만큼@@ 17
하자가 17
딱임 17
느낌나요 17
주문은 17
무난한거 17
백도 17
작다 17
다고들 17
느낌이구요 17
헤헤 17
남자친구랑 17
비싸지 17
쓰는데 17
끈에 17
기다리느라 17
거기다가 17
도, 17
아쉽네요... 17
닉@@ 17
완전이뻐용 17
좋아욤@@ 17
만족했어요 17
딱이네요! 17
들어요!!! 17
하십니다 17
용으로도 17
그런건@@ 17
작긴하지만 17
모르겟지만 17
욱@@ 17
맬 17
말씀처럼 17
다니니 17
더더@@ 17
기다린거 17
쥬 17
만족했@@ 17
고싶어요 17
다자인@@ 17
숄더로 17
못하게 17
이네요~~ 17
D 17
잘빠져서 17
늣@@ 17
만은 17
께여 17
^0^ 17
가죽으로 17
몹시 17
안들@@ 17
칼배송에 17
있네요! 17
스토@@ 17
랫@@ 17
블 17
안보여요 17
참.. 17
떨어질 17
괜한 17
귀염@@ 17
작다@@ 17
어무 17
청소@@ 17
물티슈로 17
심플하면서도 17
어디나 17
죠?? 17
크기나 17
연락주셔서 17
조오@@ 17
비스@@ 17
나요~ 17
일때 17
날렵@@ 17
들지는 17
돈값@@ 17
잘샀습니다 17
쌌@@ 17
구입한거 17
좋아하세요 17
샀어도 17
고민많이@@ 17
판매자님께서 17
면도@@ 17
아주좋아요@@ 17
구매해봤@@ 17
조항요 17
공지 17
만족입니다~ 17
손톱@@ 17
안나는@@ 17
안전하게 17
않고.. 17
♡♡@@ 17
사고나서 17
이라던지 17
만족스럽게 17
점프슈트@@ 17
듣고 17
만족^^ 17
안하@@ 17
bb@@ 17
음) 17
물어보고 17
이쁨!! 17
때타@@ 17
부드럽네요. 17
보는사람마다 17
의상@@ 17
좋습니다~@@ 17
퀵@@ 17
할까하다가 17
쯤에 17
이뿌네여 17
평대로 17
비싸다는 17
테이프로 17
만지@@ 17
에.. 17
늘어져서 17
긴합니다. 17
이만@@ 17
좋겠다 17
숏패딩 17
실밥이나 17
라룸@@ 17
더워지기 17
맘에들어요~~~ 17
자켓이나 17
다들이쁘다고@@ 17
뺐@@ 17
사람에게 17
선명하게 17
베란다 17
괜찮은데, 17
해야함 17
나는게 17
안나는 17
었더니 17
어여. 17
초록 17
하세여 17
습니당~~ 17
이쁘대요 17
이가격으로 17
받으니까 17
안되지만 17
순간@@ 17
짧을 17
안하지만 17
참고하시면 17
천에 17
바르@@ 17
운동복@@ 17
통이커서 17
싸이즈가@@ 17
않았구요 17
디자인입니다 17
택배로 17
출퇴근용으로 17
밸@@ 17
일을 17
크니 17
이뻐욧 17
적당하네요. 17
수고하세요~ 17
So@@ 17
쑥@@ 17
찾고있었@@ 17
목요일에 17
갈색 17
느낌이에요~ 17
함요 17
머리끈 17
너무좋아요@@ 17
됩니다.@@ 17
둔 17
넘어가@@ 17
할듯요. 17
할땐 17
친철@@ 17
괞찮@@ 17
없어용 17
감사드립@@ 17
걸어도 17
물이@@ 17
밑까지 17
안이쁘고 17
뚤@@ 17
길다고 17
빛이@@ 17
예뻐요~~~@@ 17
원피스에도 17
다니고@@ 17
재입고 17
다른걸로 17
친구한테 17
구매하시길@@ 17
꾸겨@@ 17
가야@@ 17
가량 17
베이지에요 17
이요. 17
알맞고 17
한날 17
여름한철 17
시기@@ 17
받은건 17
만족해요.@@ 17
클까봐 17
긴감이 17
1~@@ 17
히는 17
안에는 17
얇다는 17
사업번창하세요 17
나타@@ 17
한데요 17
선물해주@@ 17
봉제가 17
구매하셔도 17
문제가@@ 17
남기는데 17
그다음날 17
너무예뻐용 17
시즌 17
코디하기가 17
한번에 17
오랫동안 17
162에 17
인것같@@ 17
문의글 17
하던@@ 17
덜하고 17
괜찮았습니다 17
보일까봐 17
특가로 17
라쿤털 17
쏘쏘입니다 17
작을 17
주문하고@@ 17
짜여@@ 17
것같아요~^^ 17
기엽@@ 17
여기에서 17
훤히 17
딱이구 17
예쁘네요~~@@ 17
좋은거@@ 17
부분이나 17
샀구요 17
꺼같고 17
짱짱짱 17
힘들것 17
생기면 17
고른@@ 17
내스타일 17
꽤나 17
진작@@ 17
잘어울립니다 17
좋아여~ 17
어요!@@ 17
데다 17
했는@@ 17
주셧@@ 17
네염 17
께요~~ 17
겄@@ 17
알았는데@@ 17
예뻐요:) 17
고요~ 17
재질이긴 17
핫핑크 17
갈것 17
좋아하는데@@ 17
만족합니당! 17
강츄@@ 17
모두다 17
너뮤@@ 17
렬@@ 17
만들어서 17
생각보다도 17
가격대비.. 17
놔뒀@@ 17
네여.@@ 17
아쉬워용 17
팬츠에 17
다는.. 17
😊@@ 17
튀는@@ 17
쉬원@@ 17
하지만..@@ 17
답게 17
크게나온듯 17
능데 17
색감이며 17
69@@ 17
안정감@@ 17
날씬해보이구 17
되나 17
신발만 17
잘신고있어요 17
정사이즈에 17
놓쳐서 17
주문했어요! 17
덮어서 17
보내주셨으면 17
넘이쁘고 17
느려요@@ 17
불편했는데 17
레드는 17
잊어@@ 17
질감이@@ 17
은..@@ 17
넉넉한데 17
폴라티 17
아직까지 17
소재도좋고 17
안이나 17
해서좋아요 17
납니다.@@ 17
달라요... 17
입을려구 17
옷상태@@ 17
지도안@@ 17
너어무 17
예쁜데... 17
진주도 17
ai@@ 17
우나 17
처음인데 17
쪼이고 17
후기가@@ 17
팔쪽 17
기본이에요 17
날리고 17
정도만 17
간절기에@@ 17
깔 17
Good@@ 17
디자인인데 17
멋내@@ 17
중간정도 17
하겠어요. 17
잘입었어요. 17
기모로 17
배기 17
지금은@@ 17
아직까진 17
부직포같은 17
포근한 17
예쁜옷@@ 17
내려와@@ 17
못입었지만 17
되었지만 17
오버사이즈로 17
편인데, 17
모르겠으나 17
좋아보이진 17
보푸라기 17
티네요 17
잘입고다녔어요 17
요즘같은@@ 17
가슴쪽@@ 17
몸매도 17
색깔이뻐요 17
자체제작@@ 17
세탁할때 17
파이지 17
허리까지 17
그날 17
6천원@@ 17
돌려서 17
늘어짐 17
받쳐입을 17
싫어해서 17
구입한지 17
너무길고 17
걍그래요 17
짜증나요 17
예민한@@ 17
않으@@ 17
오버핏을 17
3/@@ 17
입을만해요@@ 17
적으로는 17
냐는 17
목까지 17
입기편해요 17
그렇긴한데 17
갑갑@@ 17
길었음@@ 17
새옷냄새가 17
쪼끔@@ 17
부분과 17
생겻@@ 17
예쁜데, 17
3번 17
좀많이@@ 17
타이트하지않고 17
베이지색이라 17
가리는 17
제외하고는 17
입고, 17
안어울리는 17
신축성도@@ 17
같아요...@@ 17
잘늘어나요 17
짪@@ 17
가을로 17
55입는 17
레드가 17
이란 17
안되어있어서 17
두개샀는데 17
최악입니다. 17
합리적인 17
낌 17
초록색이 17
트렌치코트@@ 17
킨@@ 17
신경쓰일@@ 17
까끌거리는 17
계절이 17
떨어지네요. 17
겨울용은 17
한번빨면 17
넣어입어야 17
별루임 17
개나리@@ 17
77사이즈@@ 17
오십자@@ 17
이라인@@ 17
오렌@@ 17
샀다 17
완료 17
긴가민@@ 17
네여~~ 17
져요@@ 17
참고하세요! 17
좋을거같네요 17
파인 17
맘에들어요~^^ 17
붙어있고 17
작게나와서 17
1주일@@ 17
반품할 17
확인좀 17
컸어요 17
무니@@ 17
166에 17
해보입니다. 17
프린@@ 17
기다렸네요 17
보들 17
무난합니다.@@ 17
겉감@@ 17
좀커서 17
에비해@@ 17
일까@@ 17
나쁘지않은데 17
해졌@@ 17
청남방 17
깨 17
코튼@@ 17
기본인데 17
맞을듯 17
했네요.. 17
기장을 17
파스텔@@ 17
싸네요 17
주변에 17
여유가@@ 17
해주시고@@ 17
덩치가@@ 17
구매하러올@@ 17
코디처럼 17
입었을때는 17
끝단이 17
우와@@ 17
/80 17
힘들게 17
얇게@@ 17
4일만에 17
청바지도 17
춥지만 17
빨리왓@@ 17
세탁해보@@ 17
나갔다가 17
죽을@@ 17
가격대비만족합니다 17
습니다, 17
안입은듯 17
마른55@@ 17
감당@@ 17
거리네요 17
이런옷 17
남방이랑 17
이쁘니 17
외소@@ 17
막입기좋아요 17
하겠습니다@@ 17
이아니라 17
바바@@ 17
누빔이 17
입었던@@ 17
핏도예쁘고 17
이뽀 17
되어있는@@ 17
조끼랑 17
어벙벙한 17
앞은 17
임.@@ 17
체격인데 17
잡아주니 17
마저 17
UR@@ 17
따뜻할거같아요 17
흘러내려서 17
풀러@@ 17
아시@@ 17
좀있어서 17
37@@ 17
굿뜨 17
숏 17
입을께요@@ 17
두껍네요. 17
겐차@@ 17
그럭저럭. 17
괸찬@@ 17
아동@@ 17
어른@@ 17
듯합니다@@ 17
덩치있어@@ 17
어마@@ 17
오래걸렸고 17
완존@@ 17
기보다 17
마른편인데도 17
질것같@@ 17
따뜻은 17
저녁으로 17
싸니 17
었는데, 17
허리끈@@ 17
네오프렌 17
어이가@@ 17
주시고@@ 17
드린@@ 17
구찮@@ 17
입어보려@@ 17
아니고요 17
교체@@ 17
거추@@ 17
살때마다 17
아이보리색@@ 17
돌려도 17
그렇고@@ 17
스트라이프가 17
안샀을 17
이너로도 17
doy@@ 17
이쁜건 17
1. 17
가격의 17
입을일이 17
쭐@@ 17
정도. 17
전반@@ 17
사아@@ 17
나와있고 17
없게 17
번호 17
여름용은 17
구매하시길 17
별로인듯@@ 17
두껍습니다 17
찢어진@@ 17
사람한테 17
봉투 17
주먹@@ 17
많지 17
글쎄 17
더워 17
죽는@@ 17
안남 17
소매부분에 17
짜증나네요 17
입는걸 17
이주 17
세탁소가서 17
하러 17
나가는데 17
시원할거 17
옷에서@@ 17
고를@@ 17
입으렵@@ 17
배송도빠르구요 17
사진하고는 17
지고@@ 17
속은 17
lj@@ 17
별롭@@ 17
어렵네요 17
M은 17
평범합니다 17
반품할려@@ 17
오배송 17
나옵니다 17
청색@@ 17
작업복@@ 17
나오는거 17
입었을@@ 17
작게나왔어요 17
루즈핏이고 17
원단을 17
u 17
괜찮은편@@ 17
이옷이 17
아주좋@@ 17
하셔야할@@ 17
슬림핏은 17
웬만하면 17
cm에 17
쌔@@ 17
너무편해서 17
주문했는데요 17
비치네요. 17
문의하면 17
둬요 17
을꺼 17
려구여 17
바람막@@ 17
초겨울까지 17
자연스럽@@ 17
2장@@ 17
같으나 17
꺼같아서 17
,,,,@@ 17
있다보니 17
사이즈때문에 17
냇@@ 17
얇고, 17
꼼 17
수선이 17
괜챦@@ 17
처음이네요. 17
아닌듯해요 17
싸고이뻐요 17
펼@@ 17
구려@@ 17
긴함 17
차콜이 17
저한테는@@ 17
말랑말랑 17
줄줄@@ 17
기모라고 17
11일 17
전체가 17
부턴 17
허리밴딩이 17
기분나쁘@@ 17
스타킹신고 17
27-@@ 17
스타킹에 17
낭패@@ 17
수선비 17
바지길이가 17
엄청느리고 17
가보@@ 17
만큼은@@ 17
보통보통보통 17
맘에안들어요 17
그닥..@@ 17
고객님@@ 17
프리사이즈라@@ 17
항공점퍼@@ 17
반품하면 17
배송최악 17
신발에서 17
신발자체는 17
에나멜 17
부츠를 17
돈아까움 17
a @@ 17
생긴@@ 16
☆@@ 16
긴한데, 16
팩트@@ 16
있어요..@@ 16
처리해주셔서 16
주문할걸 16
지갑도 16
친구가@@ 16
망설였@@ 16
구성@@ 16
테슬@@ 16
아쉽지만@@ 16
히고 16
갑니다@@ 16
잘못사면 16
적은@@ 16
유치@@ 16
올려주세@@ 16
그럼. 16
큐빅 16
메세@@ 16
칭@@ 16
구가 16
유지@@ 16
요긴하게 16
달랐지만 16
쓸께요 16
보내주셨네요 16
여행갈@@ 16
너무맘에 16
큰사이즈@@ 16
부분은@@ 16
매장 16
예요!! 16
일주일은 16
착용하기 16
버스 16
빨래를 16
완전빠르고 16
대학생@@ 16
외출시 16
조금만더 16
노트북 16
외관@@ 16
짱!! 16
지도않아서 16
될듯합니다 16
문의드렸@@ 16
네이비라 16
오히려@@ 16
꼬 16
별로.... 16
뜨 16
있었음@@ 16
아이들 16
버스@@ 16
봄이랑 16
블루로 16
재입고@@ 16
수납력@@ 16
들기에 16
플라스@@ 16
퍽@@ 16
저서 16
사다@@ 16
가방자체는 16
친정@@ 16
숄더백 16
넓어요. 16
지하@@ 16
뜯어지@@ 16
차에 16
가격대비해 16
내일@@ 16
섬유 16
상품평이@@ 16
크기가@@ 16
빠루@@ 16
썻@@ 16
대박이네요 16
선물도 16
오랜 16
빠져 16
원단의 16
좋은거같아요! 16
찾으시면 16
걸치기도 16
귀염귀염@@ 16
굳!! 16
이었습니다. 16
무서@@ 16
안되는데 16
잘받았어요^^ 16
여름은 16
아이랑 16
했습니다~ 16
감사했어요 16
받침@@ 16
여성스러운@@ 16
달려 16
할것같@@ 16
길들여@@ 16
온라인 16
온라인으로 16
이뻐요~~~^^ 16
럽 16
살까봐요 16
잘받았습니다! 16
돠@@ 16
다는점@@ 16
생각한대로 16
보기보다@@ 16
아주좋네요 16
월요일에 16
껀데 16
좋습니다~^^ 16
가기 16
느낌나서 16
가격이저렴해서 16
좀많이 16
좋아하고 16
하시고@@ 16
명품@@ 16
밧@@ 16
답변해주셔서 16
느껴졌@@ 16
I 16
미친듯이 16
스터@@ 16
아래에 16
었다 16
거같구 16
사줫는데 16
배송되서 16
기다려야 16
달려있는 16
##@@ 16
염려@@ 16
들릴@@ 16
되었으면 16
분홍 16
표 16
해서인지 16
조을@@ 16
어져@@ 16
샀어요~~ 16
맘에드러@@ 16
멜 16
노란색이 16
흔하지않고 16
같으@@ 16
습니당! 16
트위드@@ 16
자체는@@ 16
느낌! 16
초이스 16
연그레이 16
을수@@ 16
어용. 16
이쁜데요 16
만합니다 16
핬@@ 16
구매하기 16
는거는 16
아닌게 16
3가지 16
내용물@@ 16
비해선 16
넹 16
부담이 16
다행 16
놀라고 16
빌려@@ 16
쓰는@@ 16
칭찬 16
보라 16
스크래치@@ 16
긔@@ 16
똑딱@@ 16
색이이뻐요 16
얇아도 16
반짝이는 16
골라서 16
놀랐습니다 16
싸보이지도 16
구매해야 16
묶어 16
세요.. 16
꺠@@ 16
덴 16
넣어서@@ 16
옆에@@ 16
빠져요. 16
예요~~@@ 16
변형도 16
라벨 16
휴양@@ 16
허접하고 16
오오옹 16
후기에서 16
될거같아요@@ 16
씀@@ 16
뻣뻣한@@ 16
좋구요! 16
소프@@ 16
선택해서 16
두개째@@ 16
느낌나@@ 16
이면서 16
잘어울릴것같아요 16
고....@@ 16
콜@@ 16
움.. 16
아니구요@@ 16
안심@@ 16
구여. 16
만. 16
교환할까 16
맞는지 16
해보이긴 16
딱. 16
생각보다는... 16
꺼같은 16
기보단 16
장점 16
뜯고 16
늘어질@@ 16
비싼거같아요 16
늘어나긴 16
원했던@@ 16
노란 16
좀. 16
모던@@ 16
려구요@@ 16
있는데, 16
매치하니 16
안보여서 16
구매평이@@ 16
해주셔서@@ 16
~~~~!!!! 16
줫는데 16
적으론 16
딱이에요. 16
색임 16
여친@@ 16
배송되어 16
화장품@@ 16
신뢰@@ 16
댔@@ 16
다닐것같아요 16
그럭저럭입니다 16
배송도빨라요 16
작년부터 16
엿어요 16
배는 16
까슬거려서 16
굼@@ 16
으면... 16
여유있어서 16
다른색상도@@ 16
이뻐요...@@ 16
여.@@ 16
굳굳굳 16
지키@@ 16
굿~~@@ 16
못합니다 16
시간이@@ 16
웠으면 16
끄떡@@ 16
겠습니다.@@ 16
맘이@@ 16
받았으니 16
반으로 16
않구요. 16
예뻐용! 16
싸구려같@@ 16
귀여워 16
못하고@@ 16
라벨이 16
버릴 16
했 16
보통입니다~ 16
옵션@@ 16
올라온@@ 16
siz@@ 16
세련되 16
데나 16
좋아요이뻐요 16
되는것 16
것만큼 16
하지가 16
꼼꼼히@@ 16
경비실에 16
만났@@ 16
팔고 16
얘기 16
이네요^^ 16
바랄@@ 16
길이로 16
않으나 16
?!@@ 16
이쁠듯요 16
생길거 16
별로여서 16
핑크를 16
핑크샀는데 16
날카@@ 16
가까워@@ 16
싸보이고 16
장식 16
오래기다렸지만 16
살려고 16
한진@@ 16
사진속 16
밝아 16
xt@@ 16
요번@@ 16
옆선이 16
보가 16
베이지를 16
좋아요...@@ 16
싶었던 16
구매했습니다~ 16
구영 16
탄 16
가격도싸고 16
륵@@ 16
대략@@ 16
옥스포@@ 16
엄청엄청 16
다행이에요 16
다는점 16
줄알앗@@ 16
신던 16
괜찬고 16
딱맞았@@ 16
55~@@ 16
하긴했는데 16
헐렁하네요 16
별루네요. 16
옷들도 16
이뻥@@ 16
밀려@@ 16
이쁘고편해요 16
폭신하고 16
잘신겠습니다 16
그냥그래요..@@ 16
오오오오 16
가성비짱 16
실듯 16
시키는게 16
좁아서@@ 16
통굽@@ 16
여태 16
따뜻해보이고 16
사시는게 16
멋지@@ 16
너~~~~무 16
높은데 16
닏@@ 16
배송빨라요~ 16
너무너무이뻐요 16
메 16
허접함 16
만족.@@ 16
150@@ 16
튿어져서 16
트더@@ 16
과정@@ 16
맞구요. 16
있 16
파란색이 16
두번이나 16
구매했어요^^ 16
닿으면 16
길구 16
해야겠어요. 16
_ 16
빠집@@ 16
다녔어요@@ 16
뭔 16
신경쓰여요 16
얇아요! 16
무거운감이 16
르르 16
그레이에 16
예민해서 16
거같아오 16
라기보단 16
랄 16
끝내@@ 16
듯합니다.@@ 16
입을수는 16
빠지는거 16
171 16
입고나니 16
2XL@@ 16
배꼽티@@ 16
180/7@@ 16
색상입니다. 16
다고는 16
아슬아슬@@ 16
쫀쫀하구 16
흠...@@ 16
실도 16
예뻐욤 16
브라 16
있구요~ 16
기본템이라 16
어정쩡하네요 16
한번은 16
사람이@@ 16
코트안에@@ 16
오구 16
건강@@ 16
끝부분 16
가려져서 16
소매나 16
두껍긴 16
처리를 16
입어주면 16
슴다 16
해영 16
입을만한데 16
여기옷은 16
하의를 16
한계절 16
입술@@ 16
퓨@@ 16
없어보여요 16
200@@ 16
주문한거라 16
작년에도 16
따듯합니다 16
따듯해서 16
총길이가 16
다른색으로도 16
전이지만 16
바지보단 16
말할@@ 16
좋아여. 16
효과 16
사면@@ 16
구우우@@ 16
잘못입음 16
그냥그랴요 16
뒤늦게 16
대박이에요 16
1개 16
겠지만@@ 16
도톰하고@@ 16
비쳐요. 16
가슴골@@ 16
하였습니다. 16
부하지 16
화사한@@ 16
얇기는 16
기본에 16
더운데 16
보이기도@@ 16
구... 16
퓨 16
괜찬은@@ 16
들엇@@ 16
스웨터@@ 16
긴편이@@ 16
앟@@ 16
따뜻하고좋아요 16
함니다 16
무난해요~~ 16
하지않고@@ 16
네크@@ 16
있기 16
입으려고샀어요 16
싫은데 16
말린@@ 16
입겟@@ 16
구매평처럼 16
미세하게 16
그거빼면 16
53 16
용..@@ 16
봄엔 16
것같네요~ 16
원하신다면 16
줄어서 16
되긴 16
스커트와 16
시원하@@ 16
원단이네요 16
말자 16
팔통도 16
잇으면 16
치마와 16
물씬 16
쟈켓@@ 16
쭉쭉@@ 16
역 16
불량이네요 16
상체는 16
싼가격 16
인데...@@ 16
았음 16
레몬@@ 16
잡아줘요 16
아저씨 16
일자가 16
드러나서 16
살찐@@ 16
새옷이라 16
쌀쌀해지면 16
터진@@ 16
정돈@@ 16
~!~! 16
두껍긴한데 16
낚@@ 16
지도않아요 16
화사해보여요 16
역쉬 16
지르@@ 16
티는@@ 16
넥라인 16
아주맘에들어요 16
쁩@@ 16
무난합니다@@ 16
매듭이 16
잘빠졌어요 16
입을수도 16
인생템@@ 16
입은게 16
신경안@@ 16
이용할께요 16
그가격만큼@@ 16
톡 16
생각보다많이@@ 16
못할 16
굿이예요 16
알겠어요 16
들어해요 16
허술해서 16
실제랑 16
흰바지 16
가격정도의 16
있으면서 16
되면서 16
졌다 16
라우@@ 16
입다보면@@ 16
뜯어져 16
좋지는@@ 16
이상해요@@ 16
구매확정합니다. 16
특별히 16
55반인데 16
따뜻한거 16
춥네요 16
사셔야 16
같네요... 16
팟@@ 16
dkk@@ 16
안된 16
비칩니다. 16
보름 16
안입은@@ 16
걱 16
입어야할거 16
그냥입습니다 16
목쪽이 16
어둡습니다. 16
쫄쫄@@ 16
뭐지@@ 16
안입음 16
거임 16
입으랴@@ 16
초록색@@ 16
솔직후기 16
호불@@ 16
이런거@@ 16
도와@@ 16
2.@@ 16
걸린다고 16
언니한테 16
옷인것 16
무광이라 16
블라우스를 16
애매해요. 16
잘붙@@ 16
간신히 16
끝나고 16
애매한데 16
같은데, 16
보통으로 16
망설여@@ 16
차콜로 16
생각중입니다 16
생각햇는데 16
활동하기@@ 16
자른@@ 16
입어야합니다 16
길이도길고 16
따뜻해요~~ 16
트레이닝@@ 16
테이@@ 16
나요?? 16
😂 16
립 16
십니다 16
& 16
/48 16
뭉쳐@@ 16
2주는 16
입어보려고 16
놀이 16
했다면 16
시원하구 16
:&@@ 16
눌려서 16
해오 16
받았어요~~ 16
에들어요 16
이쁠거같@@ 16
편할거같아요 16
확인하세요 16
이뻐영@@ 16
잘받았습니다잘받았습니다 16
모델핏처럼 16
입어봐서 16
입으려구요.. 16
굿!!! 16
가격대비.@@ 16
맘에들어요~~@@ 16
가시@@ 16
라.. 16
입진@@ 16
받았어요^^ 16
커요~~ 16
뚱뚱한@@ 16
두꺼운건 16
날씬하면 16
늦어진다는 16
옷은예뻐요 16
달라요~ 16
얇으@@ 16
배송겁나느림 16
별로인데 16
못입을듯해요 16
2. 16
군대 16
옷인 16
베이지와 16
뻥@@ 16
주소@@ 16
는데~ 16
옷인지 16
적당한듯@@ 16
달라요@@ 16
딱이구요 16
하실듯 16
봄. 16
이도저도 16
밍 16
엉망진창@@ 16
취소할까 16
잊을@@ 16
느려요~ 16
나팔 16
시원한데 16
이쁘면 16
아방@@ 16
카라부분 16
좋습니다..@@ 16
플레어@@ 16
내요@@ 16
벌어져요 16
받고싶@@ 16
들만 16
입어야할듯.. 16
옷같은 16
헐렁헐렁 16
신경써주시@@ 16
실망이예요 16
맞아요.@@ 16
버림@@ 16
내렸@@ 16
옷안에 16
입으려구용 16
톱@@ 16
띠 16
나머지@@ 16
씬@@ 16
텐데요 16
실밥이@@ 16
눈으로 16
사이즈업@@ 16
입으렵니다 16
아...@@ 16
m이 16
이라는데 16
치면 16
기회가 16
관리가 16
많길래 16
안되있고 16
£@@ 16
엠보@@ 16
1234567890@@ 16
허리에@@ 16
않았네요 16
가을용 16
주문할까@@ 16
남자친구한테 16
사이즈표@@ 16
cm정도 16
더울듯@@ 16
p 16
보세요 16
사람인데 16
L사이즈가 16
늦었고 16
m을 16
eg@@ 16
조아조아조아조아 16
불친절@@ 16
야요 16
적당한것 16
안삿@@ 16
담요@@ 16
가디건이네요 16
지독@@ 16
은안@@ 16
커요.@@ 16
처박아@@ 16
싶네요.@@ 16
난지금@@ 16
어딘@@ 16
라운드가 16
예술 16
배송개느림 16
무겁긴하지만 16
이라기엔 16
각각@@ 16
s는 16
잘맞는데 16
그부분만 16
걸렸어요.. 16
배송준비@@ 16
수선해야 16
트레이닝복@@ 16
푸대자@@ 16
■@@ 16
보통입니다@@ 16
평균 16
와이드팬츠 16
늘어날듯 16
컷팅도 16
정사이즈입니다 16
작게나왓@@ 16
광 16
스몰사이즈 16
25-@@ 16
하비라 16
날씬이@@ 16
그점@@ 16
좋아요!!!@@ 16
허리부분은 16
다리도@@ 16
아까운 16
s가 16
부츠컷이 16
귀차@@ 16
27인데 16
통으로 16
한싸이즈 16
해외배송도 16
161에 16
바지통@@ 16
편하기는 16
일자핏@@ 16
몇군데 16
일자바지@@ 16
무거움 16
삼주@@ 16
아닌가요 16
맞나@@ 16
비린@@ 16
WD@@ 16
신발도@@ 16
뒷굽이 16
신을만 16
푹신해서 16
신기는 16
신는데@@ 16
조아요~~쪼아요 16
샀습니다@@ 15
담에또@@ 15
해서..@@ 15
리는@@ 15
벌어져@@ 15
짱~ 15
맘에드네요~ 15
가죽이@@ 15
약한@@ 15
안들지만 15
하고있어요 15
같아요~~^^ 15
탈 15
너무도 15
반딱@@ 15
그레이를 15
론데 15
정성스런 15
잘샀어용 15
내부가 15
과정이 15
수납력도 15
^_@@ 15
fd@@ 15
구매했는데...@@ 15
인치@@ 15
끊어질@@ 15
하루정도 15
그런지는 15
잘매고@@ 15
않지만@@ 15
도도 15
검수하고 15
라는건지 15
안하시고 15
딱!@@ 15
사이즈입니다 15
기저귀가방 15
탁월한 15
겠어요! 15
비싸도 15
2016@@ 15
하다가@@ 15
주문했고 15
답변해주시고 15
물품 15
프라다@@ 15
만들어진 15
연청이라 15
딱이에요~ 15
꺼같아@@ 15
일본@@ 15
가방이네요 15
블루도 15
입니다~^^ 15
불편해 15
완전예뻐요 15
없을듯@@ 15
대만족!! 15
느낌...@@ 15
앞부분에 15
다니긴 15
쵸@@ 15
개월 15
지않습니다 15
마찬가지로 15
크구 15
이예요.@@ 15
고객 15
만족해 15
있다니 15
맵@@ 15
적극추천! 15
고민했는데@@ 15
적당함 15
딱이네요@@ 15
애매하네요. 15
50자@@ 15
맙@@ 15
레드로 15
제품과 15
전부다 15
받아보고@@ 15
스탈은 15
용... 15
가까운곳 15
슈 15
^-@@ 15
어깨에서 15
빛바랜 15
트러@@ 15
땠@@ 15
건지...@@ 15
에휴@@ 15
교환하려@@ 15
고민하시는 15
다닐듯@@ 15
크리스마@@ 15
어께@@ 15
아쉬운점@@ 15
퇴@@ 15
귀찬@@ 15
사진이@@ 15
보는게 15
걱정없이 15
나일론 15
다맘에들어요 15
굿굿!! 15
들구 15
시기 15
는좀@@ 15
싸구려티가 15
스타일은@@ 15
예쁜상품 15
나빠@@ 15
중반@@ 15
싸보임 15
못하는@@ 15
츈 15
예뻐용^^ 15
코디에도 15
평들이 15
시퍼@@ 15
오묘한 15
샹@@ 15
추가구매@@ 15
편하고좋네요 15
용서@@ 15
배송빨랐구요 15
정장이나 15
가격저렴하고 15
예여 15
버킷백 15
기대한만큼 15
다! 15
좋은거같아요. 15
에코백보다 15
나은 15
절대로 15
실화@@ 15
묘@@ 15
훅 15
싸쥬@@ 15
쇼퍼@@ 15
냄새가... 15
파우치가 15
붙이고 15
이정도로 15
튼튼하네요 15
버건디 15
측 15
가녀@@ 15
한달이 15
하얗고 15
주문하길 15
조잡@@ 15
나간 15
빠르구여 15
빨랐구요~ 15
받지 15
깔고 15
괜찮았어요~ 15
하진않고 15
매서 15
저렴하면 15
구매하시는 15
배송빨라여 15
너무길어서 15
세번째@@ 15
없잖@@ 15
정성이 15
가득 15
좋을것같아요~ 15
평상시에 15
패딩이나 15
이쁩니다~~ 15
!.@@ 15
종이 15
중이라 15
니트소재@@ 15
죽 15
스러워서 15
일어나긴 15
으러 15
안아파요 15
부족한 15
낭낭@@ 15
안심하고 15
만하면 15
샀어요^^ 15
베이지? 15
커여 15
똑닥@@ 15
됬어요 15
디자인두 15
분위기가 15
남친도 15
선택이 15
이고요 15
릭@@ 15
갠찮네요 15
그저그렇@@ 15
거같네요@@ 15
빠른편@@ 15
같아요^^@@ 15
코디에 15
이.@@ 15
이쁩니@@ 15
받아봤는데 15
포장상태 15
사고파@@ 15
재구매했습니다. 15
허술하고 15
예뻤을@@ 15
같아요!!@@ 15
아, 15
금요일에 15
^~^ 15
마니파세@@ 15
매치하기도 15
사진그대@@ 15
실버 15
보기만@@ 15
작아요~ 15
테니 15
에코백이 15
어정@@ 15
무난하니@@ 15
보는데 15
내려오고 15
블랙구매 15
수있겠어요 15
찢어지@@ 15
것. 15
가치 15
답니다.@@ 15
이상해 15
추가구매 15
해준 15
먹을@@ 15
안돼요 15
괜찮았어요! 15
추리닝@@ 15
반들@@ 15
슬프@@ 15
이뻐요오@@ 15
다름. 15
좋고.. 15
여름빼고 15
크림색 15
꽂혀서 15
만족합니다!!! 15
좋았네요 15
기분좋은 15
저한@@ 15
있습니다^^ 15
두겹@@ 15
약하고 15
그거만 15
로드@@ 15
없네용 15
유럽@@ 15
벽돌색@@ 15
할듯해요. 15
흐느적@@ 15
좋네요^^@@ 15
나갈때나 15
비쌉@@ 15
갔어요 15
주얼@@ 15
강추해요 15
똑같네요. 15
갔다 15
어디든@@ 15
송송 15
야할지 15
첨이라 15
스카프 15
틀 15
빨랐고@@ 15
그대로에요~ 15
했어요... 15
슝@@ 15
10월 15
이뻐유 15
조리@@ 15
잘어울림 15
이면@@ 15
네모@@ 15
ᄋ@@ 15
다음주 15
제질이@@ 15
귀요@@ 15
심심@@ 15
길구요 15
줄여야@@ 15
빠른배송이@@ 15
포장에 15
받았어요.@@ 15
몬가 15
비칠 15
반품할까하다가 15
됐어요. 15
한? 15
드는게 15
츄리닝@@ 15
><@@ 15
궜@@ 15
어요~! 15
홑@@ 15
그것보다 15
무난하면서 15
매칭이 15
이쁜듯@@ 15
슺니다 15
것두 15
무지무지 15
8월@@ 15
만족스러운데 15
센스 15
눈여@@ 15
♥♥ 15
이보다 15
새하얀 15
나와있어서 15
형이라 15
비싸다고 15
코코아 15
욤~ 15
셨는데 15
니까.. 15
멈@@ 15
주문했었는데 15
늦어졌지만 15
조심히@@ 15
구는 15
봣어요 15
이뻐요!!@@ 15
많이파시@@ 15
몇년@@ 15
가격대비짱 15
사긴@@ 15
카키를 15
~너무 15
신경쓰이네요 15
질렀는데 15
싹 15
만족입니다.@@ 15
것만빼면 15
죵@@ 15
재질인줄 15
하세요~~ 15
파세요~~~ 15
죠아용 15
있고. 15
어중간하고 15
밝은색 15
너무좋아요. 15
볼까 15
어려운@@ 15
까칠한 15
못봤@@ 15
생각하던@@ 15
그걸 15
베이지색으로 15
앞뒤가 15
데일리하게 15
잏@@ 15
예쁜건 15
보여요... 15
좋을듯하네요 15
느낌~ 15
지는데 15
진짜이쁘네요 15
만족스런 15
어둡지도 15
검은색이랑 15
생각한것 15
검수해서 15
❤️@@ 15
제가찾던@@ 15
헌데 15
당분간 15
슬림해서 15
색상두 15
바로바로 15
한치수작게 15
교환하려다 15
나왔습니다. 15
개이쁨 15
아프긴한데 15
비즈 15
편하네요~~ 15
좋았어요~@@ 15
신어보진 15
신으려면 15
좋아요오오오 15
그럴 15
재구매했어요~ 15
언제오@@ 15
변형이 15
아프긴 15
자칫@@ 15
발은@@ 15
신기도 15
보이는것과 15
어도@@ 15
걸렷어요 15
불편하지않고 15
부츠에 15
만더 15
들어요~~^^ 15
아픈데 15
불편함을 15
기전 15
소재, 15
칼배송이@@ 15
사이즈라고 15
디자인이나@@ 15
생길것 15
가을부터 15
같구요~ 15
/68 15
브이넥도 15
어깨쪽 15
벙 15
좋진않@@ 15
배송전에 15
길어요@@ 15
정도도 15
평범하고 15
칙칙하고 15
밑부분이 15
드림 15
아쉽.. 15
다녔네요 15
반폴라@@ 15
될거같네요 15
커플룩으로 15
착해요 15
조아요오오 15
고마워요 15
받쳐입으니 15
이쁩니다요 15
뽀송뽀송@@ 15
금액대비@@ 15
좋네오 15
핑크고 15
많이파시고 15
감. 15
하네요.... 15
괜찮았고 15
구매했어용 15
보풀일어날@@ 15
니트티 15
배송도빨라서 15
잘입고있습니다. 15
타이트하지 15
사알짝 15
6월@@ 15
못사@@ 15
외투안에 15
피트@@ 15
있네여 15
개요 15
웜@@ 15
들어요~! 15
따갑지 15
173 15
날씬해보이고@@ 15
좋고요. 15
크더라구요 15
품절이라@@ 15
재질좋아요 15
한줄 15
챠콜 15
독특해요 15
돌리고 15
입고다니고 15
벽돌색 15
일어나지 15
입어야되@@ 15
이만하면 15
니트인데 15
따듯 15
지않아요@@ 15
따듯하네요 15
있다고@@ 15
세탁이 15
속옷도 15
끝부분이 15
어울려요! 15
노멀@@ 15
속은@@ 15
단정한 15
븜 15
는듯@@ 15
을때마다 15
날려서 15
배꼽이 15
커서그런지 15
뭣보다 15
과한 15
이뻐여~~ 15
구입할까 15
옆라인이 15
뒤집어 15
또샀어요 15
1회@@ 15
할것같네요 15
같은옷 15
비침이@@ 15
딸아이 15
여리여리하게 15
느리긴했지만 15
컬러를 15
노란빛이 15
박시하니 15
비추합니다. 15
짧네요@@ 15
넥라인도 15
참았@@ 15
어중@@ 15
그것빼고는 15
롤업해서 15
정도고 15
에서나 15
설마 15
하신거 15
무조@@ 15
력이 15
110 15
흐흐 15
1번@@ 15
늦을 15
실밥정리 15
앙고라라 15
모르겠지만@@ 15
따뜻하기@@ 15
넘는@@ 15
뜹@@ 15
싫어 15
어려워요 15
좋아요조아 15
늦네요. 15
에나@@ 15
예뿜 15
온건 15
믹스@@ 15
확인안하고 15
얇았@@ 15
짧구 15
빠른편이구요 15
예쁘니 15
인요 15
모르게@@ 15
×@@ 15
다른컬러@@ 15
보일수도 15
배꼽 15
1월@@ 15
값을 15
날개@@ 15
잘입고다닙니다 15
입고있어요@@ 15
코디컷@@ 15
목선 15
겨드랑@@ 15
혼방@@ 15
사고싶어요. 15
하의는 15
추천안합니다 15
흔한@@ 15
들도@@ 15
브라우스 15
안예쁘고 15
넓지 15
접고 15
비치는데 15
덥겠어요 15
만족하면서 15
djj@@ 15
는지.. 15
인듯합니다 15
여름에입기@@ 15
한철입기@@ 15
원단좋고 15
입어보구 15
알았는데, 15
후기들처럼 15
생각중이에요 15
아니에요.. 15
귀염 15
청바지랑@@ 15
느낌나는 15
박스티 15
입은건 15
뚱 15
한번만 15
안나올@@ 15
줍@@ 15
겟 15
다림질도 15
다른분들이 15
올라가는 15
생각과는 15
욯 15
올려도 15
셋트로 15
븝@@ 15
무난히@@ 15
나뿌@@ 15
움직임@@ 15
텐데..@@ 15
코디해@@ 15
맞나 15
입고다니기@@ 15
남는@@ 15
내요~ 15
짧은감은 15
고급스러움 15
가격값해요 15
더운감이 15
부드러움 15
155인데 15
로즐리 15
오늘도 15
아직입어보진않았지만 15
더이쁘네요 15
려니@@ 15
펴서 15
엉덩이까지 15
F 15
보석@@ 15
입을수있@@ 15
밥 15
가슴은 15
입고지연으로 15
색상이네요 15
꼐요 15
괜찮다 15
같다 15
였구요 15
써주세요 15
작살@@ 15
상품평도 15
문의하고 15
1-@@ 15
완전이쁨 15
잘샀다고 15
만... 15
없구요. 15
보이는대로 15
잘일어날@@ 15
입어질것같아요 15
흔히 15
재봉 15
괜찮았습니다. 15
레깅스도 15
문의해도 15
한옷 15
빠른편 15
잘입게@@ 15
타이트하게@@ 15
살아요 15
손목이 15
할걸@@ 15
왔네여 15
인가? 15
추울거 15
사진속@@ 15
감수하고 15
파진@@ 15
보온도 15
삿다가 15
추워져서@@ 15
물빠진@@ 15
시킨건데 15
하는게@@ 15
권장@@ 15
추위에 15
팝@@ 15
안했을@@ 15
올해도 15
1년@@ 15
입어져요 15
재주문 15
따뜻하긴해요 15
어깡@@ 15
용도 15
해도해도 15
탓에 15
감이있네요 15
느렸네요 15
디테일은 15
르륵 15
소녀@@ 15
만족합니다~~~ 15
UD@@ 15
hj@@ 15
참고하시길@@ 15
꺼는 15
더군요@@ 15
핏이뻐요 15
배소@@ 15
원피스위에 15
너무느려서 15
꺼내서 15
다행입니다 15
실패 15
옷이라서 15
만족합니딘 15
완벽한 15
같은걸로 15
품에 15
마감부분이 15
날듯 15
’ 15
쪽에서 15
맞고요 15
따뜻해요^^ 15
하네용@@ 15
되진 15
요가@@ 15
두껍지도않고 15
어중간 15
그저그런듯 15
건아니지만 15
싸면 15
잖아요. 15
커피@@ 15
집업@@ 15
회색빛이 15
눌렀@@ 15
싼맛에입어요 15
그렇긴 15
무엇@@ 15
32 15
없었고 15
전화해서 15
뎌 15
루즈해요 15
랴요 15
있어보여요 15
누빔 15
활동하기도 15
얇으면 15
표시가 15
픔 15
박음선이 15
하진않네요 15
무릎정도 15
만족을 15
옆라인 15
별로네여 15
것같구 15
쏘쏘하네요 15
없애@@ 15
괜춘합니다 15
길어요.. 15
넉넉하네요. 15
히히히 15
얇다고 15
기대보다는 15
들었네요 15
가슴도 15
시원함 15
사람을 15
넉넉하지 15
스트레@@ 15
실때 15
하얗게 15
있엇@@ 15
ey@@ 15
초여름에 15
77사이즈 15
긴것 15
사이가 15
별로일@@ 15
추천안해요 15
편에 15
습니당!! 15
빨면@@ 15
배송빨라요. 15
나온듯해요 15
하늘하늘해서 15
뭐라고 15
입어요! 15
안입어봤@@ 15
기대에 15
둘레도 15
촌스러울@@ 15
움직이면 15
불면 15
앞으로는 15
붙어있는 15
촤르륵 15
할때나 15
안맞는@@ 15
이상해@@ 15
엄청나요 15
말고는@@ 15
합니다...@@ 15
안입었는데 15
박음질이@@ 15
러플이 15
네이버페이 15
했다 15
가려지고 15
동일하게 15
실오@@ 15
옷인줄 15
정신@@ 15
언니처럼 15
진않음 15
버렸어요. 15
티셔츠에요 15
하지만. 15
그런가.. 15
하다. 15
하이웨이스트@@ 15
그럭저럭요 15
괜찮을꺼 15
그냥그렇@@ 15
가오리핏@@ 15
생각하고@@ 15
76 15
버리네요 15
튿@@ 15
잠옷 15
어떻@@ 15
거같아서@@ 15
~!@@@ 15
적극추천!! 15
입고다녀서 15
카타@@ 15
456@@ 15
끼어요 15
맞고, 15
가겨대비 15
모델이랑 15
내의@@ 15
입는분들은 15
좋아합니다 15
계 15
걸쳐서 15
sjsj@@ 15
flk@@ 15
보냄 15
않네여 15
기다리는@@ 15
사야지 15
마인@@ 15
바캉스@@ 15
사도@@ 15
모르겟네요 15
너무좋아요핏도이쁘고 15
줄어든@@ 15
댄@@ 15
땀차@@ 15
--;; 15
핏은이뻐요 15
날씬해보입니다 15
택배를 15
봄날씨에 15
졌네요. 15
그냥은 15
xg@@ 15
엉성하고 15
여쭤@@ 15
결과@@ 15
쓰레@@ 15
가나다라마바@@ 15
일할때@@ 15
오래걸림@@ 15
편할듯 15
라이더 15
괜찮은거같아요~ 15
감안하고@@ 15
짧은지 15
하구.. 15
심히 15
탄탄 15
토요일에 15
트렌@@ 15
정직@@ 15
하루입었는데 15
팔면 15
까슬거려요 15
지연되서 15
무료배송이@@ 15
좀.... 15
입을랍니다 15
xs@@ 15
네오프렌@@ 15
느리고, 15
흑 15
다이어트 15
고.... 15
안나는데 15
12341234@@ 15
받았네요.. 15
8일@@ 15
한통@@ 15
도없이 15
한쪽으로 15
마음에드는데 15
묻어있고 15
153@@ 15
걷다보면 15
움직임이 15
미디가 15
타이즈@@ 15
괴안@@ 15
바지인데 15
츄리닝 15
진짜조아요조아요조아요@@ 15
신었는데도 15
된다 15
진청은 15
우네요 15
화면과는 15
신경써주세요 15
아파요. 15
청바지를 15
고려해서 15
사이즈가.. 15
보통보통보통보통@@ 15
코트로 15
실망스럽네요. 15
하... 15
새신발 15
본드칠@@ 15
발바닥도 15
뒷꿈치도 15
앞코가@@ 15
미끄러워서 15
싸이하이@@ 15
개느림 15
욤! 14
☆ 14
을정도로 14
댕강@@ 14
부드러워서@@ 14
저것 14
깜찍하고 14
환불이 14
무난하구요 14
지갑을 14
가...@@ 14
안닫@@ 14
칙칙해요 14
가볍고좋아요 14
하다보면 14
쓸만해요 14
천연@@ 14
쓰려@@ 14
쫌만 14
클러치@@ 14
간편히 14
톤다운된@@ 14
새거라 14
좋구요~@@ 14
톡으로 14
했으니 14
dyo@@ 14
000@@ 14
수납은 14
술 14
비뚤@@ 14
바꿀@@ 14
용이@@ 14
부탁 14
매치도 14
2가지 14
가방입니다 14
서류@@ 14
즐거운 14
검 14
지도않은 14
구매할걸 14
잡기가 14
만족스럽습니다! 14
멋져@@ 14
향 14
캔@@ 14
밝지도 14
령 14
않습니다@@ 14
놀랬지만 14
어요~~^^ 14
가볍고, 14
~~~^^@@ 14
듯~@@ 14
을때가 14
힘없이 14
고민중이@@ 14
배송빨리@@ 14
니요 14
오후 14
여행용 14
이번에@@ 14
수있고 14
망가질@@ 14
왔네요@@ 14
과도 14
와이프@@ 14
스팽글도 14
블루색상 14
나들이@@ 14
줄도 14
지퍼나 14
진작에 14
막들고 14
신경써야 14
드신@@ 14
실망. 14
힝@@ 14
도많고 14
잘쓰고 14
이쁘거나 14
럴 14
보는거랑@@ 14
가볍습니다. 14
짐을 14
구매하는게 14
쉽지 14
하지않음 14
다양해서 14
아무곳@@ 14
되었네요. 14
판매자님의 14
펀칭 14
동대@@ 14
쌍@@ 14
끈길이가 14
본드로 14
쥔@@ 14
가방이라 14
같았어요 14
생가@@ 14
실망시키@@ 14
가죽냄새는 14
보내주시면 14
^-^@@ 14
화면상이랑 14
나는거@@ 14
살수 14
예전부터 14
않고. 14
메기 14
쿠션 14
깔끔하게@@ 14
저렴하다@@ 14
해당 14
껑@@ 14
늦은거@@ 14
해여~ 14
같습니다.. 14
에러@@ 14
여행갈때@@ 14
짱좋아요 14
다른상품도 14
나네요... 14
봄날에 14
네. 14
나쁘지않은@@ 14
좋아하시@@ 14
스크레치가 14
좋았어요~~ 14
이쁘데요 14
했어요~~ 14
힘들거 14
얊@@ 14
어딜@@ 14
수요일에 14
다음주에 14
완전만족합니다 14
감사합니다~~~ 14
제품들 14
대비해서 14
내스타일@@ 14
보는거와 14
몇달@@ 14
어깨에@@ 14
스티커@@ 14
감사합니다.. 14
댕기@@ 14
좋아하네요. 14
색깔이라 14
느껴져요. 14
참고하셔@@ 14
불편. 14
격식있는 14
자리 14
아쥬@@ 14
안나고@@ 14
검정도@@ 14
물어보네요 14
안좋@@ 14
57@@ 14
4848@@ 14
산거라서 14
굳입니다 14
차려입은 14
꽃샘추위@@ 14
결국은 14
길거리@@ 14
구나@@ 14
맞네요! 14
값어치 14
가죽도@@ 14
하고좋아요 14
저렴하게잘샀어요 14
넓어서@@ 14
뻥 14
가운데@@ 14
이네요~@@ 14
크네요~~ 14
흘러@@ 14
시간은 14
연출 14
할수도@@ 14
이지만@@ 14
키큰분들은 14
어케 14
빠지지만 14
뭐..@@ 14
궁금하네요 14
뿜뿜@@ 14
냄새같은게 14
튀고 14
애매하지만 14
원래는 14
아니니까 14
페인@@ 14
갓 14
일년@@ 14
손편지에 14
너무마음에들어요 14
되었어요. 14
링이 14
러블리하고 14
러플@@ 14
최악임 14
층@@ 14
바스락거리는 14
..너무@@ 14
달려있고 14
어질@@ 14
특이하고@@ 14
움을 14
그레이색상 14
너무예쁩니다 14
바람불@@ 14
베리굿 14
다니다 14
안들어가서 14
겧@@ 14
걸칠수 14
금요일@@ 14
토요일@@ 14
화요일에 14
잇을 14
적어요 14
푹신푹신 14
이가@@ 14
셋트@@ 14
흔치 14
따뜻해보이@@ 14
대만족! 14
길이라서 14
손가락@@ 14
이뻐욧@@ 14
유연@@ 14
걱정했었는데 14
있을거같아요@@ 14
엉성해서 14
딱좋아요! 14
가벼워요~ 14
잘나온@@ 14
작네여 14
가없@@ 14
싸구려티 14
들어있고 14
가능합니다. 14
엄청빠르고 14
여기저@@ 14
될까 14
부족으로 14
밟@@ 14
전혀없고 14
마이 14
아이보리와 14
참고하세여 14
비싸보이@@ 14
평처럼 14
트렌디@@ 14
수선집가서 14
냈어요 14
겠어요~~ 14
만족합니다..@@ 14
싸구려같아요 14
크다는@@ 14
감사히@@ 14
조심해야겠어요 14
바람도 14
랗게 14
사탕도 14
메인@@ 14
방치@@ 14
없다면 14
연락없이 14
교환이나 14
반품했을@@ 14
조아요.. 14
흥@@ 14
감사드립니다@@ 14
유니크하고 14
이라도@@ 14
구매한건데@@ 14
하던지 14
무료 14
빠르네요! 14
무늬는 14
이것보다 14
긴하지만.. 14
괜찬항@@ 14
많이해서 14
면... 14
엣@@ 14
있고... 14
카메@@ 14
지에서 14
좋은것같@@ 14
봅니다@@ 14
기다려야@@ 14
예뻐요~!! 14
불랙@@ 14
아니라서@@ 14
종류 14
더럽@@ 14
반품할려다가 14
여름옷 14
통을 14
본드가 14
크고.. 14
다른사람@@ 14
실물이더@@ 14
블랙했는데 14
작아보여요 14
너무나요 14
넘어서@@ 14
색상과는 14
하고,@@ 14
너무이뻐요!! 14
길지않아 14
제목@@ 14
로그@@ 14
5월 14
착용해보니 14
좋았을꺼 14
디자@@ 14
이도@@ 14
느낌적인 14
잘받았습니다~~ 14
놀랬는데 14
날림 14
편지@@ 14
이뻐여^^ 14
조심스럽@@ 14
그레이와 14
대신에 14
쁜@@ 14
없더라구요 14
힘드네요. 14
예뻤는데 14
첫구매인데 14
흉@@ 14
평에 14
아무렇게나 14
포인트가@@ 14
보게 14
괜찮은거같아요. 14
사세요!! 14
지않네요. 14
좋았겠다 14
꼭사세요 14
얇은편인데 14
하얀색이 14
그저그래요.. 14
마감도@@ 14
세요^^ 14
교환안하고 14
*_* 14
있을꺼같아요 14
남색도 14
널널해요 14
두꺼운게 14
폼도 14
좋으네요.@@ 14
고민하다가@@ 14
은거@@ 14
나그@@ 14
있겠어요~ 14
bb 14
안정감 14
까다@@ 14
걱정했지만 14
저렴이로 14
컬러와 14
화면만큼 14
레터링이 14
부착@@ 14
왔어요! 14
거짓말@@ 14
결제하고 14
더라고요@@ 14
입금하고 14
사준건데 14
걱정도 14
비교해보고 14
비슷합니다 14
한데도 14
나갔어요 14
좋아하시면 14
라구요 14
아아아 14
샀냐@@ 14
요~~! 14
야할듯요 14
빨랐고, 14
ty@@ 14
px; 14
ont@@ 14
햇음 14
상이@@ 14
핑크색이@@ 14
싼티납니다 14
든든@@ 14
이쁘네용~ 14
딱좋아요~ 14
^__@@ 14
블랙구매했는데 14
넉넉한거 14
엽@@ 14
해보이는데 14
♥️ 14
약하네요 14
어머니가 14
xu@@ 14
괜챃@@ 14
좋을거같아요~ 14
살지 14
여름에도@@ 14
칼로 14
음~~ 14
튀어서 14
기본이고 14
됐지만 14
쉽게@@ 14
주시는 14
좋아요.... 14
잘맞습니다 14
접히는@@ 14
귀찬아 14
신습니다 14
안타까@@ 14
좋습니다!!! 14
아여@@ 14
세무@@ 14
좋습니다~! 14
딱조아요 14
그냥괜찮아요 14
기성@@ 14
화면과같아요 14
내려가서 14
관찮@@ 14
좋으네요@@ 14
싶어요^^ 14
230인데 14
감싸줘서 14
조아요~~~ 14
굽높이도 14
수술 14
높은굽@@ 14
보여여 14
거같아욤 14
모임에 14
뒷굼@@ 14
가지만 14
잘맞고@@ 14
이예요~@@ 14
냄새인지 14
가격도착하고 14
너무만족해요 14
상담해주셔서 14
두줄@@ 14
얼 14
괜찮아요오 14
그랬나 14
여튼@@ 14
쓸만합니다 14
이쁘고. 14
숩니다 14
생각했던것보다@@ 14
발견했는데 14
노노@@ 14
파시길 14
핑크색은 14
인디 14
추천함@@ 14
타이트합니다. 14
가을엔 14
퀄리티가@@ 14
겨울내 14
살꺼@@ 14
팔꿈치 14
괜찮구요. 14
편이구요. 14
부담스러워요 14
꽉껴@@ 14
추웠@@ 14
여러장 14
터틀넥 14
해서그런지 14
보카@@ 14
줄었어요 14
얇은게 14
주문하세요@@ 14
니트입니다 14
입고나가면 14
컬러감은 14
그냥그런@@ 14
난감 14
상체에 14
입니더 14
의류@@ 14
동해물@@ 14
안비치고 14
와인색이 14
만족했습니다. 14
늘어났어요 14
임신 14
아쉽네요.@@ 14
슬림핏이라 14
따뜻했어요 14
입었을때도 14
어리@@ 14
하의랑 14
안남@@ 14
릉 14
68 14
까슬한 14
왔어요... 14
면티에 14
해. 14
두껍습니다. 14
큽니다.@@ 14
불편하지는 14
받았습니다~~ 14
줄어든 14
잘입고있어요. 14
행복하세요 14
이쁘긴하네요 14
못했네요 14
임! 14
똥배@@ 14
짱이뻐요 14
프리사이즈인데 14
받쳐서 14
다른제품도 14
2년@@ 14
176에 14
이런옷은 14
봤어요. 14
나쁘지않아요. 14
좋을거같아요. 14
그러진 14
용~~@@ 14
주려구요 14
챙겨 14
해야할것같아요 14
싼티나요. 14
털을 14
아닌데.. 14
택배회사@@ 14
빨래해도 14
다리미로 14
다른거같아요 14
짧기는 14
맞춘@@ 14
긴하네요. 14
다듬@@ 14
외출복으로 14
보들보들해요 14
보긴 14
꺼같아용 14
소매부분은 14
'-@@ 14
다잘어울려요 14
또한@@ 14
소매는@@ 14
기장감은 14
뛰@@ 14
날씬해보이진 14
다거나 14
딱붙는 14
특별한 14
짧네용 14
번창하세여 14
라벤@@ 14
덥겠지만 14
이에오 14
아직입어보진 14
원피스로 14
ver@@ 14
한철용 14
산뜻하게 14
기로@@ 14
보내달라@@ 14
쌩@@ 14
샀는데...@@ 14
까끌거려요 14
시즌에 14
꿈@@ 14
올리네요 14
정확하게 14
부해보이지만 14
좋네요... 14
^^. 14
뎃@@ 14
아끼@@ 14
가요? 14
사는게@@ 14
일주일이나 14
붙은 14
3벌@@ 14
어쩔수없지만 14
들처럼 14
ᆞᆞ 14
두번째구입@@ 14
마른분이 14
접어도 14
니트소재라 14
봄,가을에 14
4/@@ 14
잘입어지@@ 14
네크라인 14
숙이면 14
블루종@@ 14
넘좋네요 14
옷자체 14
있는부분이 14
까먹고 14
별로인것 14
저녁 14
다이@@ 14
짧네여 14
질좋은 14
lo@@ 14
쪼글@@ 14
해보여요@@ 14
해줘야 14
파이긴 14
하나씩@@ 14
무엇보다@@ 14
골지가 14
제게 14
오랫@@ 14
널널하고 14
레알 14
맘에들아요 14
과해서 14
단독세탁@@ 14
섬유유연@@ 14
텔@@ 14
상품이네요 14
느낌있어요 14
후회중@@ 14
입으면서 14
그럭저럭입니다. 14
남기네요 14
특성@@ 14
dv@@ 14
상세컷@@ 14
중순@@ 14
퍼프소매@@ 14
마른사람은 14
여러번@@ 14
사고싶은데 14
남방이나 14
세련되어 14
섞여서 14
얇은편이고 14
낙낙해요 14
빨랐고요 14
아니라면 14
복불@@ 14
입었어용 14
화면에서는 14
보시는@@ 14
귣@@ 14
비치지만 14
입을께요~~ 14
입기좋아요. 14
요용 14
입어질거같아요 14
핀 14
만족합니더 14
도톰한데 14
짱짱맨 14
저렴해보이네요 14
부해보이지않고 14
스프@@ 14
이뻣을@@ 14
보여요~@@ 14
깔끔하진 14
맞네요.. 14
는지도 14
받았을때@@ 14
FI@@ 14
크네요~@@ 14
맵시가 14
임다 14
괜찮네요..@@ 14
유독 14
편입니다.@@ 14
빠집니다. 14
파졌어요 14
꺼라고 14
원이라 14
원플러스 14
오빠@@ 14
cm, 14
찾게 14
거같기도 14
두께감에 14
예쁘지도 14
와이셔츠@@ 14
드리니 14
딸기@@ 14
바이@@ 14
한달을 14
여름부터 14
오래입을@@ 14
원플원이라 14
볼게요 14
묶는@@ 14
얇아요..@@ 14
이가격 14
이상이@@ 14
전체적인@@ 14
느낌?? 14
이라기보다 14
코트속에 14
무리없이 14
된다면 14
괜탆@@ 14
높게 14
소매길이 14
나옵니다. 14
그저그런@@ 14
바지입고 14
cv@@ 14
퉁퉁@@ 14
나봐요@@ 14
옆트임 14
봄에나 14
단추만 14
왔습니다.@@ 14
자고 14
뷔스티@@ 14
am@@ 14
에요..@@ 14
유니클로 14
1주@@ 14
12월@@ 14
횽@@ 14
옷이쁘네요 14
옷.. 14
걸렸구요. 14
굼 14
11월 14
너무이뻐요~ 14
입고벗기 14
거칠어서 14
어색한 14
올라와 14
어어 14
괜찬은데 14
그냥입음 14
이뻐오 14
무난해여 14
혼용@@ 14
입었습니다.@@ 14
배송... 14
까지는@@ 14
입고싶어요 14
가슴둘레가 14
재구매해요 14
깨요 14
쏘쏘~ 14
페이크 14
상태라 14
빠지네요. 14
후에도 14
나요... 14
코디해서@@ 14
제키@@ 14
웰론@@ 14
안입는@@ 14
스팀다리미로 14
버리기 14
생각만큼@@ 14
품은@@ 14
충전재@@ 14
플러스 14
커보이네요 14
나는건 14
괜찮아요~^^ 14
꺼려@@ 14
기본티에 14
실수 14
그런데로@@ 14
티입니다 14
사드렸어요 14
같음@@ 14
확실히@@ 14
마법@@ 14
되잇어서 14
느데 14
갑자기@@ 14
L사이즈로 14
겹쳐 14
웬만@@ 14
;8@@ 14
❤@@ 14
싸길래 14
같네요~@@ 14
생각보다... 14
2~3@@ 14
왠 14
색감에 14
체구 14
작으신분들은 14
장시간 14
아니고... 14
통통해 14
마찬가지@@ 14
매장에 14
괞찬@@ 14
키크신분들 14
도..@@ 14
맞네요^^ 14
안했@@ 14
하는것도 14
입고지연@@ 14
하고싶은데 14
네영@@ 14
반갑@@ 14
이였어요 14
풀리네요 14
입으셔야@@ 14
퍼프가 14
지금입긴 14
팔은@@ 14
보이면서 14
일정도 14
너무크@@ 14
넉넉하게@@ 14
스타일이나 14
러브@@ 14
걸치는 14
자꾸만 14
생각했는데@@ 14
전달@@ 14
거적@@ 14
같아여@@ 14
50키로 14
걸리적@@ 14
제민천하 14
그럼.. 14
받쳐입으려고 14
지났@@ 14
금액도 14
너풀@@ 14
갠춘해요 14
다림질이 14
괜찮은거같네요 14
아니고..@@ 14
용!!! 14
입어야지@@ 14
적나라하게 14
남방이 14
봐서@@ 14
굿.@@ 14
천의 14
입고벗을때 14
적정@@ 14
추천합니@@ 14
수선해@@ 14
까끌거려서 14
보내주셧@@ 14
그래요.@@ 14
잘가요 14
구김안가는 14
저렴하여 14
맞아용 14
한여름까지 14
했으나@@ 14
단추에 14
나봐여 14
괜찮습니다! 14
이쁜지 14
되었고 14
아니였지만 14
팍@@ 14
세미 14
탸@@ 14
커용 14
라지만 14
촤@@ 14
사보고 14
파였네요 14
뭐랄까@@ 14
별로였어요. 14
적극추천합니다....@@ 14
한달걸림 14
가까움 14
보내달라고 14
잘입을게요!! 14
얇구 14
허나 14
뭔가요 14
자주는 14
그것말고는 14
오고@@ 14
세요! 14
보통인@@ 14
없네요..@@ 14
아닌것이 14
접히는 14
프리라 14
비쌈@@ 14
빵빵한 14
하기엔@@ 14
줄어들어서 14
줄어듬 14
멋지네요 14
죄송하다는 14
7부 14
한번도@@ 14
아쉬워서 14
열받@@ 14
찐한 14
반드시 14
아닌거같고 14
파네요 14
쪼이는 14
같은게@@ 14
입으시는분들은 14
있더라고요 14
떠 14
넨@@ 14
편하기도@@ 14
67@@ 14
구매했으나 14
취소할까@@ 14
활동성이 14
보지도 14
초에 14
딴데보다 14
핏이좋아요 14
헨리@@ 14
핏도좋고@@ 14
정싸이즈 14
핏이이뻐요 14
여러벌 14
떨어져요. 14
네네@@ 14
팔랑@@ 14
오버사이즈라 14
별로라서 14
너무너무너무너무@@ 14
스판끼있어서 14
오십@@ 14
큰일날@@ 14
재봉이 14
s사이즈@@ 14
여기서만 14
-8@@ 14
편하다고@@ 14
꼼꼼하지 14
될것같아요@@ 14
구입하세요 14
에겐@@ 14
어려운데 14
인이 14
보통보통@@ 14
주글@@ 14
나..@@ 14
구매자 14
맞아요^^ 14
잠글@@ 14
안어울려요 14
2일만에 14
나면서 14
옷재질이 14
한단@@ 14
갗@@ 14
티셔츠도 14
여름가디건 14
가디건이라 14
그런지.. 14
헐렁 14
입어야겠네요. 14
내서 14
압박@@ 14
버렸습니다 14
어떻게보면 14
이상해요. 14
엉뚱@@ 14
빨랐지만 14
지하상가@@ 14
다해도 14
한마디 14
그지@@ 14
답변은 14
배송해주@@ 14
8부 14
쇼핑몰에 14
하나.. 14
짧으니 14
감이있지만 14
어정쩡한@@ 14
이네요..@@ 14
큰편인데도 14
치렁@@ 14
중국산 14
목선@@ 14
별로인거 14
뭐라 14
♥️@@ 14
완전편하고 14
보여요^^ 14
느리다고 14
할듯... 14
불친절 14
인가봐@@ 14
두둑 14
입습니다.. 14
고민이네요 14
얇은듯 14
잡아주지 14
잘늘어나서 14
눅@@ 14
m은 14
편한것 14
별루.. 14
죠~ 14
밑단이@@ 14
없는걸로 14
칙칙한@@ 14
쫀득@@ 14
뭡@@ 14
때메 14
잘라 14
파우치로 14
붓@@ 14
좔 14
반품하려고 14
시켯더니 14
발목에 14
엉덩이쪽이 14
그러면 14
완전편해요 14
M사이즈가 14
보냈다고 14
바지입니다. 14
다리라인 14
라지사이즈 14
그렇다치고 14
27~@@ 14
치마는@@ 14
셔서@@ 14
카고@@ 14
입어보려구요 14
줄여야 14
44사이즈인데 14
불편해요.. 14
남는데 14
스판이라서 14
텅@@ 14
m사이즈가 14
크게나왔어요 14
되는듯 14
너무느림 14
진청이 14
사셔@@ 14
오른쪽이 14
교환까지 14
올겨울@@ 14
많이크네요 14
터졌어요 14
2주넘게@@ 14
항공점퍼 14
왜케@@ 14
난감하네요 14
신어야겠어요 14
애나멜@@ 14
높지 14
물집이 14
230~@@ 14
볼은 14
반품안함 14
엉망입니다. 14
귀차나 14
부드럽긴한데 14
괜찮구요~ 13
안성맞춤@@ 13
쓰려구요 13
♡♡♡♡ 13
이였는데 13
백에 13
하나, 13
들고다녀@@ 13
자동@@ 13
상큼한 13
구입해 13
하네요, 13
휴대폰@@ 13
알차게 13
너요 13
올봄 13
에. 13
여닫@@ 13
가죽에 13
있었으면@@ 13
모가 13
곰팡@@ 13
신문@@ 13
다님@@ 13
견 13
맑@@ 13
다자인은 13
넘. 13
깔끔해요~ 13
한것이 13
같은느낌 13
스에 13
잠그는 13
넣기가 13
결정 13
굿초이스 13
겨자색@@ 13
악세사@@ 13
베란다@@ 13
츠 13
릅니다 13
샀어여 13
조금만더@@ 13
소비자 13
데일리가방으로 13
작을줄 13
아쉬움. 13
기에도 13
구겨지는@@ 13
세요~~ 13
나게@@ 13
알았는데.. 13
여러군데@@ 13
스도 13
쓰겠습니다 13
평상시@@ 13
사항 13
겠어요.. 13
불룩@@ 13
멋스러운 13
좋은거같아요~ 13
것이라 13
쓱 13
백프로 13
데리고 13
음에 13
아담한 13
거란 13
괜찮은데..@@ 13
세가지@@ 13
동안은 13
크기는@@ 13
죠... 13
덕분@@ 13
짱짱! 13
반값@@ 13
잘산거같아요@@ 13
썼는데 13
짱인듯 13
배송오자마자 13
한달만에@@ 13
장님@@ 13
제가원하던 13
쓰다보면 13
사이즈며 13
오픈 13
배송된@@ 13
색상이라서 13
끈부분이 13
포인트되서 13
잘들@@ 13
브로@@ 13
이안@@ 13
아닐까 13
5만원 13
야하는데 13
모양으로 13
찾으신다면 13
큰기대@@ 13
시려@@ 13
짧고..@@ 13
조아요~@@ 13
색깔도이쁘고 13
타입이라 13
구여~ 13
흐물거려요 13
컷으면 13
편하기까지@@ 13
아주예뻐요 13
그렇다 13
사유@@ 13
받았습니다~@@ 13
가격대의 13
기계@@ 13
넝@@ 13
엄마라 13
보이면 13
여행가방으로 13
소재며 13
외로 13
느므 13
샘@@ 13
트는 13
느껴져@@ 13
배송상태@@ 13
드러요 13
왔다갔다@@ 13
도움@@ 13
들리@@ 13
비슷하네요 13
납작@@ 13
너무이뻐요. 13
얇기@@ 13
워요.. 13
만족해요.. 13
무척이나 13
셜@@ 13
구김없이 13
내용물이 13
뭐하나 13
합성@@ 13
좀크지만 13
예뻐요!!@@ 13
참조하세요 13
비싸 13
짐이@@ 13
레드도 13
좋아합니다. 13
다닐때@@ 13
됫는데 13
괜찮겠죠 13
합성피혁@@ 13
믿기@@ 13
입장에서 13
댄디@@ 13
지경@@ 13
고동@@ 13
매끄럽@@ 13
다니기는 13
브릭@@ 13
돼요. 13
맘에드러요 13
재질임 13
너무이@@ 13
굿~~~@@ 13
만족스러워요@@ 13
진자 13
륭 13
부분이라 13
바꼈@@ 13
멋이 13
거예요. 13
이었습니다 13
최애@@ 13
부탁해서 13
반짝 13
싸쥬 13
하셔야할듯 13
아닌가요?@@ 13
빠졋@@ 13
부담없이@@ 13
폐@@ 13
싶엇는데 13
적당해요~ 13
등등@@ 13
사악@@ 13
훤@@ 13
구매하여 13
했던거 13
여행시 13
수있게 13
올려요 13
괜찮은거같아요@@ 13
가방만 13
반짝이가 13
사네요 13
에코백은 13
걸어두고 13
있습니당 13
시크한 13
햐서 13
좋아보여서 13
샀었@@ 13
환한 13
해보였@@ 13
...! 13
요새는 13
뒤지@@ 13
느낄 13
대는 13
귀여우면서 13
감에 13
예뻐요예뻐 13
활용성이 13
바닷@@ 13
마세요. 13
어나@@ 13
쳐다@@ 13
나이들어 13
편안하게@@ 13
예쁩니다~@@ 13
벨벳이라 13
감사해요~^^ 13
해서... 13
나보네요 13
톡톡문의@@ 13
나만@@ 13
다고했는데 13
좋네영 13
꼼꼼한 13
고마워@@ 13
더더더 13
묻어있어서 13
될것같아요~ 13
좋으네용 13
퀼@@ 13
집앞에@@ 13
단단한 13
넣었더니 13
엇음 13
구오 13
붙여서 13
잘어울린@@ 13
다니겠@@ 13
재구매하려@@ 13
출근했는데 13
판매자분은 13
에요...@@ 13
좀나지만 13
3,@@ 13
말할 13
저정도 13
재질이면 13
잘어울리는@@ 13
진짜좋아요 13
시원해보여서 13
못할것 13
어울리는거 13
큼직하니 13
고급스러워보이@@ 13
품만 13
장식도 13
퇴근@@ 13
한데...@@ 13
부드럽고, 13
비싸보이진 13
다르게@@ 13
방법이 13
개가 13
사구 13
들이랑 13
아이보리보다 13
캐쥬얼한 13
왔네요... 13
더이쁠@@ 13
손목에 13
어울립니다.@@ 13
기다리긴 13
들고, 13
번창하세요~~~ 13
고! 13
구조@@ 13
여름동안 13
젤리@@ 13
고르고 13
변경해서 13
어쩔수없는@@ 13
뷰 13
조금이라도 13
드리려고 13
이라고는 13
가격대비는@@ 13
총알배송이@@ 13
평범한@@ 13
맘에들어용@@ 13
구겨진@@ 13
컷팅이 13
씩이나 13
되어있어요. 13
사이즈에요 13
오천원 13
이만원@@ 13
변경 13
저렴히@@ 13
망설이지 13
참고하시라고 13
비슷해요. 13
잘받았습니다~@@ 13
할듯..@@ 13
색이예뻐요 13
해보이네요. 13
가격만한 13
나네요~ 13
외투를 13
높을 13
데일@@ 13
왔는데@@ 13
회색이라 13
있네요~~ 13
양말이랑 13
물건에 13
없었구요 13
고민하지말고 13
잘하고 13
때쯤 13
묶어야 13
평소에도 13
높을@@ 13
우고 13
더군다나 13
브라운에 13
제껀 13
저렇게@@ 13
빠르고~ 13
일에@@ 13
• 13
살수@@ 13
해주세요~ 13
카키색도 13
중앙@@ 13
저려@@ 13
않아요~~ 13
괜찮네요... 13
느낌이랄까 13
이뻤는데 13
좋이요 13
하구요.. 13
꺼내자마자 13
예쁘고좋아요 13
좋네욤 13
옆구리가 13
냄세 13
형이 13
물결@@ 13
동글@@ 13
부드럽구요 13
판매를 13
물건은@@ 13
힘이없어요 13
편이나 13
찔@@ 13
거든요.@@ 13
이런디자인 13
강추에요 13
베이지색상@@ 13
없어요..@@ 13
wb@@ 13
가성비최고 13
했거든요 13
던거라 13
증말 13
평보고 13
은색 13
편하구요. 13
괜찮네요!! 13
남겼는데 13
작아요... 13
별다른 13
남네요. 13
실크 13
촉감이@@ 13
이쁘데@@ 13
만족합니다... 13
봤을때@@ 13
이틀만에@@ 13
제품도@@ 13
속안에 13
소한 13
십시@@ 13
참을@@ 13
주문할게요 13
여름이나 13
풍성해요 13
품절 13
자기 13
싶고 13
츄럴@@ 13
근데..@@ 13
나머@@ 13
포인트주기 13
연핑크 13
연핑크@@ 13
편안히 13
져있네요 13
심플해요 13
21일에 13
어울리네요~ 13
집에있는 13
근래 13
바닥이@@ 13
제발@@ 13
느낌이랑 13
원햇@@ 13
윗 13
배송기간도 13
받았는데요 13
기대이@@ 13
틈 13
있을것같아요. 13
아니더라구요 13
사이즈도좋고 13
e="@@ 13
보는것 13
올라온 13
이브고 13
비교해@@ 13
때부터 13
햤@@ 13
아이보리라서 13
약함 13
그거말곤 13
하셨으면 13
젊은@@ 13
좋아욥 13
촌스럽지않고 13
넒@@ 13
한가지@@ 13
지켜@@ 13
신을게요. 13
확인해보@@ 13
원하시는 13
딱맞아요@@ 13
보내면 13
날짜 13
샌들 13
고무 13
새신발@@ 13
배송도빠르구 13
주문합니다 13
구두도 13
드가 13
고급집니다 13
털어도 13
벽 13
배송좀@@ 13
편안함 13
태는 13
피곤@@ 13
불편하지도 13
통굽이라 13
불편하지않@@ 13
너무커요.. 13
말랑말랑해서 13
사는걸 13
아프지만 13
잘입을께요~^^ 13
교환했습니다. 13
감싸는 13
켤@@ 13
톰@@ 13
높아 13
앞코도 13
양말을 13
신경쓰일 13
부분도@@ 13
했구요. 13
부드럽지는 13
부들거리고 13
여요. 13
괜찬을@@ 13
정이 13
귀걸이@@ 13
디자인하고 13
좋았을걸@@ 13
~!~!@@ 13
요~~~~ 13
mm@@ 13
답니다~ 13
나다@@ 13
어오@@ 13
잘어울리고@@ 13
구래도 13
그뤠잇 13
이름 13
아이보리에 13
넥이라 13
따뜻하지만 13
짧고요 13
봄에입기@@ 13
붉@@ 13
좋습@@ 13
재킷@@ 13
이길래 13
폼 13
입고싶은 13
얇진 13
제가원하던@@ 13
할수있는 13
전체적으론 13
풀려있고 13
보통이에여 13
맘에드네요@@ 13
나쁘지않아요~ 13
구매하시@@ 13
나감 13
일반적으로 13
백두산@@ 13
대한@@ 13
입을께용 13
^^~~ 13
안받@@ 13
좋으니 13
색감, 13
기본입니다 13
더울수도 13
파였으면 13
기장이좀@@ 13
옷들이랑 13
희망@@ 13
느껴지네요. 13
치수는 13
주문하시는게 13
화면상으로 13
입기힘들@@ 13
사기엔 13
충분히@@ 13
옷두 13
싼티나는@@ 13
고요.. 13
ao@@ 13
연보라색 13
환하게 13
늦게옴 13
입고다닙@@ 13
옷이좀@@ 13
파세요~^^ 13
생기지만 13
쫀쫀함 13
널널하게 13
도톰해서@@ 13
손세탁 13
목티 13
수고하세용 13
보송보송@@ 13
잘입었습니다. 13
왔구요@@ 13
이쁨이쁨@@ 13
감싸주@@ 13
여유있는@@ 13
요즘날씨에@@ 13
울샴@@ 13
까칠 13
무난해요.. 13
제품이네요. 13
블랙하고 13
vo@@ 13
만이 13
잘입겠습니다! 13
없죠 13
따뜻한건 13
옷감이@@ 13
두께나 13
날림이 13
구매했어요..@@ 13
부자연스러@@ 13
너무얇고 13
여리여리하니 13
허리쪽 13
검정색을 13
여리여리해요 13
추천드립니다@@ 13
한날@@ 13
옷감의 13
주의해서 13
올라가네요 13
좋아요아주 13
이너웨어로 13
독 13
생각없이 13
안늘어나고 13
입어보고싶@@ 13
치마로 13
반바지랑 13
이너웨어 13
룬 13
놀랬네요 13
룰@@ 13
단독으로@@ 13
긴걸 13
건조기 13
시네요 13
네여! 13
좋은거같네요 13
이용하겠습니다 13
짱이예요 13
사줬어요 13
오브제스트 13
내려가고 13
감안하면 13
넣어두@@ 13
이쁘구요@@ 13
바지도@@ 13
보게@@ 13
나오진 13
다른옷에 13
같구요, 13
생기지 13
어색하고 13
입을게요!! 13
가만@@ 13
잘해주시@@ 13
주셔서@@ 13
적극추천합니다@@ 13
스웨터 13
말랑해서 13
무시@@ 13
밀착@@ 13
바지든 13
👍🏻👍🏻 13
오래입을 13
줬습니다 13
박시한데 13
다르긴한데 13
매끄럽지 13
바지보다는 13
언능 13
는데로 13
있는건지 13
레깅스와 13
보이는것 13
겨드랑이가 13
해야죠 13
라... 13
따뜻해요!! 13
화장하고 13
맵시@@ 13
문자라도 13
죄송하다@@ 13
다른옷 13
레이어@@ 13
탕 13
안입어도 13
주의하세요 13
두꺼우면 13
숭숭 13
웨어@@ 13
괘안아요 13
잘입고있어요@@ 13
교환하는데 13
구매하구 13
얇으니 13
화이트로@@ 13
나지는 13
갠찬은@@ 13
갠차나여 13
따뜻합니다@@ 13
좋도 13
정말.. 13
구매했던 13
레이어드해@@ 13
베이지보다 13
좋아요~~~~@@ 13
쓰이@@ 13
긴편은 13
구매할게@@ 13
디쟌이 13
서보면 13
위에서 13
이너로만 13
알겠네요 13
험하게 13
쫄리@@ 13
맨투맨이랑 13
상대적으로 13
블루랑 13
감은있지만 13
줬음 13
디쟌은@@ 13
뒷기장이 13
16일에 13
실망했습니다. 13
구입햇어요 13
깊이 13
못한@@ 13
무배 13
가성비굿 13
이를 13
부담스럽고 13
입을정도로 13
두깨감도 13
yd@@ 13
슬림해보이@@ 13
기본스타일이라 13
가끔씩 13
재질이... 13
도톰하구 13
집니다@@ 13
원단자체가 13
갱@@ 13
팔던데 13
파여 13
있어야할 13
으으@@ 13
달라도 13
뚜꺼@@ 13
치곤@@ 13
짧고.. 13
안들어가요 13
우체@@ 13
분들이나 13
이너입고 13
한것처럼 13
별로...@@ 13
좋아요♡ 13
약품 13
굿이요 13
단정해보이@@ 13
좋네요~! 13
올겨울은 13
영... 13
도없@@ 13
봤음 13
41@@ 13
드라이클@@ 13
입을수있고 13
따숩네요 13
낀 13
듭 13
재구매햇어요 13
브랜드에서 13
마뚜루 13
장롱@@ 13
괜찮았어요@@ 13
두께도@@ 13
여름에입기 13
길이도적당하고 13
다른제품 13
레깅스위에 13
시원할듯 13
가슬@@ 13
가디건과 13
안입어 13
안하고@@ 13
풍덩@@ 13
넉넉하지만 13
굿입니다! 13
이뻐욥 13
입은듯한 13
괜찮을까 13
조아여조아 13
한거는 13
사실분들은 13
가와서 13
어쩌나했는데 13
가려서 13
몰랐네요 13
아빠옷@@ 13
잘입었어요@@ 13
세탁해 13
안입었어요 13
따뜻할것같아요 13
배송도너무@@ 13
안비치@@ 13
스럽습니다 13
크신분은 13
던건데 13
귣 13
보여지는 13
셋@@ 13
엄청얇아요 13
교환신청 13
일어남 13
인어@@ 13
기본으로@@ 13
그녕 13
2017.@@ 13
해보였는데 13
화면이랑은 13
좋코 13
줄어드@@ 13
라룸에서 13
보일수도@@ 13
4만원 13
이어도 13
이쁨! 13
보고샀는데 13
퍼프 13
gu@@ 13
xy@@ 13
박시함 13
소재인줄 13
불가 13
무언@@ 13
나시만 13
상관은 13
입을수있어 13
따뜻한게 13
입도록 13
바라면 13
드네요..@@ 13
핫팬츠@@ 13
강력 13
영하@@ 13
별로네요@@ 13
고객님 13
일주일도 13
구하기 13
앞쪽은 13
가격만큼인 13
올라가요 13
뷔스티에는 13
봄부터 13
깝@@ 13
읽고 13
냄새랑 13
출산후 13
될까@@ 13
별로에요~ 13
감탄@@ 13
댓글 13
봄철에 13
어짜피 13
옷핀으로 13
(키 13
나쁘지않습니다 13
따뜻하지는 13
sdj@@ 13
맞을거 13
아무데나@@ 13
되는지 13
봄봄 13
디잔은 13
신구 13
예쁩@@ 13
가슴둘레 13
꺼같지만 13
호호 13
싸구려티@@ 13
경량패딩 13
스타일이에요. 13
갑! 13
후드나 13
편지도 13
묻어서@@ 13
생각해 13
제니@@ 13
딱맞는데 13
교환으로 13
반신반의하며 13
안입는데 13
안맞네요 13
컬러에 13
설명이 13
키크신 13
일주일넘게@@ 13
기분상@@ 13
왤케 13
시원하긴 13
배송된 13
사진에@@ 13
괜찮겠어요 13
새옷인데 13
아쉬웠어요. 13
안어울릴@@ 13
오긴@@ 13
한여름에@@ 13
최고임 13
수선하면 13
좋겠다는 13
생각중 13
지만....@@ 13
하더라도 13
쏘쏘.. 13
쳤는데 13
얇은것 13
보내셨네요 13
디자인은이뻐요 13
듷@@ 13
OO@@ 13
느려요.@@ 13
맞춤 13
상품이랑 13
아까워서@@ 13
굿~~~ 13
붕떠서 13
했어야 13
같아용~ 13
네여...@@ 13
생가보다@@ 13
추워지기전에 13
지않았지만 13
공지도 13
수선해 13
듬성@@ 13
레이온@@ 13
답해주셔서 13
미세@@ 13
흔하지않아서 13
배송개@@ 13
재가 13
찢어짐 13
불편하실@@ 13
걷고 13
해주셔야@@ 13
입고있어요. 13
내복 13
옷걸이 13
무난합니다~ 13
호리@@ 13
좀짧아요 13
요즘처럼 13
비에 13
거리긴 13
라기보다 13
시원피스@@ 13
재질인@@ 13
송장 13
라운@@ 13
으려@@ 13
나이가 13
주문폭@@ 13
보람이@@ 13
나시도 13
셔츠입니다 13
줄무늬가 13
입고다닐 13
느리고요 13
3. 13
어마무시@@ 13
기는하지만 13
죄송하다고 13
커요~@@ 13
퀄리티입니다 13
별로네요.@@ 13
킹 13
핏보다 13
입고나갈@@ 13
콩@@ 13
하나요? 13
따뜻해지@@ 13
보냈는데 13
불량인지 13
멘@@ 13
굿입니당 13
추워지기 13
얇지않아 13
통통족@@ 13
가격만큼인거 13
뒷모습이 13
생각보다너무@@ 13
부분때문에 13
못하네요. 13
어벙한 13
만족할 13
막상받아보니 13
실제로보면 13
살은 13
포기하고 13
짧으@@ 13
코튼 13
반팔이 13
날씬해보일@@ 13
한복 13
여름까지도 13
사지@@ 13
원단이에요 13
가가 13
하이웨스트에 13
느낌.@@ 13
안되면 13
물품은 13
수트@@ 13
할듯합니다. 13
대세@@ 13
템으로 13
대고 13
기다리면서 13
지만..그래도 13
후기들 13
그럴수도 13
밴드는 13
봐요@@ 13
한철입기는 13
엄청느림 13
낑기@@ 13
다른색은 13
줄여 13
좋은거같고 13
걍입어요 13
스판도@@ 13
모델핏이랑 13
깔이 13
맘에쏙 13
인지.. 13
치수보다 13
So 13
레이어드용 13
하는듯 13
아마@@ 13
숄@@ 13
짜증나고 13
허리부분에 13
안이뻐서 13
빼야 13
지연된다고 13
오버핏이에요 13
키크고 13
마른분들이 13
안합니다. 13
언급@@ 13
결재@@ 13
아침저녁 13
헨리넥@@ 13
줬더니 13
파자마 13
잘맞습니다. 13
95~100@@ 13
그랬음 13
누구 13
바지랑@@ 13
오버핏이지만 13
어깨나 13
슬림한@@ 13
줄이야@@ 13
큰사이즈로 13
패치 13
rn@@ 13
생각했던거보다@@ 13
날도 13
!@$#!@$#@@ 13
나나@@ 13
없습니다.@@ 13
ehe@@ 13
않아요..@@ 13
늦었습니다 13
생긴 13
딱맞네요. 13
라인이랑 13
:₩@@ 13
일교차가 13
XL로 13
해주셧@@ 13
꺼같은데 13
분이면 13
말할것도 13
ru@@ 13
개념@@ 13
la@@ 13
별루... 13
만족합니다만족합니다@@ 13
실망했습니다 13
못입겟@@ 13
튀어나와있고 13
멍@@ 13
182/7@@ 13
받지도 13
전체적 13
입을수있을듯 13
가디건만 13
해서요 13
헐랭@@ 13
차라리@@ 13
할말이 13
놀랬어요. 13
디자인.@@ 13
인가요?@@ 13
빈약@@ 13
보내실때 13
마련@@ 13
디자인자체는 13
스님@@ 13
테이프가 13
바느질은 13
다녓어요 13
두어@@ 13
늘어날것같@@ 13
없을거 13
어지간@@ 13
옷같음 13
붕뜨@@ 13
떼서 13
xb@@ 13
괜츈해요 13
이후 13
안해주고 13
요청했는데 13
하는데.. 13
그저그@@ 13
불량인데 13
잘려@@ 13
되야 13
살좀 13
작네요... 13
4개 13
이쁜거같아요@@ 13
길이의 13
봄가을에@@ 13
기본티에요 13
불편하네요@@ 13
바람불면 13
가며 13
스트링 13
흘 13
누군@@ 13
주문하면@@ 13
파셔@@ 13
함이@@ 13
허리나 13
냈는데 13
대해서 13
약품@@ 13
딱그가격@@ 13
너무느렸어요 13
의자@@ 13
느랴요 13
나옵@@ 13
일자핏이라 13
초딩@@ 13
맞나요? 13
아닌데... 13
맘대로 13
통짜@@ 13
느림.. 13
가격대비조아요 13
따뜻하긴@@ 13
엉덩이에 13
이바지만 13
10부@@ 13
뚱뚱해보이고 13
넘짧아요 13
잘받았어요잘쓸게요 13
구멍도 13
종아리부분이 13
엄청편해요 13
엉덩이쪽 13
밴딩으로 13
스트레스@@ 13
인간적으로 13
치마바지라 13
롱스커트@@ 13
올라와요 13
하비인데 13
엉성해요 13
입을래@@ 13
m입는데 13
사시길 13
골반도 13
할껄@@ 13
나왔다고 13
이거보다 13
기다릴 13
편합니당 13
고고@@ 13
기다려서@@ 13
배송이... 13
반치수 13
충격@@ 13
발에@@ 13
편해요..@@ 13
두사이즈 13
인정 13
/50 13
세미부츠컷@@ 13
종아리는 13
한사이즈크게 13
한다는@@ 13
정사이즈인데 13
32입는데 13
니.. 13
시키세요 13
가격만큼. 13
환불하고 13
저렇@@ 13
바람막이@@ 13
돼지@@ 13
라쿤털도 13
k @@ 13
안이뻐요. 13
검품 13
싼마이 13
반품처리@@ 13
터져서@@ 13
켤레 13
235~@@ 13
오래걸어도 13
볼도 13
신을게요~ 13
신지는 13
신으시@@ 13
신발이네요 13
신습니다. 13
뾰족한 13
로퍼를 13
슬리퍼라 13
실밥다@@ 13
발송이 13
찍 12
주문했는데..@@ 12
좋아용. 12
훌륭하네요 12
하지않게 12
짱!!! 12
혀요 12
닙@@ 12
킬 12
여유롭@@ 12
최고최고@@ 12
😀 12
희소@@ 12
최소한 12
콘@@ 12
체리@@ 12
칭구@@ 12
겉 12
홍 12
혹 12
짱짱합니다 12
크기에 12
크다보니 12
공간 12
찾던중에 12
흠잡@@ 12
옥 12
하였으나 12
차림@@ 12
햇습니다 12
확인좀@@ 12
해외여행 12
캐주얼에도 12
향이 12
주문한거 12
좋음! 12
편할것같아요 12
했어요..@@ 12
조이면 12
표현이 12
좋아요오옹 12
좋았어요!! 12
초등학생@@ 12
학년 12
좋을거같아요! 12
좋네요...@@ 12
해서요. 12
했네요@@ 12
더욱@@ 12
쪽에@@ 12
치만@@ 12
주셨어요 12
형으로 12
싼마@@ 12
정말이쁘네요 12
뱌@@ 12
짱임 12
하지는@@ 12
포멀@@ 12
첨부터 12
해여. 12
확인하고@@ 12
핑쿠@@ 12
진않았어요 12
쌋@@ 12
했어요!! 12
편임 12
하는데도 12
해요!!! 12
줫어요 12
큰건 12
진다@@ 12
튼튼 12
출고가 12
포장상태@@ 12
하는데, 12
퀄러@@ 12
드디@@ 12
편안한@@ 12
좋았을텐데... 12
컬러에요 12
흔치않고 12
햐 12
진짜이쁨 12
진않구요 12
진않은@@ 12
햅@@ 12
힙니다 12
죠아용@@ 12
헬@@ 12
편하더라구요 12
초코@@ 12
좋아요~~! 12
추천해여 12
짱이쁨 12
핑크빛@@ 12
쪽지도 12
합리적@@ 12
통해서 12
에어@@ 12
조절도 12
좋을듯합니다. 12
흐르@@ 12
델@@ 12
ㆍㆍ@@ 12
튼튼한@@ 12
좋네요, 12
깐 12
퀄도 12
좋을듯. 12
채 12
코듀로@@ 12
진하지 12
힘들어서 12
할수있을@@ 12
좋아져서 12
큐 12
연히 12
가격도착@@ 12
접힌@@ 12
주려@@ 12
프린트도 12
환불은 12
져있는 12
질감이나 12
흐물거리는 12
하나면 12
큐빅이 12
많 12
쑤@@ 12
좋아염 12
주문하자마자 12
찐한@@ 12
좋았겠어요 12
튈@@ 12
정말이지 12
해진 12
하시는분은 12
툽@@ 12
화면이랑같아요 12
질좋아요 12
좔좔@@ 12
좋은게 12
좋았던 12
좌우@@ 12
카키색을 12
캉@@ 12
터로 12
파셔요 12
정도네요. 12
할꺼같아요 12
패션 12
탓인지 12
젼@@ 12
좋겠어요! 12
졸라@@ 12
편의@@ 12
편하면 12
좋을텐데@@ 12
추운날씨에 12
조아요아주 12
주문하려구요 12
킬@@ 12
창이 12
윽@@ 12
꿧@@ 12
팠@@ 12
헐렁한@@ 12
헷갈@@ 12
핑크인데 12
kk@@ 12
줄은@@ 12
푠@@ 12
추천. 12
지인도 12
큰편이에요 12
햇어요@@ 12
톤의 12
크림 12
풀렸어요 12
특이하네요 12
닐 12
비칩@@ 12
정장에 12
어마어마@@ 12
Goo@@ 12
핏이쁘고 12
쿵 12
타이트하긴 12
할인된@@ 12
하고싶어요 12
통통하신분들은 12
중간쯤@@ 12
청바지랑도 12
죠아@@ 12
허리라인@@ 12
찡기@@ 12
주문할까 12
체형도 12
편하게입을@@ 12
편안 12
타싸이트@@ 12
한파에도 12
쪼매 12
짧아용 12
해줬어요 12
좋은옷@@ 12
준다@@ 12
편이니 12
지않구 12
÷@@ 12
짱입니다@@ 12
이뻐이뻐@@ 12
파이고 12
할듯하네요 12
진짜편해요 12
제스탈@@ 12
5050@@ 12
파란색@@ 12
최고에요@@ 12
봐 12
진않을@@ 12
좋와요 12
톡톡해요 12
말까@@ 12
한땀@@ 12
풀림@@ 12
톡톡하네요 12
))@@ 12
첫번째@@ 12
핑크색을 12
모임@@ 12
팔뚝살이 12
좋았어용 12
제키는 12
지금입기에는 12
좀짧은@@ 12
객@@ 12
조이지 12
해줘@@ 12
지요. 12
화면그대로입니다 12
후리@@ 12
SD@@ 12
제품인 12
goodgood@@ 12
케쥬얼@@ 12
해져@@ 12
롭 12
진않았@@ 12
차분하니 12
주문했어요.@@ 12
팔이짧아요 12
진심으로 12
좋아하실@@ 12
조항@@ 12
지도않구요 12
좋아라 12
털이많이@@ 12
만족핮@@ 12
팔과 12
편안해요. 12
쪽이랑 12
찟@@ 12
코드 12
지긴 12
좋아요~~~^^ 12
전체적@@ 12
솜 12
친절하신 12
짧지않아서 12
프렌@@ 12
허리띠 12
핵 12
줄였어요 12
털로 12
키크신분들@@ 12
주문했는데.. 12
클로슈에서 12
품이너무@@ 12
좋겠네요~ 12
크긴하네요 12
통도@@ 12
툭툭 12
직장에서 12
트위@@ 12
컬러: 12
잡 12
제외하고 12
합니당~ 12
감사합니다감사합니다@@ 12
체육@@ 12
칭 12
카라도 12
휴가가서 12
핏인줄 12
천이네요 12
읺@@ 12
휴양지에서 12
짤라@@ 12
화면에는 12
둘레 12
좋다는@@ 12
평이좋아서 12
큰듯해요 12
활용해서 12
환해보이고 12
치고@@ 12
키작으신@@ 12
절때 12
치렁치렁@@ 12
흐린@@ 12
한단 12
파여있어서 12
큰것같아요 12
꼴@@ 12
화면하고@@ 12
져있어요 12
불 12
핏도괜찮고 12
후회없이 12
죠.@@ 12
하얀색@@ 12
추워 12
특이한데 12
후드에 12
제몸@@ 12
풀리는 12
하이웨이@@ 12
접어야 12
진짜너무@@ 12
체형은 12
웨어 12
비오는@@ 12
진함 12
핏하고 12
후회합니다 12
편이구 12
펙@@ 12
죽여@@ 12
타이트한데 12
주문량이 12
이뻐요이뻐요이뻐요이뻐요@@ 12
이뻐요이뻐요@@ 12
제외 12
추석연휴 12
착오가 12
모니@@ 12
키168인데 12
허벅지까지 12
정말정말@@ 12
크네요...@@ 12
화이트가@@ 12
제키가@@ 12
초겨울 12
짧음. 12
좋았다 12
퀼리티 12
튀어나오고 12
좋아요감사합니다 12
회색빛@@ 12
고는@@ 12
쫌더@@ 12
4949@@ 12
후드티 12
널 12
후질근@@ 12
지하상@@ 12
편해요!@@ 12
핑크도@@ 12
쫙쫙 12
지나가@@ 12
찰랑 12
편함. 12
티셔츠네요 12
짧앗@@ 12
쪼아요 12
트임부분이 12
판매자의 12
트임이@@ 12
패딩에 12
좔@@ 12
댐@@ 12
효과는 12
추운날은 12
힙은 12
화장실 12
종아리까지 12
줄였@@ 12
팍 12
한통 12
쒀@@ 12
짧아보이고 12
짧네요... 12
한겨울은 12
조회@@ 12
테이프@@ 12
좁게@@ 12
푹신푹신하고 12
해놔서 12
한사이즈업@@ 12
좋아아요좋아 12
지.... 12
쩝 12
립스@@ 11
😀@@ 11
필 11
핸드@@ 11
히히@@ 11
스퀘@@ 11
:-@@ 11
숄더 11
기저귀@@ 11
리오@@ 11
어차@@ 11
특유@@ 11
풍 11
추천추천추천추천@@ 11
환 11
경 11
뜬 11
볕@@ 11
웅@@ 11
썽@@ 11
태 11
획@@ 11
❣@@ 11
섹@@ 11
쑥 11
클로@@ 11
샥@@ 11
훠@@ 11
불구@@ 11
큰일@@ 11
조아요조아요조아요조아요조아요조아요조아요조아요@@ 11
솔 11
만족스러운@@ 11
{@@ 11
조아요조아요조아요조아요@@ 11
잃@@ 11
담에@@ 11
조금만@@ 11
누 11
옇@@ 11
뚯@@ 11
잰@@ 11
조심 11
쌈@@ 11
시스@@ 11
캡@@ 11
찐 11
뜸 11
묘 11
믈 11
항 11
sksk@@ 11
런 11
신축@@ 11
퍈@@ 11
갯@@ 11
조아요조아요조아요@@ 11
플러@@ 11
뿨@@ 11
조아조아조아조아@@ 11
줘 11
앖@@ 11
그뤠@@ 11
완 11
칞@@ 11
옮@@ 11
관계@@ 11
슥@@ 11
띵@@ 11
러올@@ 11
후질@@ 11
최근@@ 11
만족합니다만족합니다만족합니다만족합니다만족합니다만족합니다만족합니다만족합니다@@ 11
쩐@@ 11
옷핀@@ 11
쏘 11
다림@@ 11
가디@@ 11
스타일리@@ 11
쉰@@ 11
그럭저@@ 11
환절@@ 11
륭@@ 11
읏 11
뱔@@ 11
쩍@@ 11
미친@@ 11
네오@@ 11
씨 11
렬 11
๑@@ 11
에에@@ 11
12345678@@ 11
빙@@ 11
쩡@@ 11
칫@@ 11
둥 11
균@@ 11
빙 11
̣@@ 11
폐 10
헿 10
듭@@ 10
팡@@ 10
블링@@ 10
섰@@ 10
칸 10
이리저@@ 10
율 10
샛@@ 10
푹@@ 10
괨@@ 10
././././@@ 10
끗 10
핫 10
여러모@@ 10
떡 10
열 10
닽@@ 10
슥 10
헉 10
임산@@ 10
흐느@@ 10
암 10
퀄리@@ 10
놈 10
~.~.@@ 10
촉 10
일교@@ 10
례 10
존 10
엇 10
뜸@@ 10
렴 10
뻗@@ 10
터틀@@ 10
즘@@ 10
숩 10
엣 10
-_@@ 10
킨 10
얅@@ 10
́@@ 10
즉@@ 10
폭 10
컵@@ 10
킵@@ 10
이너웨어@@ 10
😄@@ 10
꿀 10
밈 10
투 10
훔 10
오브제@@ 10
값어@@ 10
이쁩@@ 10
웹@@ 10
꿔 10
극 10
꽝 10
꾸 10
셈@@ 10
릅@@ 10
뿝@@ 10
O 10
빋@@ 10
얇 10
귤@@ 10
참조@@ 10
95~@@ 10
~!~!~!~!~!~!~!~!@@ 10
착오@@ 10
액@@ 10
폈@@ 10
̀@@ 10
｡@@ 10
귀 10
젼 10
춧@@ 10
녕@@ 10
촬@@ 10
녕 10
잘받았어요잘받았어요@@ 10
X 10
웰@@ 10
*-*-@@ 10
⭐@@ 10
MM@@ 10
사준@@ 9
뺀@@ 9
릿 9
푹 9
수선집@@ 9
룸 9
싣@@ 9
뱀@@ 9
버킷@@ 9
삘 9
닐@@ 9
아저@@ 9
탬@@ 9
짭@@ 9
첼@@ 9
교 9
닉 9
개나@@ 9
롬@@ 9
똭@@ 9
퐁@@ 9
룬@@ 9
헀@@ 9
틔@@ 9
핳 9
낄 9
^*@@ 9
몬 9
귿@@ 9
🏻@@ 9
뇽 9
훈@@ 9
칙@@ 9
뒹@@ 9
쬰@@ 9
굉장@@ 9
가성@@ 9
·@@ 9
바랜 9
줗@@ 9
싱 9
간절@@ 9
대자@@ 9
♤@@ 9
이벤@@ 9
마무@@ 9
멀 9
썸@@ 9
꾀@@ 9
논 9
뭣@@ 9
땨 9
실루@@ 9
☺ 9
뿌 9
슬리@@ 9
랫 9
좋아용~좋아용~@@ 9
얋@@ 9
좋습니다.좋습니다.@@ 9
쏭@@ 9
학 9
틋@@ 9
깡 9
툼 9
안성@@ 9
~♥ 9
힛 9
틸@@ 9
삥@@ 9
뵤@@ 9
꺄@@ 9
132132@@ 9
움직일@@ 9
한치@@ 9
🙂 9
멸@@ 9
팩@@ 9
퉁 9
너덜 9
굴 9
좋아요괜찮아요좋아요괜찮아요@@ 9
됀@@ 9
1818@@ 9
허 9
데미@@ 9
벤@@ 9
먹 9
뼈 9
헤 9
대나 9
뒤꿈@@ 9
찰 8
머니@@ 8
증 8
자인@@ 8
전환@@ 8
병 8
품으로 8
팜@@ 8
탈취@@ 8
장바@@ 8
밈@@ 8
차게 8
쨔 8
댱 8
땨@@ 8
잗@@ 8
훼@@ 8
탱 8
펐@@ 8
즇@@ 8
귿 8
찌 8
쓱@@ 8
머리카@@ 8
섯@@ 8
텀블@@ 8
맷@@ 8
뱃@@ 8
합성피@@ 8
됴 8
쨩@@ 8
억 8
클래@@ 8
저히 8
브리@@ 8
겅 8
혁@@ 8
하루종@@ 8
퓸@@ 8
아이보@@ 8
핑 8
뿅@@ 8
쨋@@ 8
므 8
죻@@ 8
강추합니다강추합니다@@ 8
곽@@ 8
겐 8
꾹 8
쫀 8
낙 8
쨍 8
좋아좋아좋아좋아@@ 8
좋아좋아@@ 8
조아조아 8
욭 8
썰@@ 8
장에서 8
꼇@@ 8
욮 8
엥@@ 8
홀 8
가오@@ 8
빌@@ 8
죤@@ 8
췄@@ 8
스크@@ 8
뜰@@ 8
툐 8
Z@@ 8
말랑 8
먄@@ 8
짼@@ 8
앗 8
꾹@@ 8
퇄 8
훔@@ 8
팽@@ 8
😃@@ 8
즁@@ 8
쳔@@ 8
랙 8
껀@@ 8
일회@@ 8
춤 8
아슬@@ 8
그나@@ 8
곰 8
럈@@ 8
욪@@ 8
엘 8
웡@@ 8
녜 8
울퉁불@@ 8
―@@ 8
― 8
∀@@ 8
어쩌나@@ 8
੭@@ 8
밪@@ 8
읗@@ 8
샬@@ 8
넝 8
후줄@@ 8
....^^....^^@@ 8
레깅@@ 8
둑 8
편하고조아요 8
너~~@@ 8
됌 8
슐@@ 8
*♡*♡@@ 8
FSDFSD@@ 8
욕 8
흡 8
틑@@ 8
어마무@@ 8
:):):):):):):):)@@ 8
쇠 7
빈 7
잼@@ 7
찿@@ 7
댕 7
노트@@ 7
뻑 7
딴데@@ 7
룡@@ 7
탭@@ 7
합리@@ 7
럿 7
릇@@ 7
💕@@ 7
부드@@ 7
짚@@ 7
쏟@@ 7
살다 7
보송@@ 7
뽁@@ 7
디테@@ 7
센 7
풋@@ 7
사이즌@@ 7
E 7
넙@@ 7
좋아용~@@ 7
시큼@@ 7
손편@@ 7
률@@ 7
쳣@@ 7
블링 7
지저@@ 7
좊@@ 7
😭 7
넌 7
릉@@ 7
쿰@@ 7
웁@@ 7
씌@@ 7
빳 7
쐬@@ 7
미끄@@ 7
디쟈@@ 7
헸@@ 7
맣@@ 7
뽀송@@ 7
꽃샘@@ 7
쌈 7
겁 7
괞@@ 7
,.,.,.,.,.,.,.,.@@ 7
었 7
로즐@@ 7
조만@@ 7
꾀 7
돕@@ 7
♧@@ 7
A 7
툼@@ 7
휼@@ 7
냠@@ 7
\ 7
롷@@ 7
킴@@ 7
😂@@ 7
녔@@ 7
탓 7
봏@@ 7
숨 7
그럭@@ 7
캠@@ 7
삭 7
윽 7
솨@@ 7
좃@@ 7
겅@@ 7
샅@@ 7
차라@@ 7
넵 7
뗄@@ 7
꿋@@ 7
팁@@ 7
깽@@ 7
긍 7
맴@@ 7
탑 7
😅 7
앤 7
및@@ 7
롤 7
얹@@ 7
짠 7
다라@@ 7
층 7
쁌 7
얀@@ 7
★ 7
엡@@ 7
얏@@ 7
쁭@@ 7
뼘@@ 7
븐 7
퀴@@ 7
차르@@ 7
요일에 7
옶@@ 7
히트@@ 7
꾸준@@ 7
캬 7
깅 7
킴 7
뎃 7
빠서 7
꾼@@ 7
쪗@@ 7
✧@@ 7
갹@@ 7
신청 7
엮@@ 7
빡 7
놔 7
그냥저@@ 7
헌 7
●@@ 7
트레이@@ 7
숑@@ 7
쥬얼@@ 7
몫@@ 7
밴@@ 7
헛@@ 7
밨@@ 7
퀘@@ 7
톰 7
’@@ 7
믾@@ 7
찹@@ 7
혐@@ 7
읭@@ 7
입을만해요입을만해요@@ 7
푼 7
메이드 7
붎@@ 7
둘째@@ 7
뻣@@ 7
페 6
쾅@@ 6
즐거@@ 6
얌 6
뷸@@ 6
흐물 6
붐@@ 6
뻑@@ 6
밋@@ 6
곁@@ 6
당분@@ 6
너~@@ 6
헙@@ 6
😆 6
잦@@ 6
쁴@@ 6
포인@@ 6
무게 6
풉@@ 6
탔@@ 6
딪@@ 6
럄@@ 6
헨@@ 6
룻@@ 6
맍@@ 6
😃 6
웬 6
떤@@ 6
땜 6
툰@@ 6
셰@@ 6
쨋든 6
눚@@ 6
혓@@ 6
낯@@ 6
먀 6
핳@@ 6
갰@@ 6
̵@@ 6
빅 6
쫗@@ 6
펑@@ 6
쩌 6
협@@ 6
혁 6
슷@@ 6
♪@@ 6
뮤 6
z 6
경비@@ 6
잌@@ 6
얐@@ 6
껍 6
뎁 6
밭@@ 6
번거@@ 6
얺@@ 6
맞 6
털날@@ 6
놉@@ 6
꽁@@ 6
랙@@ 6
멋 6
132@@ 6
뚠@@ 6
뚤 6
스커@@ 6
취 6
실에 6
몆@@ 6
깜 6
튄@@ 6
씸@@ 6
첞@@ 6
쇄@@ 6
스키@@ 6
킷 6
쩡 6
샇@@ 6
렇@@ 6
렇 6
뮈 6
늑@@ 6
‘@@ 6
읏@@ 6
피스@@ 6
짠@@ 6
욬@@ 6
😄 6
흥 6
="@@ 6
보태@@ 6
휑@@ 6
렇게@@ 6
넉 6
밌@@ 6
먕@@ 6
어쨌@@ 6
낮 6
끌 6
～@@ 6
현 6
비지@@ 6
넖@@ 6
╹@@ 6
덧 6
생각햇@@ 6
닺 6
섯 6
걔@@ 6
쨰@@ 6
왤@@ 6
평상@@ 6
춰 6
펠@@ 6
~!~!~!~!@@ 6
겨드@@ 6
획 6
쥐 6
넷@@ 6
휠@@ 6
만족합니다만족합니다만족합니다만족합니다@@ 6
꿈 6
짓 6
희 6
갛@@ 6
윤 6
콕@@ 6
복숭@@ 6
≥@@ 6
≤@@ 6
펜 6
럇@@ 6
닛@@ 6
ᵕ@@ 6
그제@@ 6
켜 6
샤 6
섶@@ 6
¤@@ 6
¥@@ 6
்@@ 6
얍@@ 6
살다@@ 6
쌓@@ 6
갖 6
인간@@ 6
범 6
딜 6
홧@@ 6
﻿ 6
이드 6
н@@ 6
̫@@ 6
묜 6
즌@@ 6
뒷꿈@@ 6
닭@@ 6
펀 6
팡 5
늨@@ 5
특 5
헝@@ 5
이곳저@@ 5
람 5
앆@@ 5
빤 5
탁월@@ 5
요긴@@ 5
잴 5
댐 5
닏 5
텍 5
갬@@ 5
뻘@@ 5
· 5
댄 5
쿄@@ 5
./@@ 5
폴 5
︎ 5
다이어@@ 5
쁙@@ 5
냔 5
흙@@ 5
킷@@ 5
👍🏻@@ 5
바캉@@ 5
뇌@@ 5
파스@@ 5
눙 5
테는 5
팜 5
크로@@ 5
🏼 5
치게 5
썬 5
뾰@@ 5
냉 5
칙 5
쎈 5
´@@ 5
퍄@@ 5
뺍@@ 5
” 5
뭥@@ 5
뻤@@ 5
댁@@ 5
폭신 5
뷔스@@ 5
몃 5
몰 5
댑@@ 5
주구장@@ 5
🏻 5
둡 5
샏@@ 5
믈@@ 5
엥 5
낟 5
마찬@@ 5
베 5
뷴 5
롯@@ 5
쿵@@ 5
FSD@@ 5
J 5
헷 5
뿅 5
슝 5
😉@@ 5
싑@@ 5
사무@@ 5
긴가@@ 5
쌀 5
조아요~~@@ 5
낟@@ 5
}@@ 5
쌘@@ 5
쩅@@ 5
엊@@ 5
떳@@ 5
뜽@@ 5
륵 5
툐@@ 5
쯔@@ 5
렐@@ 5
눔 5
플라@@ 5
번갈@@ 5
늦 5
북 5
딲@@ 5
ෆ@@ 5
몫 5
N 5
뎀@@ 5
탁 5
쨰 5
샐@@ 5
솨 5
—@@ 5
쁮@@ 5
₩ 5
굉@@ 5
팔꿈@@ 5
네이@@ 5
쯩@@ 5
시미@@ 5
🤙@@ 5
팀@@ 5
　@@ 5
ノ@@ 5
셩@@ 5
딨@@ 5
즉 5
츈@@ 5
플레@@ 5
👏 5
렌 5
뀨 5
임신중@@ 5
□@@ 5
○@@ 5
죡@@ 5
쫘@@ 5
붇@@ 5
왁@@ 5
틴 5
숑 5
푼@@ 5
략@@ 5
잊 5
갤@@ 5
촣@@ 5
렝@@ 5
늬@@ 5
젓@@ 5
칩@@ 5
오브@@ 5
뽈@@ 5
캉 5
십 5
쮸@@ 5
적나라@@ 5
쌉@@ 5
*-@@ 5
볏@@ 5
험 5
즌 5
띡 5
아줌@@ 5
릅 5
볶@@ 5
탠@@ 5
푹신 5
뵐@@ 5
애나@@ 5
늗@@ 5
짢@@ 5
멓@@ 5
싼게@@ 5
몹@@ 5
누리끼@@ 5
걘@@ 4
눔@@ 4
똭 4
홓 4
믹@@ 4
켄@@ 4
[ 4
❣ 4
볍 4
뙇 4
맴 4
물티슈@@ 4
클러@@ 4
쉼@@ 4
모노@@ 4
사은@@ 4
지어 4
긑@@ 4
쀼@@ 4
촘@@ 4
됭@@ 4
샀 4
얉@@ 4
햣@@ 4
😭@@ 4
탬 4
휜@@ 4
욷 4
▽@@ 4
˃@@ 4
͈@@ 4
̑@@ 4
ᴗ@@ 4
˂@@ 4
렉 4
콤 4
깝 4
늕@@ 4
쿳 4
꺅 4
,.,.,.,.@@ 4
,.,.@@ 4
멤@@ 4
셉@@ 4
깎@@ 4
쁩 4
혐 4
컵 4
껜 4
무스@@ 4
콧@@ 4
뻬@@ 4
유난@@ 4
낑 4
룽@@ 4
델 4
않 4
엑@@ 4
인터@@ 4
팬 4
😅@@ 4
뚜루 4
얗@@ 4
냔@@ 4
뺘@@ 4
🖤 4
싳@@ 4
릭 4
텀@@ 4
렸 4
짧 4
흩@@ 4
즛 4
앴@@ 4
륨 4
누리@@ 4
뮨@@ 4
종아@@ 4
렿@@ 4
켔@@ 4
헷@@ 4
컬 4
슉 4
왐@@ 4
곶@@ 4
‍@@ 4
♀@@ 4
숴@@ 4
먕 4
오피스@@ 4
겪@@ 4
돔 4
붐 4
결혼@@ 4
뿍@@ 4
턱 4
츤 4
썹@@ 4
띈 4
쥴 4
시보@@ 4
╹ 4
̮ 4
셋 4
뱅@@ 4
툰 4
！ 4
가나다라마@@ 4
얖@@ 4
!@$@@ 4
구매확@@ 4
눤@@ 4
나일@@ 4
뻡@@ 4
깬@@ 4
밀 4
쨌@@ 4
쪄 4
농 4
념 4
싯@@ 4
싡@@ 4
횟@@ 4
괌@@ 4
쟐@@ 4
횡@@ 4
쿨 4
뎠@@ 4
찜 4
사알@@ 4
읎@@ 4
칮@@ 4
한마@@ 4
윰@@ 4
ଘ@@ 4
ˊ@@ 4
ˋ@@ 4
ੈ@@ 4
✩@@ 4
‧@@ 4
₊@@ 4
¸@@ 4
✧ 4
♩@@ 4
빼 4
랴 4
없 4
킁@@ 4
큭 4
맠@@ 4
욪 4
룹@@ 4
¡@@ 4
 @@ 4
챤@@ 4
닼 4
밎@@ 4
잫@@ 4
넬@@ 4
젹@@ 4
껑 4
쥴@@ 4
눠 4
즣@@ 4
쬠 4
폄@@ 4
껌@@ 4
켰@@ 4
너~~~~@@ 4
묜@@ 4
욯@@ 4
렺@@ 4
👏@@ 4
곱 4
갸 4
갭@@ 4
C 4
훗 4
핸 4
멩@@ 4
뷁 4
하이웨@@ 4
가즈@@ 4
짫@@ 4
쬬@@ 4
액 4
혈@@ 4
한칫@@ 4
빱@@ 4
엉망진@@ 4
q 4
반신@@ 4
벳@@ 4
캣@@ 4
셍@@ 4
븜@@ 4
칼 4
о@@ 4
с@@ 4
е@@ 4
ц@@ 4
텅 4
졸 4
깍@@ 4
결론@@ 4
띕@@ 4
스웨@@ 4
꺾@@ 4
ؒ@@ 4
짬@@ 4
횐@@ 4
댈 4
쉣 4
부지@@ 4
갱 4
떈 3
기저@@ 3
찻@@ 3
앓@@ 3
겊@@ 3
꽁 3
멨@@ 3
욨@@ 3
떼 3
맿@@ 3
K 3
샴@@ 3
쉬 3
땟@@ 3
궛@@ 3
엤@@ 3
둬 3
삮@@ 3
에코@@ 3
쀼 3
캥@@ 3
상대@@ 3
햿@@ 3
짬 3
베란@@ 3
앝@@ 3
눕@@ 3
벅 3
삐 3
눙@@ 3
즛@@ 3
쟝 3
💛 3
겔@@ 3
씽@@ 3
먾@@ 3
} 3
춫@@ 3
맏@@ 3
간신@@ 3
😏@@ 3
렙@@ 3
쟌@@ 3
취향저@@ 3
냅 3
떤 3
🖒 3
｀@@ 3
”@@ 3
뿍 3
잴@@ 3
쥤@@ 3
ｊ@@ 3
(?@@ 3
🙌@@ 3
꺠 3
뎁@@ 3
😗 3
얌@@ 3
굯@@ 3
닽 3
냠 3
덤 3
즤@@ 3
😘 3
쎅@@ 3
넚@@ 3
즤 3
쨩 3
̀ 3
콘 3
💜 3
러블@@ 3
찾으신@@ 3
즁 3
객 3
쇈@@ 3
닜@@ 3
뎀 3
긔 3
셧 3
갑자@@ 3
짮@@ 3
쨔@@ 3
뷔@@ 3
딋@@ 3
소중@@ 3
쵝@@ 3
깥@@ 3
톧@@ 3
턴 3
얎@@ 3
쌤@@ 3
콩 3
쬥@@ 3
짥@@ 3
싰@@ 3
슺@@ 3
빻@@ 3
패 3
납 3
충 3
롷 3
여전@@ 3
옘@@ 3
줏@@ 3
땡 3
옐로@@ 3
햡@@ 3
렵 3
ෆ 3
샸@@ 3
블라우@@ 3
짞 3
끙@@ 3
벘@@ 3
펄 3
마지@@ 3
쿤@@ 3
뿔 3
홓@@ 3
G 3
갲@@ 3
벨 3
졷@@ 3
핡@@ 3
퍙@@ 3
빽@@ 3
123456@@ 3
잼 3
px@@ 3
승 3
뵙@@ 3
옿 3
팥@@ 3
뗘@@ 3
튑@@ 3
첸 3
잿@@ 3
H 3
믐@@ 3
짖@@ 3
˚@@ 3
▿@@ 3
섬 3
R 3
쁍@@ 3
｡ 3
人@@ 3
ᄀ@@ 3
놉 3
옂 3
윘@@ 3
겡@@ 3
찡 3
̥@@ 3
휙 3
〰@@ 3
〰 3
갚@@ 3
쥑@@ 3
쟀@@ 3
goo@@ 3
랍 3
■ 3
눠@@ 3
겍@@ 3
좋아요괜찮아요@@ 3
푠 3
얘 3
앱@@ 3
옳@@ 3
코발@@ 3
ヾ@@ 3
뤠@@ 3
원플러@@ 3
킥@@ 3
렛 3
맀@@ 3
닞@@ 3
훗@@ 3
닿 3
룡 3
￦@@ 3
여리 3
닼@@ 3
이래저@@ 3
훌 3
파우@@ 3
츰@@ 3
꿔@@ 3
랭 3
붑@@ 3
줠@@ 3
⌓@@ 3
°@@ 3
넨 3
빔@@ 3
쫄 3
굶@@ 3
🖒@@ 3
읶@@ 3
텝@@ 3
볕 3
딤@@ 3
퀴 3
깄@@ 3
젭@@ 3
싶 3
뼘 3
얜 3
혼 3
😉 3
잤@@ 3
쉴@@ 3
떴@@ 3
쳥@@ 3
덛@@ 3
랐 3
캐 3
늡@@ 3
릇 3
믐 3
떵@@ 3
짛@@ 3
짘@@ 3
P 3
여름슬랙스@@ 3
맹 3
주머@@ 3
빚@@ 3
쟤@@ 3
즐 3
닻 3
켁@@ 3
캐쥬@@ 3
뭠@@ 3
컨 3
쁫@@ 3
а@@ 3
а 3
в@@ 3
п@@ 3
※@@ 3
룰 3
똥 3
헛 3
티슈@@ 3
촘 3
서비@@ 3
냣 3
툴@@ 3
흙 3
🤗@@ 3
쁌@@ 3
잆@@ 3
*_@@ 3
🏼@@ 3
》@@ 3
꼿@@ 3
옸@@ 3
앚 3
왔 3
2017@@ 3
냘 3
코코@@ 3
왈@@ 3
펌@@ 3
크리@@ 3
최 3
봇@@ 3
몽 3
슉@@ 3
벋@@ 3
뭄 3
둉@@ 3
ؓ@@ 3
ؑ@@ 3
ؐ@@ 3
띁@@ 3
🏽@@ 3
믓@@ 3
갹 3
꺽@@ 3
삑@@ 3
숯@@ 3
쉼 3
😤 3
딧@@ 3
😥 3
뜡@@ 3
뻣 3
톱 3
항공@@ 3
웋@@ 3
옐@@ 3
소비@@ 2
돔@@ 2
프리미@@ 2
캘@@ 2
씽 2
💖 2
퀠@@ 2
곘@@ 2
쫭 2
놋@@ 2
숫 2
뢰@@ 2
././@@ 2
윰 2
틸 2
댑 2
뺌@@ 2
붘@@ 2
땁@@ 2
뿡 2
셌@@ 2
바스@@ 2
꼴 2
훑@@ 2
깰@@ 2
첵@@ 2
믿 2
꿍@@ 2
👉@@ 2
읔 2
싀 2
😱@@ 2
곻 2
햬@@ 2
잫 2
군더더기@@ 2
엏@@ 2
뽄@@ 2
돵@@ 2
얍 2
뮌@@ 2
녘@@ 2
겋@@ 2
뚬@@ 2
샏 2
텇 2
ｓ@@ 2
뽐@@ 2
띰@@ 2
맍 2
댱@@ 2
욭@@ 2
밖 2
옿@@ 2
븨@@ 2
쵸 2
뱨@@ 2
럳@@ 2
딥 2
듲@@ 2
랒@@ 2
욛 2
😇@@ 2
🤔@@ 2
🤔 2
뭅@@ 2
바이올@@ 2
톨@@ 2
😘@@ 2
뀨@@ 2
겯@@ 2
딲 2
쮹 2
캡 2
횽 2
︿@@ 2
🙃 2
걋@@ 2
맺@@ 2
궅 2
뉴 2
Y 2
뉼@@ 2
궇 2
갠 2
묽@@ 2
삔@@ 2
머스타@@ 2
꿋 2
렷 2
몃@@ 2
섭 2
펑퍼@@ 2
갯 2
퓰@@ 2
브라우@@ 2
쌍 2
🤗 2
쎄 2
푸 2
슙@@ 2
텔 2
깢 2
촌 2
샤랄@@ 2
원피@@ 2
읊@@ 2
휭@@ 2
휭 2
런히 2
낵@@ 2
쭘 2
셉 2
후기대@@ 2
잍@@ 2
잎 2
튐@@ 2
쁀@@ 2
～ 2
핰@@ 2
잙@@ 2
롸@@ 2
ㅁ@@ 2
뎆@@ 2
샙@@ 2
냑 2
좁 2
활 2
끄 2
쬬 2
줴@@ 2
냘@@ 2
쨈 2
!@$#@@ 2
넑@@ 2
촤르@@ 2
좈@@ 2
슷 2
섹 2
펏@@ 2
슫@@ 2
헿@@ 2
좆@@ 2
좇@@ 2
랃@@ 2
챧 2
훙 2
깆@@ 2
괝@@ 2
챦@@ 2
좝 2
늄@@ 2
찷@@ 2
찯@@ 2
굯 2
곡 2
넗@@ 2
옽 2
옌@@ 2
샥 2
♫@@ 2
¨@@ 2
찗@@ 2
즙@@ 2
춚 2
쿰 2
꼐 2
졀@@ 2
・@@ 2
뎇@@ 2
턀@@ 2
닺@@ 2
켯@@ 2
븀 2
✌ 2
룽 2
앵 2
궈 2
샾@@ 2
ॢ@@ 2
˘@@ 2
*♡@@ 2
⌄@@ 2
◞@@ 2
◟@@ 2
튤@@ 2
넗 2
쁭 2
얄 2
힜@@ 2
롼@@ 2
잠 2
핼@@ 2
챨@@ 2
뇬 2
뉸@@ 2
늨 2
챃@@ 2
£ 2
젔@@ 2
€@@ 2
뵜@@ 2
뤈@@ 2
샌 2
믖@@ 2
킁 2
낞@@ 2
ꇴ@@ 2
빌 2
팀 2
⁽@@ 2
。@@ 2
숭 2
햇 2
띡@@ 2
랠@@ 2
첩@@ 2
죤 2
잭@@ 2
솥@@ 2
🙂@@ 2
짇@@ 2
맨투@@ 2
좋아아요@@ 2
화이@@ 2
﻿@@ 2
틑 2
넛@@ 2
🙃@@ 2
텐 2
탹@@ 2
😌 2
엿 2
랟 2
압 2
잰 2
헙 2
뗐@@ 2
낻@@ 2
😑 2
쥰@@ 2
씸 2
쳔 2
솓 2
🐃@@ 2
셍 2
딷@@ 2
옫@@ 2
휙@@ 2
쥼 2
챸@@ 2
랼@@ 2
숱@@ 2
뤘@@ 2
껭 2
랻 2
악세@@ 2
셜 2
덴@@ 2
주구@@ 2
쉅@@ 2
씄@@ 2
🙈@@ 2
V 2
읈 2
탐 2
....^^@@ 2
좡@@ 2
붸@@ 2
좍@@ 2
힣 2
뇽@@ 2
땅 2
웡 2
😚 2
켈@@ 2
틍 2
͈ 2
퀘 2
뭊@@ 2
왓 2
엎@@ 2
샜@@ 2
힛@@ 2
남자마바지 2
얻 2
랸 2
뤼 2
늉@@ 2
갘 2
읐@@ 2
뵐 2
클로 2
벗 2
슛 2
숫@@ 2
😬 2
쿤 2
맠 2
갼@@ 2
😋@@ 2
찳@@ 2
뺌 2
д@@ 2
т@@ 2
р@@ 2
и@@ 2
е 2
앒@@ 2
2018@@ 2
쏭 2
쭈 2
즹@@ 2
웩@@ 2
씰@@ 2
긐 2
촛@@ 2
츕@@ 2
챘@@ 2
🤭 2
궂@@ 2
접 2
◇@@ 2
《@@ 2
랏 2
맟@@ 2
짆@@ 2
맂@@ 2
핶@@ 2
됄@@ 2
딕@@ 2
찼@@ 2
싄@@ 2
깥 2
냈 2
캍@@ 2
삿 2
“@@ 2
숴 2
똵 2
뗀 2
뛴@@ 2
） 2
넢@@ 2
ؖ@@ 2
ؔ@@ 2
⁼@@ 2
̴@@ 2
ؕ@@ 2
뾱@@ 2
랒 2
죰 2
딛@@ 2
꽊@@ 2
셀 2
🙋@@ 2
발가@@ 2
왈 2
뛸@@ 2
뭏@@ 2
낣@@ 2
쾌 2
돗@@ 2
궤@@ 2
뗀@@ 2
부직@@ 2
픕@@ 2
쌰 2
뮈@@ 2
낱@@ 2
늙@@ 2
긷@@ 2
😡 2
틍@@ 2
둉 2
웧@@ 2
네이버페@@ 2
뢰 2
머니 2
밣@@ 2
섀@@ 2
쾅 2
겆@@ 2
앨@@ 2
쯔 2
퐉 2
꿉@@ 2
깕@@ 2
Q 2
튐 2
깋@@ 2
숄 2
쑹@@ 2
넵@@ 2
쬘@@ 2
첸@@ 2
욷@@ 2
톨 2
욮@@ 2
ф@@ 2
튈 2
켘@@ 2
섕@@ 2
너~~~@@ 2
춚@@ 2
긎@@ 2
굻@@ 2
넣 2
끍@@ 2
녓@@ 2
옇 2
펴 2
겋 2
쟅@@ 2
띌@@ 2
탆@@ 2
레터@@ 2
쫭@@ 2
ू@@ 2
잭 1
컼@@ 1
늪@@ 1
ᕕ@@ 1
ᐛ 1
ᕗ 1
자마 1
뷱@@ 1
썪@@ 1
롹@@ 1
룔 1
💞@@ 1
ST 1
숟@@ 1
슛@@ 1
늴 1
텃@@ 1
힅@@ 1
콯@@ 1
똗@@ 1
븅 1
풋 1
지막@@ 1
스틸@@ 1
💋 1
햅 1
뱃 1
빢@@ 1
돤@@ 1
릠 1
깁 1
땩 1
흇 1
뤡 1
퐁 1
좥@@ 1
⭕@@ 1
슽@@ 1
낫 1
👈 1
쪌@@ 1
쟙 1
꺅@@ 1
😏 1
샄@@ 1
쎘@@ 1
맇 1
텓@@ 1
🙏@@ 1
묭 1
죙@@ 1
뮫@@ 1
샹 1
쏜@@ 1
쇄 1
즆@@ 1
핱 1
젓 1
😐 1
쐈@@ 1
읙 1
줚@@ 1
뱝@@ 1
뵹 1
듧@@ 1
딫@@ 1
힑@@ 1
ｒ@@ 1
ａ@@ 1
ｇ@@ 1
ｉ@@ 1
ｄ 1
묫 1
웋 1
웢@@ 1
둓 1
뀝@@ 1
앛@@ 1
븉@@ 1
똘@@ 1
봇 1
밝 1
삳@@ 1
옠@@ 1
닣@@ 1
읈@@ 1
돵 1
훼 1
똔@@ 1
탼@@ 1
겢 1
쏵 1
딉@@ 1
짃 1
샾 1
욫 1
칟@@ 1
뿢@@ 1
몡@@ 1
놘@@ 1
캑@@ 1
탵 1
😙@@ 1
덷@@ 1
땔@@ 1
쫏@@ 1
😞 1
💓 1
팧@@ 1
켠@@ 1
쮹@@ 1
홈 1
👗 1
샊@@ 1
벋 1
쉑@@ 1
둗 1
💙 1
둏@@ 1
끙 1
퉅 1
쑈 1
웰 1
횔@@ 1
챷 1
덯@@ 1
뭌@@ 1
캐주@@ 1
:):)@@ 1
넬 1
챁 1
앜@@ 1
＊ 1
괰@@ 1
뺠@@ 1
뎰 1
쟐 1
롑 1
🤦@@ 1
햄 1
줒 1
볌@@ 1
🎊 1
떙@@ 1
쩧@@ 1
팥 1
칧@@ 1
퍃@@ 1
틎@@ 1
앰@@ 1
굉 1
W 1
빜@@ 1
뭉 1
얨@@ 1
깞@@ 1
륨@@ 1
쥣@@ 1
몌@@ 1
롲@@ 1
🖤@@ 1
셛@@ 1
얷@@ 1
쩗@@ 1
앋@@ 1
퉃@@ 1
덬 1
끽@@ 1
뻘 1
솓@@ 1
줕@@ 1
좟@@ 1
ㅁ 1
숬@@ 1
귕@@ 1
넛 1
붆@@ 1
틋 1
🤩 1
횅@@ 1
됀 1
릱@@ 1
뇸@@ 1
럳 1
볖@@ 1
>_@@ 1
옞@@ 1
뫀@@ 1
바느@@ 1
럾@@ 1
렦@@ 1
렜@@ 1
맡 1
굗@@ 1
읂@@ 1
꿌@@ 1
남자마@@ 1
젋@@ 1
넠 1
쥿 1
힎 1
섲@@ 1
슶@@ 1
녛@@ 1
냧 1
햌@@ 1
홎@@ 1
읆@@ 1
좆 1
딕 1
텃 1
묨 1
칰@@ 1
홋@@ 1
펙 1
닮 1
헥@@ 1
펍 1
냡 1
{ 1
쟇@@ 1
쩨 1
헬 1
늗 1
팸@@ 1
앰 1
쩨@@ 1
혛@@ 1
껠@@ 1
곺@@ 1
짤 1
쟤 1
🙍@@ 1
걷 1
옸 1
바이오@@ 1
멒@@ 1
얃@@ 1
づ@@ 1
ど@@ 1
넴@@ 1
컄@@ 1
늊@@ 1
핓 1
윙 1
뙤@@ 1
챡@@ 1
핗@@ 1
듳@@ 1
쟌 1
끽 1
🎻 1
🐋 1
˚ 1
‸@@ 1
쨈@@ 1
풉 1
젛 1
و@@ 1
맏 1
잏 1
캐시미@@ 1
덪@@ 1
😗@@ 1
껓@@ 1
눌 1
틘@@ 1
겤@@ 1
싲@@ 1
꺙 1
랟@@ 1
멩 1
잋@@ 1
・ 1
푄@@ 1
젯@@ 1
퉈@@ 1
뒈@@ 1
💗 1
⑉ 1
⑉@@ 1
︎@@ 1
︶@@ 1
꒰@@ 1
﹏@@ 1
꒱@@ 1
ु@@ 1
ू 1
돞@@ 1
뽐 1
촬 1
두산@@ 1
오트@@ 1
● 1
쎅 1
괯@@ 1
눋 1
륲@@ 1
엗@@ 1
픽 1
룾@@ 1
끅@@ 1
몀@@ 1
멱 1
멱@@ 1
돟 1
풓@@ 1
솟 1
읟@@ 1
섣@@ 1
몈 1
턑@@ 1
챠 1
룜 1
쭈글 1
룛 1
넫 1
컾@@ 1
흗 1
쨓@@ 1
읜 1
◍@@ 1
⃛@@ 1
❛ 1
▿ 1
◠@@ 1
๑ 1
٩@@ 1
ε@@ 1
۶ 1
뷔 1
짛 1
샙 1
슾@@ 1
덣@@ 1
👎@@ 1
👎 1
쳬@@ 1
흣@@ 1
뎨 1
씅@@ 1
텨 1
킥 1
☞ 1
붭@@ 1
😶@@ 1
뮌 1
셩 1
짯 1
흣 1
쭌@@ 1
÷ 1
훵@@ 1
넙 1
욼 1
읁@@ 1
끋 1
아크@@ 1
웻@@ 1
꺈@@ 1
빗 1
〜@@ 1
랖@@ 1
쁲 1
읜@@ 1
💛@@ 1
엪@@ 1
닕@@ 1
‘ 1
💚 1
닦 1
へ@@ 1
컥@@ 1
핣@@ 1
섳@@ 1
뉜@@ 1
쌥@@ 1
쎕@@ 1
ż@@ 1
ღ@@ 1
ღ 1
ఠ 1
̆@@ 1
ఠ@@ 1
ټ@@ 1
̤@@ 1
짵@@ 1
낒@@ 1
빰 1
왛@@ 1
댁 1
죨@@ 1
륻@@ 1
밴 1
챡 1
떰 1
😑@@ 1
윳@@ 1
읓@@ 1
룹 1
텁@@ 1
슺 1
졍 1
꽊 1
돤 1
ㅇ@@ 1
🐆@@ 1
🐂@@ 1
뱍@@ 1
끰@@ 1
췅 1
딭@@ 1
점프@@ 1
튠 1
쁠 1
텻@@ 1
핌@@ 1
떽@@ 1
핡 1
乃 1
뉘 1
긓 1
줋@@ 1
겝@@ 1
텽@@ 1
😓 1
겓@@ 1
첯@@ 1
햊@@ 1
낍 1
꺜 1
휄 1
쒼 1
꿇@@ 1
꼅@@ 1
냣@@ 1
넏@@ 1
흔 1
옫 1
캇@@ 1
깈@@ 1
줗 1
ˆ@@ 1
ˆ 1
삡@@ 1
픙@@ 1
푶@@ 1
춫 1
😜 1
쭝@@ 1
샨@@ 1
껭@@ 1
ᵕ 1
놑@@ 1
닟@@ 1
☞@@ 1
읗 1
밯@@ 1
굣 1
빷@@ 1
읕@@ 1
븁@@ 1
즙 1
팁 1
웍@@ 1
맻@@ 1
휜 1
쬠@@ 1
팟 1
돚@@ 1
픟 1
엫 1
변 1
죡 1
›@@ 1
◡@@ 1
‹ 1
냄 1
넏 1
㈜@@ 1
© 1
제민천@@ 1
칵@@ 1
죅@@ 1
냍 1
춛 1
옃 1
풔@@ 1
풔 1
펻@@ 1
듼@@ 1
굷@@ 1
죴@@ 1
빬@@ 1
칀@@ 1
늫@@ 1
줏 1
맅@@ 1
볍@@ 1
챀 1
탛@@ 1
캏@@ 1
◇ 1
늄 1
츗@@ 1
얽@@ 1
햍@@ 1
쪼 1
⊙@@ 1
⊙ 1
텄@@ 1
🏽 1
ᄌ@@ 1
폇@@ 1
뀌 1
쎼 1
늤@@ 1
욋@@ 1
닸@@ 1
냑@@ 1
엯@@ 1
졓@@ 1
덮 1
뤀@@ 1
᷄@@ 1
᷅ 1
걹@@ 1
겍 1
썅@@ 1
쿼@@ 1
얂@@ 1
팢@@ 1
멍 1
읅@@ 1
캣 1
냤@@ 1
й@@ 1
ы@@ 1
й 1
ж@@ 1
к@@ 1
т 1
з@@ 1
ю 1
у@@ 1
О@@ 1
ч@@ 1
ь 1
я@@ 1
щ@@ 1
л@@ 1
늬 1
넋@@ 1
봊@@ 1
× 1
℅@@ 1
뀍@@ 1
뎡@@ 1
겜@@ 1
줜@@ 1
덟@@ 1
첮 1
믹 1
뱡@@ 1
뱡 1
읔@@ 1
툴 1
백화@@ 1
닫 1
밷@@ 1
숮@@ 1
땝@@ 1
🐕@@ 1
🍦@@ 1
🍷@@ 1
😙 1
콌@@ 1
반신반@@ 1
틜@@ 1
읋 1
똠@@ 1
😮@@ 1
뙀@@ 1
캭 1
핍@@ 1
땆@@ 1
뻠 1
ᄃ@@ 1
댠 1
궐@@ 1
뽀 1
떰@@ 1
봫@@ 1
¿ 1
쇳@@ 1
옵 1
브랜@@ 1
폥 1
쉡@@ 1
턈@@ 1
오히@@ 1
맥 1
콱 1
뮦@@ 1
긹@@ 1
멎 1
🙈 1
늕 1
쨉@@ 1
샃@@ 1
욻@@ 1
촪 1
짯@@ 1
👌 1
싯 1
텬 1
휩@@ 1
핰 1
죳 1
플리@@ 1
̊@@ 1
̊ 1
‼@@ 1
뺨 1
눂@@ 1
옭@@ 1
녈 1
햞@@ 1
쁟@@ 1
쟙@@ 1
멕@@ 1
어짜@@ 1
팼@@ 1
높 1
텝 1
귻 1
됳@@ 1
홤@@ 1
귓@@ 1
듷 1
릳@@ 1
핗 1
뱇 1
춪@@ 1
쁮 1
💖@@ 1
몾@@ 1
（@@ 1
뱔 1
븅@@ 1
👈@@ 1
톼@@ 1
윷 1
좄@@ 1
긊@@ 1
큱@@ 1
밧 1
죱 1
✌@@ 1
ω@@ 1
ؘ@@ 1
ؙ@@ 1
♬@@ 1
♩ 1
픅@@ 1
펺@@ 1
⌯@@ 1
▾ 1
⌯ 1
⊼@@ 1
⌔@@ 1
⊼ 1
춍 1
밇@@ 1
핲@@ 1
땃 1
볻 1
스니@@ 1
괺@@ 1
🍭@@ 1
🍭 1
냼@@ 1
즏@@ 1
괌 1
늉 1
해물@@ 1
¿@@ 1
□ 1
댖@@ 1
겔 1
ᄅ@@ 1
샠@@ 1
젲@@ 1
뎨@@ 1
뭄@@ 1
젘@@ 1
똒@@ 1
윙@@ 1
맣 1
쟝@@ 1
궆@@ 1
쏴@@ 1
숙 1
났 1
쫒@@ 1
😣 1
😢 1
퉤 1
얠 1
😯 1
뀔@@ 1
쪙@@ 1
싀@@ 1
쟈 1
찦 1
엗 1
꾿@@ 1
🤓@@ 1
🤓 1
뭇 1
삑 1
챗@@ 1
멈 1
렆@@ 1
팎@@ 1
삣@@ 1
늰@@ 1
햍 1
윳 1
🤣 1
웆@@ 1
쎴@@ 1
욀@@ 1
휠 1
웜 1
깸 1
믜@@ 1
둦@@ 1
쒸@@ 1
롶@@ 1
츤@@ 1
댤 1
붠@@ 1
똬@@ 1
쁀 1
첟 1
ᄂ@@ 1
틎 1
잪@@ 1
멥@@ 1
쌔 1
핞@@ 1
🤯 1
퇄@@ 1
릥@@ 1
쩐 1
귫@@ 1
겓 1
캄@@ 1
밸 1
츙 1
퍽 1
햄@@ 1
찝 1
읍 1
😬@@ 1
😠 1
탙@@ 1
턑 1
옆구@@ 1
뫼@@ 1
씹 1
잚@@ 1
띵 1
빞@@ 1
봂@@ 1
멉@@ 1
겮@@ 1
쌨@@ 1
젬 1
찧@@ 1
쉣@@ 1
읉@@ 1
숍@@ 1
팝 1
뚸@@ 1
졌 1
밋 1
쬉@@ 1
읽 1
뤨@@ 1
콥@@ 1
싦@@ 1
큭@@ 1
헥 1
뜐@@ 1
룐 1
톧 1
샆@@ 1
꺽 1
좍 1
쒯 1
웤 1
릡@@ 1
칮 1
넷 1
껗 1
췌@@ 1
😔 1
😩 1
깤@@ 1
퐌@@ 1
궘@@ 1
쯧 1
땽@@ 1
😰 1
😦 1
닻@@ 1
핟@@ 1
넫@@ 1
돨@@ 1
뤂@@ 1
꼽 1
윔@@ 1
익 1
괴 1
군더더@@ 1
헣 1
쯘@@ 1
눁 1
늧@@ 1
돛@@ 1
밷 1
떨 1
듰@@ 1
튀 1
녑@@ 1
렄@@ 1
췸 1
찔 1
궃@@ 1
헝 1
떱@@ 1
녤@@ 1
쨘 1
긵@@ 1
렍@@ 1
껌 1
쪙 1
룻 1
찢 1
닙 1
놜@@ 1
텀 1
윹 1
:):):):)@@ 1
켭@@ 1
텋@@ 1
욛@@ 1
롬 1
팦 1
괭@@ 1
듣 1
핤@@ 1
폊@@ 1
탭 1
츔 1
ц 1
랕@@ 1
쁰@@ 1
캑 1
캨 1
😕 1
묹@@ 1
뺼@@ 1
궅@@ 1
샊 1
😿@@ 1
띰 1
😦@@ 1
늣 1
벆@@ 1
췰@@ 1
쮸 1
걈 1
넳 1
귄@@ 1
닾@@ 1
：@@ 1
썬@@ 1
젠 1
쁰 1
긑 1
핌 1
긇@@ 1
퐉@@ 1
땣@@ 1
벳 1
🤭@@ 1
엋@@ 1
죄 1
쌰@@ 1
뢔@@ 1
쏫@@ 1
— 1
젬@@ 1
롯 1
웨 1
넓 1
윈 1
↑ 1
↓ 1
쭝 1
엌 1
뽁 1
짹@@ 1
혜 1
홰@@ 1
웟 1
쭤@@ 1
괒@@ 1
😒 1
촵 1
몹 1
잝@@ 1
뗏@@ 1
😢@@ 1
옃@@ 1
꽨@@ 1
닮@@ 1
븀@@ 1
릎@@ 1
뱓@@ 1
괮@@ 1
넺@@ 1
뱌 1
깇@@ 1
뀐 1
멘 1
챵@@ 1
튱 1
톁@@ 1
앹 1
낦@@ 1
줔 1
쾒@@ 1
곸 1
찿 1
밪 1
곷@@ 1
텥@@ 1
닠@@ 1
놐@@ 1
냨@@ 1
얔@@ 1
쳉@@ 1
뫙@@ 1
가나다라@@ 1
콸@@ 1
쩄@@ 1
킅 1
봑@@ 1
멷 1
댣 1
걀 1
스트라이@@ 1
뵬@@ 1
긱@@ 1
몉@@ 1
앚@@ 1
렺 1
깬 1
뺄 1
좠@@ 1
걼@@ 1
좡 1
츌@@ 1
슀@@ 1
럔 1
몆 1
잌 1
́ 1
̯@@ 1
띤 1
캍 1
뙇@@ 1
겆 1
됭 1
쫑 1
홛@@ 1
뵛@@ 1
뇸 1
탈부@@ 1
뽓@@ 1
ᄏ@@ 1
쎼@@ 1
搜@@ 1
索@@ 1
复@@ 1
制@@ 1
쩠@@ 1
걺 1
쭸@@ 1
덭@@ 1
핓@@ 1
캄 1
욌@@ 1
얀 1
☠@@ 1
̣ 1
놯@@ 1
쎔 1
🤨@@ 1
🤷@@ 1
🙁 1
븓@@ 1
쩓@@ 1
😥@@ 1
랓 1
츷 1
룜@@ 1
챊@@ 1
좃 1
췃@@ 1
왁 1
옩@@ 1
싑 1
